node {
  name: "NCHW_output/perm"
  op: "Const"
  attr {
    key: "dtype"
    value {
      type: DT_INT32
    }
  }
  attr {
    key: "value"
    value {
      tensor {
        dtype: DT_INT32
        tensor_shape {
          dim {
            size: 4
          }
        }
        tensor_content: "\000\000\000\000\003\000\000\000\001\000\000\000\002\000\000\000"
      }
    }
  }
}
node {
  name: "b3"
  op: "Const"
  attr {
    key: "dtype"
    value {
      type: DT_FLOAT
    }
  }
  attr {
    key: "value"
    value {
      tensor {
        dtype: DT_FLOAT
        tensor_shape {
          dim {
            size: 4
          }
        }
        tensor_content: "+&\355;\244\'X<E\3640<\362\242\217<"
      }
    }
  }
}
node {
  name: "b2"
  op: "Const"
  attr {
    key: "dtype"
    value {
      type: DT_FLOAT
    }
  }
  attr {
    key: "value"
    value {
      tensor {
        dtype: DT_FLOAT
        tensor_shape {
          dim {
            size: 32
          }
        }
        tensor_content: "\214\335\335\276\333tE\276\246_M\273\023\221A\276\231q\215\276\267\215w\275\373\366\304\276nNT\276\033\305\214\276:G\014\300\324\254Q\276\344\2732\275\201\350?\276\363\303\344\276\3209\025\276\274\216\201\276\270;\305=\261\261i\276\215i\273\274\377\0101\276I\017\207\276\032\215.\276g\010|\276\371\342\007\275\237d\365\276\323\013^\276\002\315\265\274\277r\250\275\224y\342\274\rB1\276\321Z\025\276\303\315\302\274"
      }
    }
  }
}
node {
  name: "b1"
  op: "Const"
  attr {
    key: "dtype"
    value {
      type: DT_FLOAT
    }
  }
  attr {
    key: "value"
    value {
      tensor {
        dtype: DT_FLOAT
        tensor_shape {
          dim {
            size: 64
          }
        }
        tensor_content: "2\347\000= \256\211\275\210\004N\275i\th\275\004\177\301\275\016Q\320>\020E*\277<!\333\277\347\221\333\277\242&\203\275\030-\002\275Pm\273\274\t\346i\275H\353\000\2751|\320\274\331W.\276\251\255r\274>1C\275?5\314\274<X\206\275\031P/\275\204\3166\275Dv\007\275m\033\230>`\370i\275\374\005\177\275;\237\364\277`\272*\275\366\355~\275\347\352`\275\227n\242\274%\302r\275\323\034\231\275\027%\220\275\242\221#\300:h\300\274VT >\222\233\363\274\273\271?\275\250I?\275\032R\004\275\356{0\275$\330R\275\024\005p\276\274w\025\275\036\264\323\274\306\000U\274\375\"+\275\221\022%\300\254\307i\275\335\017}\274D\027M\275\270&\223\275\333\313\002\275\261P\001\275r\374\205\275\247$\'\275\273\270\321\276\212\205\250\274\316\366\216\2779\036-\300\217\257%\276K6\027\275V\206\327\274"
      }
    }
  }
}
node {
  name: "f3"
  op: "Const"
  attr {
    key: "dtype"
    value {
      type: DT_FLOAT
    }
  }
  attr {
    key: "value"
    value {
      tensor {
        dtype: DT_FLOAT
        tensor_shape {
          dim {
            size: 3
          }
          dim {
            size: 3
          }
          dim {
            size: 32
          }
          dim {
            size: 4
          }
        }
        tensor_content: "\345\266`>\351w\322\276B&\217>0B\263\275\"\r\010\275f\315g\275\362\037\347\276\231|^\276\255G\237\274\276U\253=\r\3057>\307\212\025>\301\007\030\2764\354\221\276\252t\211\276@\003X\276=\023\316\276\320n\250\2760\027\241<\304\267\203\275\333\030\261=\361\327Z\275-R\006=\256|\225\275\033\252\324\275\366\305\030\276N\366\237\276\225\344\210\276!\017\246\270\205\362\205=n\2439>\263*e\276\355~\007\276I+\276\276\0318\257\276\024\020K\276x\014D\276\356u\311\275\331\227U\276\0057\221\275OCp\276WUn\276\373K\022\276\353\337\251\276\302\037\205\275\264\271\334<\330\353\204\274\006\237\026=?\354\007\276\037\213\302\2759\274p=\256$\347\275A\004C>\340\336q\274w.\211<\236\216E\275]6\267=n\205\025\275\324\237\035<\203\001\001\276\251\2024=\033.0>c\3116\275\335JE\276w?\267\274q\324$<xi\0148\353t\022=\224\347/\275\260\016==\327\246\336;\376k\361=\317\031\320\275\n\017.;\313p\354=\337\002\376=\242\245l\276\362cO\276\2729\201\276\347\365\377\275\210\266i\276\007:\226\275\002\311\230\276\307f\264\2761\242R\275C\0174\274\206f\203\275\2644\'; XJ\276q,\371=\372A\245=d\212w\275]\262\330=\232c\337\274\010\316\037>\376\334\024>O^\010>\241\234x\275\211`\230\275\232\372\235=\037\220o<\242\343\323<\200\005v>a\224\331=\"c\376\275\312O\267=i\233\020=\\g\r\275[\353\035>]\343/=(\213{\275\312\241\212\276\227\246\204<\346S=\276\225\205\255<\356\216a<\032\360\246=v&\265<Cr-<\241s\202\274A \206\274\'Z\003\276\345\217\002\275U\264\366==\005\254\274\257\002K\275u@\255=\254\3325\275\273O\252>5\272\357\276;\032\212>\025\341\356\274\360\002&\275\310$W=M\361+\276l\315\331\273\331\267\217\275\252\355V\275\357\376\004>\336\013\013>7\003y\276\302\306\237\276\n\342\207\276\0232\253\276H\021s\276s\302Z\276\333\210\267=\334:\265\275\224\244\003>y6\331<!\210v\274\345\261\372:\253\340\005\276&\373\224\276XqB\276\376V\216\276 \004\037>7e4=\337|\272=\233N\000>\\/m\276\375\234\241\276\t\372\223\276cDH\276\346\272\037\276\2065e\275\221\363\202\276\362\025\013\276\323t\r\275\370s3\276\335\"L\276\377},\276\212\221G\275\225\344n\275\004*?=\312j3>\233\030\262\275\266\367K\275p\351A\275\306\264\031<\023a\224\272u\n\204>\327\251~\275\302\3065=f!\211=\3023\301<\313\202)>\027j\323\275\241\370\227\274\234\270\036>\221H\033>\031\\\355\275$\337\350=\300\004\370<DB%;Y\212&\27544\r\274j\224\366\275\n7\334<\373H\304\275\030\010\253\275\301\325\034=J\336!\275\030\304\274<\030\034\254\276\246\351\244\275\221\277\302\275{\202\243\276n\206>\276\327\362\024<=\\\204\276u~\322\276\350]\027>\277F\3549p\305b\275\231\242\272\275\232*\364\274\021v\002>\003\350\207\275:\225d=-z\236<\326\272\002\275\221\332\004\275\267\254\021\274\227,\201\275\362\r\214\275m\332>\276_R\204\275BZ\\\276e\354\274>\307\354\237\276It\300\275)\343\221\275\374\007,\275\345\002z=\253\253\207=\366.\237\275\'\036X=\321V\260=Q\342\231\276#E\275\274F\030\360=r\004\363=\262\300\276=*;\217=\"w\314\274\2570*\273E&\365;y\345\276\275\022\305m=\331\220\221\275\000\204\254=x\272\006\275.4\220\274\246\206\314=1OS\276\217\016c\275\212\355\005>\n\250\372\275rB5\275\205w\220\274\237*\"\275\034+\037>}\340<=a\375\277=WRD>\3733U=\361\373\270;\275\240\224\276\213\240\255\275\004\314d\2767\354L\276P\247\213\276\n\204~\276\244J\334:\235\245\353=\322s\245\275\341!2=\024G\255\275\033\251\037>\204\312r\276y \210\276/\n(\276\271\\\023\276 F(>hu\376=\234m\340=\210\302\026>\206\371\223\276&\265\262\276\361\014\r\276\347}\273\276\247]\261\2754\031\200\276\3103\221\2754\253\205\276A\335k\276\272X\337\275\013\311\230\276\345\022\241\276\372\317u\275/\205\212=\271\200%>UM9>O\027\026\276*\0025=\250\024\204\2750EF\276YJK=\251\032\025<\261\251B\274\251M\274\274E\021\214<V\245\262<\312\215 \275\222\254G\275\013+\326=xF\323;\304R\013>\024v\221\276\242?p\274\346\364\024=\006\261\303<\357H\003=\024\231\025>\037\261S=\250\245w\275S}\177=H\026%\2762%z\273\344F\034<\3568\330=\201\000\220\276W\361\202\276\314\243C\276\235p;\276\022\036Q\276\371\245x=\372at\276SM\274\276\0249a=H-\272=\247p\214=\311k\001\2750$M\276 \306\267=\352\361\331=m\376\n\276j\324\004>E\024\277=HB\214\275\262\246\003>}\350A\276H\206/\275\354Q\257\2769v\356\275([\235>G\225\206\276\354H\235>\216\237G>\356~\220\275\364<\215\274A\222\264\274}\210%=Y\033\207=\376E\207\275]\0212\275\345\227\260\276\n\026\033\276\000*#\276\277\324O<O\034\356\275\177\264\312\273\276\177\312=F\217x\274\372\027\231\274\216\\\250=\231\311\233\275\232\327\314<\325A\351=\033\312\207\275\365\232\266<E\376\024>&\222\216\275[\275\226>e\341J\276\3055\217>\217\255P\275\372J\374\275(\341<\276D+\206\275\325\200\337\275\202=!\275\242\211C\275\027\2365>*\215\030>\001\374\216\276\004\366h\276\021?S\276gG>\276\031\007\313\276r?\354\276 \024C\276\023\311\277\274\260\375\231=\261\250.\276\036E <\211\016\333\275\n\362s\276\241\310w\276\351\231\206\276\211\264\005\276`Ri=\251\343\025>y\2576\275aF\010=\333Y\213\276t0\204\276\376l \276W\023\205\276\336d\230\274:\271#\276\373\235\232\274\240\267E\275u6\310\275\275\0232\276\362n\315\275\336\263\205\276\000\341^=e>R=\031I\023>\232\271\332\274G2\321\275\254\251\377\274\025\354\201\274\037b\346\275Q\372v=\314t\231\275\202\310\212>\322W\301<\217`\320\274\223P\260<\310I!\275\2201\027\276s>\255=\333\250\210\275\374\277\234\275\302M\212\276\366\334\233=\356\245\230;P\366I<\336u\022\275\230\212\345\275z=\252=\274\277\227<\013e\374=\201~B\275Ii\022=\372\177\312=3\321\224<p\336A\276\303\232\371\275p\034\215\276\345S\267\276\250+h\276:\320N>\350~g\276\344\246s\276c\200O\275\345>\275;d\373k=\340;;\2709O\245\275\322\275\214\273\007]\305\271\265RC\276\037y+=\032\206\010\276\325\202\234<9\273\002>\252\373%>\350\210\301\275\234\335\234=>\nv=\022\243w=-oL\275!\002u>@\033K>\206\017\031>\374E\273\274\312\340\n\276j\006\233=\222\217\354\274\262\341\226\275\237\374\271<\033\360(\276Lt[>\350\311\237=\036\321\221=\237\305\t>\277\201\200=\207D8\275\372\212\305=?\315B\275\255\206\002>B\t\241:\347\314\251\275\316!f\275\213\315\265=\364\326\275\273\023\254\316=\246\254\006\276\302\235\212>\375\257m\276\307\342\337>t\217.\276*\216R\276\'k\210\276\363\014\240\275\334\365t\2764L\246=\237\030\313=k\331:;v\207\010>j\346c\276\'\225\212\276\256jG\276\350#J\276\014\202\225\276\316\303\241\276k\347\247\274\226\371\037\276\273\302*\276\333%\006\2758T\022\275\234Q\252\275\216m\230\276mG\250\276]\356\200\276\212\226\245\276\356\r\262\274=\353q\275\010\241\t>\177D\'>\203\247\232\276\312\264\212\276\310vf\276\213\n\246\276\\\336K?\037\3023?\373?\030?V\217!?(\342\014\276\210\310.\276\t5w\276\364k/\276\334\006@>\034\227\013>\007\224\023>\233\357J<sl\247=\032g/\274\034{\377\275{p\005\275e\244\323\275\241j\377=.\332\331<c\357\267>\005\341X\275O\304\373=Q\345\257=\227\352\311=\301^\006=\261\233\246\275\263\344\260\275\313\357o\276\227\356\010?\250\322\354>\263V\371>f;\307>yj\333=\354\332i\275\306\271\206=\264\3658\275\2420*=\370!\252;otQ<>\'A\275\240\3431\276\224+<\276\372\213\215\276\275\301C\276T*\354\275\365\261`=)Dt\276\347\374~\276\t2\236=3\300\220\275R\034f=m\367\335=\251\201\334\275\333}\264;pZ{=2a\373\275\247\273\272<\'^|=\321\321\217\275\026\177\361=\263\277\337\276wm\251\276Zg\213\276U\223>\276%6\323\276\361\237\237>f\362\272\276_\022\207\274\354,\270\275\254\2319\275`\275\362\275\306\004\374\273\325)\306;\323\333\215<q\326H=\262\037\300\276 \215B>\214\353\207>\362\332\307=,\037\037>\240\327\326<s\377\251\273\260\234S>\276\255\035>\340s\023>\213\022?=]\225\007>\227\314\373<\007\3239\274\341T\224\275\27437>\t\335Z\275Y!c\2746\200\351\274\326\2220\276\200\3026\275^\213N\276\361w\034\275\357\227U\276\212^\025\276\347>\341=\252@\001>+T\245\274X\205\026>km\017\2765M\026\276\024\374`\276\334\014\221\276\304\214\253\276]\344\327\276.\345-\275\205\005g\272\006\334k\273R\277*\276\205\013\352=\220~T=\023\304\217\276\272\370\331\276\364#K\276\217\234>\276\276x@\275\332\335\231\275\037\203\347=\243^h=o\215\301\276\353\255:\276U\314\235\276\337\313B\276\"\004\331\275\250w\r=\361\216\336\275\231\001\330\275\350\\\212\276\231l\'\276l\035\225\276\246\241\354\275\016\\\222=\351\263\363=\370U%>\301m\021>\037om\275\277.\233=\373}E=\354\223!<\244\327\257;\325\351\247\275\355n\240=\310E\333\273\237\336\231=\313K\206<\000\024{=\234\323\327\275/\303e:c\235\205=-_/>\305\035/\276e\3672\275\013\020\301=\032S\242\275\234\366f=\005\345\365\275\010\212\016\2762I\253\274\243\273s=\023\004*\276\220>n==\252\330;*\315\305=\006\215\n\276.\265\326\275\263\335\256\276cK,\276\221\214|\276s\371\207=\223\340\275\275g\326\353\276,T\034>\325\024\313=\223\r\232=\016S\025\274hZ\017\276\203\204\002\276\234\030\322=\226\332\004=\260\353\251=./\357=\020\250\257=\373\213\323\275<~\271\276\357\233\261\276\003\352p\276d\2314\276\3241o>z\251\326\276\3053\255>\201\035\342>Z\272\t>\r\032+>\354\215\276=\211\322\032=t\023;\274m\320\314\274\344\304\304\275ZX\244\276\017\022I;x[\003>]kh\275i\363#>4\027\320<\277\016\017=\032\034\224\275\253\351\356=j\316\315=\232\017\224=\253F\312=b\325\243<N\222)=\005VJ>\336\335\033>p7O\275\037\350\364=\354Wn\276j\245>>*B\305=iuM\276\244\272b\276\335,\206\276\336\377\205\276\230f.=D\320\014>n\021\207\275bF8>\005G \276\337T;\276\033T\t\276oQ^\276\225a\257\276\303,\267\276d\215=\276m\226\000\276\271`\363=\303f\004\276\\\2151\275\235\354\366\274\242\007\204\276Y\354V\276\206\\[\276<\2709\276q\320\320<\346\354\277=\2079\302<\031\246\r\276{\2048\276\207\362D\276p\312\036\276\244\215\037\276euU\276\216\246\322\275\270f\212\276\177F\244\275\331\034\202\276|^\251\276\365w\r\276\024\227\254\276B\235;=\006]\002>\305]w=N\213D>\306\224{=\220\370\003\276\272\242\260\275\225\030\304\275\335\222\231;\257H\006<\212\335\233\273t\200\360\274\207\300;=|\300\251=\344n#\275\005&\310\275\344\n\235=0!(\275\010\031\034>\203\010\365\275PF\021<\024\274\330<E\216<=\231\013\033=\324@\211\275\341\240U=I\336\234\275\207\2118\275Fx<\276Q\364}\275I|\210<\271t\206=\"8\205\276\216\251\324\275\227e\021\276\275\222\200\276m5\005\276T\230\304=\254\000x\276]#V\276H\'@>RU\226= .\003>\301\013\036>\305\305\350\274\324xA\275\210|4\275+~\341\274\327\007$=\235\342\265\275I\257\273=\024\245\325={\221\202>)\230\320\274\315k\320=4\217\000\276\342\254<>\373\020\226=\336\215,>Q\276\001\276Q>\234<\224\245\325=\242\3120\275{\220\020\276\252\361\340;s\251\274=\216\324\036>\360\302S\276\351\306\013\2764\231\337\275\335o\377\275\230\270y\2750\322\256=\231\314\370\275(\254\'>;\210X<\240\256C9#\326a=~\010\002>\362\216a\275ya\032>\233F.=\027U4=\227\303;\274\020\332,>+\306J\276\244`S>\312\325k>O\303C\276>\325\224\276\026F\234\275Z\007]\276p\347\202=\303\247\207\275n\202\337;\316\033\205\275\006\275\231\275\371\370}\276k\334\262\275\277\363\206\276?b\206\276\216!\346\276mn7\276\305\347H=\247\345\243=\314/7>8\302-\274\000\330\261=\364\322\205\276\"\037p\276\004\026\374\2755VA\276c8$=S\256w\275+\312\363<\203|\215<\212\214\003\276$%R\276\364X\206\276}\016 \2760\272@\276\227{Q\2762x\233\275}\235J\276\317j>\276Y_2\276\366\340\002\276\347\245\344\275\0315\321\274o\315F<\233\260\276\273\312\223V>\025\266\314=\376\253i\275\022\254\211=\275\t\245=\220\274\207;w\363\350<\245\220\201\275o\212\200<o\306-\275g~\345<9\025\032\274{\266\004<\255\010,\275\235\353\232\275\002\337\243<U\252\362\275_3\010\275\333)\200\275\346r\371=\354\254\223=\346#\374=a\376\204\275TJ\221=h=\340\274\214Q\232\275\336}\225<2\233\341\274\001i\003>\035IK\276\320\315J\276\010\373\030\276\254\213\201\276\006\204\201\276~S(>rHE\276\375\365\272\276\220qC>\304\205->6\373\302\274\020L\201\274\t\225\222<% \277\274\033|\352=\310\266G\275\025\216\177=>\365\233=\207\340q=(\224+>\302\230\253\276|-N\2764\344\231\276\017\234\360\275\\\002\300\2766\025\247>!\017\211\27667\211\275\340\037\323\2756mf\275\234|\256\275\235T\321\275\271\256\361\273\357\347\\\275\357\010\247<\2006\203\276\021ir\274V*\006>\002\270\375\275\247\250\375=\276 D=s\365\302=C\250\022=\241wH\275\251\236\357<\362[@\274\345\373a\275Wi&>\353\014(\275\346\222Y=2\355\256\274D\010&=\025!\347=\375\201}=>\360\376<\025\372\"\276\010\001\355\275\026\010!\276\266\033.\276l\254\231\276\310\372\223\275\240=8\275\265{\t>\241\005\013>\202`\246\276J\355\034\276q!\200\276\254\223\255\276\023g\300\276\266\355\303\276\304\272\214\275\0070#\276\013\236\224\275C\004\360\274\303\215/\274\240\3001\275\304\213@\276E\300\232\276\345\374]\27603\246\276)\231\367=7\334C>\210*f\2759V\021=v\200\202\276$\305\006\276\270\032\275\276\315\262\244\276\305\"\330\275.\014B\276\323\202\271\275\032\314,\276\261\325\212\276\244\345 \2760\273b\276\343\365\257\276\213\245a\275\315\366\000=:`I=R\301C\275\005\201?\275O<\206=o9\354\275B\030\034=%&\036<1\247\263;j\371\254;\317\201\017\275\3572\324=\322\266N<if\220=\r\033t\273\245\220+=\232)\3459i\274\r=\326\246\317\276\026%\202<\366\017\300<.\277\220;\264_w=sF\351<3x\036\275\004X\031=\243\330k=\207\207<\276\373\226J=\253\005 <\003\217\201;o\205\234\276<2D\276\235B\244\276\243\340\225\276C\221K\276&Z\352=\307\324\366\275\353o\301\2761\361\025=\006H\371=\225\256e\273m\207\306\274D\365 =\222\350\311\275\336U|\275\"\351\032\276\335\235Q=r\022\253<\365j]=\257&\241\275\236\323t\276x^O\276a\351x\276\252\215W\276\364[\244>\307\356\323\275\005\303\260>n\253\215>\004s\177=S%%>;\221q\275l\375\231\275\t\036\344=E]\226=h\214\222\275}\232R\276\246\367Z\274\265\245\257\275\r\235n=\2257\033<4\226\337\271\343/\272=\215\304\240=o\r\333=\225\0201\275\261\376\311=nA\t>\0225\n>s\310\223=\225\244B>\226<(\275\226\226\013\275"
      }
    }
  }
}
node {
  name: "f2"
  op: "Const"
  attr {
    key: "dtype"
    value {
      type: DT_FLOAT
    }
  }
  attr {
    key: "value"
    value {
      tensor {
        dtype: DT_FLOAT
        tensor_shape {
          dim {
            size: 3
          }
          dim {
            size: 3
          }
          dim {
            size: 64
          }
          dim {
            size: 32
          }
        }
        tensor_content: "\271\331 \276W\224)\276[*\370\274\361\367\220\2769S\005\276`\213V=w*\246;\247s8\275\274\305\352\275\252\206\t\300\253\263\337\275\022\312\307\275BFc\2751\360\342=\364\2056\275\2221\234\274r|&\276[\321\013\276\316\313N\276\341\311\277\276k\221@\276\031\001\273\275\252?\313\275\322\260\002\276\336\254)=\320\347\304\276\024\201V\275\031\224\217\275\316\341\237\276\346\000\374\276p\205\001\2761\027G\274\243\356\006\276\317\303\315\274\360U\365\2751\267\347\2747H\007\274\033\261F<\r\240\343\275\326pL\274fc)\274\001\366\n\275d\214\010\274\371\210\257\275->\342<*\031\201<\235\227\013\276\324\005\360\275{Cl=42N\275\352\253B=\031\240\004\276\261\220\001\275\014\322\317<\342R\253;\031\263\365=\020W\360<c\374l;\2149\271<\212\000\240\275\272\362\202;!\230\274\274\345\'{<6\007\371\273\017\254I;\002\211\373=\271K\205\275\2123\343\275fhE=m\257\034\274^9\322=h\364\001;\333\353\237\274H~\017=h\253\224\275\256\264\221\275\316A!\275\266\006\001>a\210\020\276\"@\234\275\265\333\001>><\026=\320\342\032=\233z\265\274\354=\004\276\3500\225\275\353\230\270=\266\214\007>x\320K=\313d\204\275f\201z<5\231\n\276\rZ+=5j\265=xti=\226>\300\275{\300\364:\363f9\275\243\001j\275\361Kq\275sK\365<\326\030\240<\002=9\275O\306\227\275\214\305\210<t+E<4\224\271\275F\021&\275$\304z\273-\004N\275~\036\326\275\324s\325\275\273j\266\274\376\312\000>0\231w\275\254\007\021\276\366:\353\275\371\227>=\321\231\321;\343\247\211\273F\241\r=\001\317\342\275o\010\227\275\027\036\201\275\310N\027\276\233H\300\274\362\253n\275\235\333w\275\335\304\205\274\014\277\343<}\330\334\275\374P\315\275\024\010\005=\245(\324<\030L\251\275\r\272\230\275\030\231\240<\202\200d\275\374\037$:\331\205\014\276\014\341\271\275\334\224\203\273~\345\t\276as\334\274\r\301\306\275\"\310\246\275<)\237\274q\304o\275\030R\027\275\'`:\274\224\256\023\275\300\032\253=\315\226\020\275il\250\275\303OS\275\260\026\224\275\001h\024=8\017X\275\303\357\217=*\276\013\276\316X\223\276\0169\r\277\237\347\324\273\343\370\246\276I\267\371\276\331^>\275Cp\207\276\013\3337\276l=\235\2764\375\033\277a\362u\2763\255\016\276\321\252\277\275*\025\371=Ote\276H\013\271\276\262\337\340\2735C\326\276?>\334\275I\361\262\276\341\027\274\276\366Z6\276\320o\035\277.\357\215\275Y\021\272\275\273\375\251\276\013\261\024\275\024A\272\276\361\023\277\276\314\323-\277\263\333r\276\303\213m\276\373O\006\271F2\204\275\226z6<\246\355\307\276\275\006\224\276w96\276*\311\212>\254\031\331\275\345\300\370<x\213*>\334L\t\276\371\232\207<\034\034=\275\005\034\340;n\277\371\275\"\026\216\275\364\361\270<zb\030\276\236\225O\2757kC\276>%\002\276\362O\223\275\257<\263\275s\301\226\275&S\003\276\323\213e\276W\032\016\276\256\202\004\276\341\341\031\276\311C\217\275\351\002\266<\0304\200\275\352\233\226\275\336\327\030\275\311\016\256\275}\205\"\275\336`b=\257%>\274\0209X\274\235\ta\275k\274\354\275\355\213\341\276s\214B\275\334s\242;\247\251\277\275X\013\030\276\266\243\344;\311G\351\273*\207\230\275\366\352\275<\373\204v\275u\372\237\275:\316\323\275\334C\357\275\201\211\302=\217M\207\275\205\255\240\275\243\002\t\276\276\343\247<\352u\314\275\241\205\024\276!e\260<\216\177\236\274\315\243\013\276F\243\377<\331\333\202\276\340|I\274\273\211G\276`\317\321\274\217\013\212\275-\337\254\276Nt\310\275x\344\376\275\314\230\223\275\010\003\360\275\230\350\347\275\000\360y\275m\033C<\363B\022\276\243L\t<\324T\335\273\231\205(\275|\013H\275^\'\201=\377\233\244<<\223\371\275;*,\276\303P\017\276\202\355\301\275\017\250\246\275\330\027\326\275\177U\365\275\347\270\035<\235@\321\2751\"\032\276\267\007Y<s\177\273\275\234v\252=\363~\023\275\347\007\310\274\242\251\324=\313h\006>|d\236=%7\267\274\225\310\314\275\002\247\003=\275\312\232\275L\373\215\274M\3668\275\212u\223=H\206\250;x\036F\275\222\323v=$H\246\274\035\254\322;f\330L\275\271\247\323\275\320\217\033\275\266\240\257:i\227\t=u\325\266<K\273\233\275v\345\335=\017\344\022\274\266\002\262\272J\313\267\274G:\343<0\205\311\275/\307\304\274R\377\177<\335\312\226\273\222w\324\275\'\376\277;\210\376\223\274\024\272\351\273%k\341\272@oa9\346<\224<\024\335\231<Na\236\274\016-\354\273\203\366\020=wM\014\276\304T\254\275r\367\017=\347\256&=\271\300\t\275e%\036<\311\330h<\021\301\211\275\376\t\233=|\354\220=\352\360\203\274\271\366\013\275\230b\356\275\222\212\006\276n6$=;\304\020\275\024\374\322<s\371\003\276\316\205\005\275\376\n\306\275}\245\347\275\354\357\313\274\020\223*\275\240\200~=\320\021x\275T\337\331\275\2040\272\274>\237L\275\367\266r\275\231~\260\275a\214\317\275<\233\252<\356 \313;\200\267-\275\310t~\275j\024{\275\033\204)\275\026\274\361\275\010\302\344\275U\332\327\274e\277\305\272\007\241\002>0\321\206\274\rs\367\275\267\031\001\275l\355\216\274\322h\253\274\'\0363\274\007!\302=\324\375\021\275\014_\t\276\001\2260=\t*W\275]\327U\275\370\316\261=\277\026b<B\334\301\275\254\266\373\275\276\361\220\275\006\361\013=7\232s\275Lc\336\273\014\262\220\275\373\3225=\265w\017\276\024e\217\275\222\006\221=\363\023\203\275b\"\031\274\340\251H\274\tG\316\275\200S\010\274\017MN\275o\262\206\274\343\341q<\230\020\324\275\371\262\225\275<\355\376\274\213,\323<\266\334\033\275n1E\273\372\336\224\274^\014_\275J\010C=p3\341\273\236\327h\275\337\324\316\272\320p\t=!p\234=\001n\021\275].1\275\256\235\326=\252\267\234\275\335(j\275\371\271z=\366\217\307=>\213K<\237*\245\275\327\2525<\332\327\233=\223\215o=8\261\310\275\264S\021\275\201&\273\275\200\316\n>\332\206\377\274\3509\332<\255R7\275\244\214\331=d;]\275\220\260\002\275\306dM=)%\034=\236qV:\324\301\005\276Mo\336=\023\226\236\2759\005\022\276\317!\004>\342I\020>1\010\301=\000I\262\275\324\271\221<\277\224\337\2748\273/\275&\3174<9\365\334;\373\023\333=+U\345\273]c\212\275\352\377q\273\214C\264=\237}\252=\221\264\227\275\316\260\371\275\034D\020\276\222\362\371\273\"/]<U\310\014=M\273\276\275B\241\376<\331\321,\275\356\325v=\2247N=L\331U:\255\273\224\275\24553\275\3405\352=\225\267\275\274\310L\375\275\233\246\353=\261h\316<\006\361\377=x\315\354\272\264\234\331\275\223l\371=\355i\301\273\001\016\200\275\245af=7\365\225=`v\343\2750#\331\275\006\032\235\276S\234\216\274\374)\361=\001\000\264\275\321\205\002\276#L\242<\265\303\313=\004\'\312=\014B\366=1e9<`\2446\273W\344\363;\314\267\306<\242&B\274\324*\277<P\223z<8#\257<\035R\226<\200\241\245\274{\366\260\274\336W8<\255\262\350=K]B;Y\037\346\275\357\223\203\274\3729\322=\362\337/<\207\303\272\275\210\307\321=^L\314\274\347\252W\275\236\317>\275\024\214\356\273\362x\212=\035a{=\025\r\337\275\261\225\231\275\374\360\216\274@-\210=\317\025.=\343\177\021>\220\005\233\275b\246F=\246\371\317\273~\330\370=\354O\236=\327\276\335=\270\364\003\276\275;\367\274EPM\274a\013\241\275\363\304_\275\031R\324=\032\032\266\274p-\240\2749\256W\274a\316v\275e\240\t>\200\n\367\275\224\305\202\273\004\n\241=4M\256=\354\233/\275\273g\267\274\210\234\314=3\360<=\313m\204<\304\333\020\275\'\334b\275\274\006\240\270g\013\270=q6\351=\264\222\244<q\t\360\275\031\255\325=\277\325O\274\247\246\003>?V\337=Ei\177<\302u^\275\376\301\315\275O\327\226<\347\004\014\276\002\365\374\275\217\266\310<*U\340<\327\241%\275\177\316\010\276I\3439\275l\331\"=C_\371\275^\361\013\276\365\242r<\224\r,=d\3371\275S_\r\276\274!\243=\032F\213=\226\352\255=\200\364\310;a\304C\275T\177\r\275\210\326\321\274\365\230\000>\365\306\243=x\025a\275\376Pq\273n;-\274MA\362=U\r\274=\330\304\205=\334\356y\275\336\3043<\373\241P=\370\362\000\274\2223\236<\315 \275<Ib\016>\230\223\373\274\006\027\215\275\0130\347\274/\204U=\333+\005\276\204\375\252\274\222n\036<\357\242\227\274\247\254\223\275pu\255\274\326\t\343=E\223#\274\221\020\270=\314!\344\275\272\300\343\275\271\320\002\274\367\307\323\274\336\365\201=q?\210=\305\315\010\276g\r\003=\327\002\242\274\013\036|=\013J\313\274\203j\210=\034\363\343\274\320\343\000<5\rh=*\375\242<\325#\243<~\207R=\273q\271=$\305\346\274/N\272\275\n\207\010\275\347\210\364<\327W\316\275<\345\300\275\240\033^\274\351B\223=\2701L\275\026c_\275\3368p=A\264\203=H%\273=\\\271\020\276\316\314O\275-=\273\275R\274\263={,\362=\177\036\370=\376{\331\275\222\200X=\266h\261\274\221\300+<I\276\005>\026\356\253=j\337\003\275W\376{\275\364\222\255=\342R\021\276h\313\210<\2338\204=\337\222K=+\213\267=\215[m<O\263b\275=\365e<\027\321\373\275\344\213\330\275\376\002\215\275\300\265\326=\3475A\275,\365\214\275\022\220\354=\"\376\351=\200\336R=\260\325\352\274\245{\205<xB\334\275RD\221<\206\351\225<\333\265\311=r\271\276<\321\211\312=\205V\324\275\350x\237<n\262\326=\375\321\226<\345\266\251\274\214\014E\275=\017\r=\261P\372\275\251\027\351\275s^\373\274,\221\212\275\025\035\211\275\347q\005\276\277dq\275\224Vj=\020\2743\275\r%\273\275\220I\264\274\3330\021=\254\021\364\274:\311\275\275\214T\267<E\312\327\275\216w\205\273e\025B\275\t\255m<\245\217\237\275\217\211?=\302\213f\274\\\tn\275\226\305\013\276\177\000k\275\342w\353\274\265A\222\275\342\230A=\262T\244\273\021(\340:\344w\205\275q\213\000>]\010H\275\373\344|\275\260$\n\276?\320\351\275(\274\362\275.\013\354\275\253\002\342\275\267V#<r\224\332\275\270\013\010<\233\257\346\275\001\2448?=\202-\275\251\337\326\275X\304\037;\244\000I\275\0142\202\275I\264\347\275A:\320\275\203\352\033\273\313&J\275?\022\263\275\037\2739\276\313A\365\275\323\n\331\273\361\261\023\275\244\261\375\275\311\221\010\275]\004\007=\341\371\317\273\235\327\033\274\300\255\334\2735\276\214\275\2554\232\275\036\205J<\001\325\331\273\265p\335=Y\214\365\275\327\374\317:\331r\255=\344\211\372\275\242\363\303\275v\343\242=\377X\231=\301L\315\275^\323\357\275XD\201<\026X\301=\205\261\277=\221\330\225\275\237gn<u\034\007>MT\205;\370\325u=\323\261N=\004\212\010\276\242\304\330=>a\334\274\236\000\027:\265\310W<;\343`=\360\355\344\275\003\230\204\275\261\307\323<\235\203:<\251\242d\275\317\224\263=\033oe=8%\367=\n\314\364\274j\231\371\274\017\257\271=~F%\275\307C\006\275YKr=q\262<=\320\"\302\275 \300\272\275\376\201\244\274\037\366\321=(P\335\274<$\367\275\271\000\360\275\360\376\000\276\270\256\347<TX7=\273\t\025>H\364\263\2740\223)<V\307\343\275\233\024\367=\362\235\001\272\031\343m;;\361=\275\274\036\200\275g\0144=\346\213\203<h\277\327\276S\211\020\276V\025\222\275\311!p\276\306\313e\275\014\327\361\274\363\026\021>w\254{\275\227\225\236\275\225U\227\275\227\262\350\275I\324R\275\036\233F\275CQ\373\273\\\t\203\276\236}t\275\236\r\361\275\2631\\\275\0203\020\276\207\024\240\275\007\301\004\271\245\351\375\275\275\233B\276^&\373\274\353\232\004\2764u\221\275c6\001\274>\230\266\275\353w\367\275\023\314\220\274\206t\262\274t\200f;E\315\322\275\325\032\225\274,\312\030\2747R\371<\303m\227\2750\262\310\275\275\203\247\274+\215\021\276\371\324m\275\304\230\237<26\305\2737\225\000\276\027yk\275&\2175\274\364z\200=\204\250\325<\367\350\253<+\307S\275R\271\251\275\323\276\341=v\253\252=D_\233\272\303\330\031\275P\222\225<E\354\315\275\222\321\002\274Sx\234=\343\335\274=\302\327\312\274\303\311\265\275`K\022=Ie\305\274z\013\231\275:1\035<uX\332=R\353R=[\207\230\274\357\021\030;\375B\300=\035\023\320\274;L_<\222,\301=\036\321)<\231\0038\275>\310\330\275\020+m\274\331\177\324=\'x\010>\025\036\356\274\214\347\344\275\037^d=\250\241i<\3474\220\273\374\322\271=\232hq\275=\n\340=\356`\311\271\361\201\362\274\243\316\227=r\336\256<T\222-\274}\030\022\276XW\265=\0252\010\276\236\200\304\275U\336\004\275\274\371T=\327\334b<\3540\357\275n\260\002\276\204+\225\273FE>\275\225\263\217\275\001\212\364\274\374u\223\273\35631\273\250\317\330\273\377\264k=\336?\001=\372N\261;\006E\202\274\252\024\315\275\240\033[\275\274\217\023=\020(==\2110\327<%\346\235\275Vu\226<\263\336G\275n\271\002>xv\027=\304\000\230;\373^\262\274\205\257\220\275%\310\205<\300M\313\275)\375\300\275^\316\275=\212\377\013=\361\212\001=[m\360\275\206\003\341\275f2\370=\202\334\330\275\254\215\005\276\022eD=?O\232=41\n\276k\275\201\275H#\014>s%\341=\374\314\212=\026\206\341\274J5X<S5\'<\004\250\347=\223\374\031<\204\004\014>\320,\261\274\3348\001=\243x\017\275`%\235<\016A\302=\330:U=^u\305\274%\337\020\276\202\036\016=x\366\232\275\320i\335\275\3349\354=\207}\375=\366\033^=Qf\237\275w\336\361\275\325\227\303=[x\346\274\306A\256<\245I\005\275E]\204=H<\'\275i/<<\340\302V=\231\301\321<\000\033\346=\361\363K<\370l\240\275zy\202\274q\247\301=nx4=k\017\276=\340(@;R3\3309\3017\r\275d\024\260=\244E[=P\271\014>(s\216\275f\272\325\275\376B\264;\035\270\214;pM\307\275\005\267\004=\372\322\224\275$\242\242\275E\370(\2751\226\020\276U` =\217\250\316\275\241\004 \275|\326\267\274\024\347\235=\231\335\345\273\242\273V\274\276\033\200\273\240\n\205\2749\237\220\275(\312\337\275^\252\r\276{a\215<\373\324\223<0\221\344<\217\n\317\275\360\260\340;\356\362\217\273\321\213\303\273\213\372\265\273}\0265\275\350\231G\274\375X\316\275q60<L\254\205\275\305?\r\276\375\365\217\275a\2654=\315\234\265\275R\226\325\275\027\321\360\275\225\310\206\275W3.=\021\024\016\275\226#\366\275{\221Q\274H&\032=\334\217z\275\347\371\231\275\2747\315\274]\r\262\275o\236\345=D\203\036<F\220\013\276\223\203\306\275\202\020\006\275\273\300\021>\235w9<\216\355\372\275Ct2\275\216z\235\275\331\006\361<\262\206\250=\005O\335=\322\362Z\275k\314f;\213\223\336\275\031O\335\275W\223\270\276w@X\275k\237H\27565\246>\211\201\314\274i\343\213\275\344@\230>kI\000\276\271\315\226\273\247\010\227\275\356\0017>\203\340\335;7T\351\275\206\365\t\276]\243\330\275\306\014\275\275\360\305\022\275\346\320\370\275\276t\210\276(D\006\276\361\036}\275\256\356\223\275\035\310\326\2752\202\223\275\360e\001\276W\027M\276\205\346%\275\2770\032<\302\252\230\275\354o\355\275\354\361:\274\315\263\036\275/\037\277\275-\016\313=\376)\310<\227\363[\275\343\275\342\275m\315\310\275,\363\243\2741\357\346\275\304`\215\275\337\236n=\262\233+=\032\345\263\275\373V\361;\027\004\342=\325\235\244<\211\035\010>;t\243\274O\231\347\273Da\017\275\234g\014=`\304\302=FQ\003>\371\252\364\274\223p1<\366\013\262<*\241\375=\377\233\240<\005\260\010>\365\235\375\275\261WC\276FV\221\276d\204\242\274%\023\311\276\235{\002\277Z\242\031\276u\231\352\276\314N\362\275\327\333\233\276!F)=!i\303\276\3400\240\275\344\270\266\274\355\"\362=\277c\t\276ft\254\276\254\253\021>4\253\237\276\347z6=\303\207\215\276H\004\242\276\270!\203\276=\200\202\276\\\312\246\275c\273\225\276\312-\205\276\220=\243\275\231\231\217\276\327\377\356\275<\342\302\275@\361\360\275J\237\005\276V\371\336\275\236\315\231:\3149\343\275\332\267R<\246\232\276\273L\026\270\274\270k$\274\367u\372\275\245\005*\275\370\255\337=\245\355}\275]\236\220\275rD\224\275\376\255?=1\303\324\274\023\246\006\276\211\300\341=gf\370\273\274}\343;\203\346\370\272\320\000\272;P\343\365\275F\307\255\274\310\270\204=\320\r\304=\3210\347\275\216)\244=\023\277\242\275\331\230\273\274\237\3345\276\302\203\214<\371#z\2744\351\350\275$\242c\275\036t\276\275y\036\260\275\344\317\343=\244`\216\274`D+=;al\275\256^\006\276\235\366\371\274\010\036\310\275\177f\223\274\354\305\373\274\352v#=o\210|\275\300\355\260<\177\300\247=x\217x<\375\365\227=\"\253\254\274\254(\210\275\362\033\342\275\022\245T\275\005A\306<\006\273\354\272\302\034\333\275\273&\010\275\013\255\317\275\227\337\331=4\223t<\330\275X=\010\303\354;t\327\227\275\362\222\270<\002\373\374\2744\316<<`}D=\n\310s\2758(\322\275\222r\364\274\274\355\230\275\323%#\276\357gH\274\271\257\003\273\005\312\221\275S\221\250\274\362\363\250\275\027\"A<\324i\027\275?\235\345\274\002\217\346\275\306\013\311\275S\300\004\276k`.=\214\310\257\275\371@\025\275\3509\212<\261\343\024\274xG\265\275x<\313\275\216\257\035\276\2758\036\276=\272\374\275\037n\276\275*\374\371\274SFf:\303\\\345\275\372r\036\275t\240\231=\270\226\317=\207\323\021\274D#\017\276\346-\007\275\013\241d\275\274\214\237\275[\204\225<\363K\001\275^\003\307=\022\217\321\275\235\251\302\275\n\363\376\274T\207@\275\222\005\222\275\241\331)\2750=\020\276\376\334};B\023\370;N\224A\274\251l\303;`\252\317\275Z\273B\274o\372 \275\346\'\220\275\007\004\266\275o\237\r\275\266S\300\2730\307\314\275\272O\200=\332\315\017\274\347\222\367\275\017\035X<\267\267%=\274\357\210=4\014\330=!UT9\3111\335\275\275\250=\275\243\000\222\275\'\246E\275P\326:=\235\305S\275Q\206\212\275U\004\315=\277{\363<\345\256\257=\215\265n\274hM]\2753\304\n\276\242\"\262=9\275\255=\205d*>\200N\243\275S\322\267\274:\002\354\274?\212\274\275\357\304Q\276\366\356\r\275\235;)<\321\004\224<0 \252\273K\033\351;\204I\233<\316\344\200=nJ\306<:F\254\275G\233l<l7\013\276]\327\337\275\302\014\037\274\022\270|\275B^k\274B9\232=a\273\327\275~\221{\273\311\324y=L\236n\275;\343\206\274\251_\367\275B\2325\275!\272\375\275D\t\245\274\347\234\323=\323\240\001\275\"\272\223<\264\240\007\276\274B\032\2750\036\375\274\362/\313\275,\230\320=\013\262 \275\310\260\317\275{\231\256<\364?\023\275D\024\310\276\357\017\032\274\264\245\270\276\251\353\333\276\370\202\255\275h8\004<{\200\205\276\217X\003\276\345\023\215\274\250\027\010\276D\217m<\211S\004\276\350\200\207\275\211=\265\274\225\021\032\276t\264Q\276u\3757\276\311?\225\275\253\266A\275J\314\031\276~\263/\276{\274\t=\302\223\325\275d\343\033\276\177t\237;\275\302\365\276@\372\277\276\204\0369\276\025!\364\275/\240|<@j\217;\200A\\\275-\224\346\273\331d\020\275\207\377#<3\242\261\275\345\316\275\275\254/6\275\322\277\033=\226-\r\276>\270i\275 \243\n\275>7\037\275\000[\211\275p`\034\274\006\342\240=W\373\227\275\275\'\362=\021\310\301\275L\034\261\275\273Y\371=\265\220\376\274\327\034;=;\374\000:\200^\225<\341<\352; \256\221\275\004\242\t>J\366\210\275\220\373\037=\333\226.<Al\335\2754\264~<j\244\253<#pP\275\247j\304<\371\311f=\3160\223=\242\365\214\275_!\352\275\372\3550=\001\326\205;>7\014\276\024\226g\274\013\236\242=x^\213\275\377\257\003\276\222\225\'=\026\332\340=\236\203w=UG\344\275\354\372\271\275\306^\313<\235p\355=\203\344x=\337B\325;$\361\021\276d\213\3559N\312\023\274I\235\322=\022\037$=4QC=\002\265\261\275\245x\314\275x2\257=\356\377\313:r\220s\275\025\233\272=.K\020<$\231\251\270\014\026S<\245S\326\275Z\330\337\273S~\230\275@\274\231\275\002t\267<\207\310H\273*\n\225\273\002\375\006\276{G\207=\014\233\343=&y\321\274\265\030\005\276+\005j;\310\025\343\275\346[\256\274\347\237\215=\264\255C=3\234\027<\362/\236=\":\000\276\324\367\360\274\001}\354=\017\363=\274FLt\275\263\234\025\275\355\323\233;O\314\335\274\343\017\335\275\017\305\330<&\241m\273&\354\250\273\265`\324\274*7\005\276^O\316\274\037\225\367\274\326\335C\275O>\307<t\212(\275  \230\275`\264<\275\252\231*<m0,=\\\331\207=\033\371\261<\003y\375\275\240\243\351\275\001\204\005<\370,\226=^\370\222<\311\323I\275\372\346\324<\017U\260<!\315\317\274\356\311\377\274\301\304\335=MG\327\275S\nr<85\313<\021\256\020\276\377\347\226\276\205M\031\276\366j\253\275\370\312o\276\213\245\005\276\202p\335\275\323\350\244\276A\335\266\275E{\370\274S<\221\275\323L\253\276vZ\017<\210\310\002\276\237\"6\276\272\'>\275Gw6\274=\247\371\275\002\320}\275:\277\007>\307]\017\276GW\347\275\357\274\273\275\007u\216\274t\3131\273\251\000\224\275\257/\373\275bc6;\341\021\265<\215\242Q\275]F\205\275\326\3558<\363\271x\273\240\332\001\276\206R3<Q\004\340=\\,\017=\200\342\320\275\037\266\227\275O\255:<\230\300H<.w\016\275\214K\010=^\223\244=\220\324\355\275\305\355\020\276[\345\225\274v\305\033=A9\027<^\032\360\275t\230\2669\266\241z\275?\256\202=\373^\003>\260\306\262=\321.\265\275\372\274\256=E\252\370\273T+\216=\004)\312=m)\212= \007d\2752\023\367\275Z\353\325\273Nb\202\275\357\340\374\275\322\361U\274Qi\004>*\266\262=\312\311\206\274\256\205U\274x[X=\021\361\324\275<\357\371\274@\001-=*;\274\274%\271\251\275Y\001\306;\007Z\244=^d]=\265Z\013>\265\220\357\275\364\"\321\275!\323\205\275X\320\223:\270\245\032<PB\325=\363\321\303\274\327A\351=\335\274\242\271qx(<\002\325\324\274q\305\370<s#t\274D\325\321\275{\376f=\261_\362\267x\251\212;3\255\356=Q\005\214=X/\356<\217\201\276\274\020*\374\275\000A\r\274\374v&<h\331\216\275b\344\216=|\376\230=L\261\222;\211\226\360\275\315x\014>e \203=\267\236\227=\310zw\272z\260\031\275X\377\320<\223)\324=Qw\276=<\351\362=\250\365N\275\200\247\013=X\3448\2750\367\320=\354\371\000>2\223\252=\346\337\257\275\004\023\345\274qH:\275?\333\t\2759\260\335\275\025a\327:\262\310\203\275\303\355\260<\356%\\\275+\220\001\273<\241/<\252\377\003\276~>\005\274D\371\004;J\354\317<?\001\222\275sc\275\2743\215\273<\232;\r\275\005O\204=\211\342\336\274\266\305s\275V_N\275\177\336\364\274\262[\001>\377~\366:\310}\022\276)se\275u\357\254\273\037Aa\275\223\373\032\275t8\336=?J\003\276\020\'H\275V\211\215=\363\254\2248O#\336\274\023\035\000>\302\036N=`\264\274<q\215C\275J^/\274\374\2319=\313\021><\231\263\272\273\030\273\252=\374b^\274D\326\257\274\2505\262\274\2463\220\272\300\237\215=K\177];`\214\005\276\003\021\251\275\177!\331\275@\334\005>G\227\216=\364\304==\3043\017\275.\211c=\303y\210\275\263j\336=\366\020\323\274\235\305\242=.P\274;\367e\002\276\226\017E=\310\377\206\275:\000\224\275\372\267\276= \301y=\324\276\367\275G\357%<h\'\255\2750q\273\275\251\021\010\276\236U\372\275\'I\225\275\237\366f=\345\367\013\276N\023\303\275\2714l\275\335\272\276\275\035u\313<=\223\014\276\206\257\231\272\340\334_\275\024dR=#k%=\360\016u\275\003\312\307\275\025DM\274\370g\016<\322\266\225<P\225#\275T\212\304=&\020\260\275~(\251\275D,\301=#7\214\275`Q\r\276gT\314=:E\327=\026\027X\275j\245\352\274\265\304b\2756G\001\276\316[\003<\276\266\273\275\205\\\301=\265\356\006\274\334F\373\273\t-\025\274\377\365\277=Vf\207=x[\267=\200\357\306\275\330\223\265\275e\275\362\275\321\276\224=\261=O=\305\262\003>\213\033\000\276\365z\362\275\026\353\212\275C\305\217=K\260\352\274\214\000\014=N1\007\276\266 \250\275\341\322\211\2740`)\2757\022\227\274zS\372=\270\225\230</\224\241=\363\260E\275X\224k\275G\227\314=\207\022\244\275^\243\\\275\034{\353;\303\275\203=\266%M\273%\222\354;\004\314*=1\201+=\037M\r>q$\325\275L\t\010;(\250\207\275$`\330=\305\273\221=/\2416=\014\'\275\275\025W\313\274\346\270\032\274\363\2705;`\307\337=#\301\352=IG\021\276p\247g\276\034 \326\273\203`\214\275\006\177\335\275\233I\227\275\003\"\372<\233\033\243\276\014:\345\275\231\354\245\275\014\036\250\277\222FE=\033p\223\274{\035\315\275<\225\014>\207\023&\275\370#\001\276\r\364h\276\275\206\251\274\275\014\263;\346~\256\276\336\366g\275\330$\333\275e\377\332\275\313\244|\273\243\367\322\274\346b\216\276\010\320\332\274\004Y!\276\307\235p==*G=0\373\364\274\017\310A\275\'\357\271\275\231ty=\252\342\254\275\013\356\205\273\363\023\230=\223\302\306=-\237\307=\214\237\334\275\003\264\006\276-\214\001>\272\210\337\275\225x\315\2754\213\216=\316y\262\274,\374\003\276\366\022\211\275\3050\247=8\335\323=/\"\'=\267t\345\275\376\025\005\276\350:\344\275<\237\233=\337F{=%\242\260<\224\303\356\273\276O\035\275\350\322\306\2758\354i\274d\257!=\246\255E:\273:\314\273\350\215T<\205\330\364\272\346\377\002\276\322\\\272\276\002k\254\275]%F=\314\263\275\276\215\306\375\275m\313\235\275[\007\275\277\021\016\376\275\266Q\024\276\264\232Y=*}\354=\270\200\326\275e!u\276\343\034\352\275\244\363\230\276W!\024\276\276\t\226\275\033\'\017\275\207\260\263\275\343}P\276%~\'\276)\257%\275\r\373\023\276\260y\245\274\355\350\275\275\206\360\177\276\364\326\233\276\026bW\276\255\365g\275:\222\r\2767U\003\275n\326\210\274\232@\330\276\222\344><\250\242\353\275c\273\323\275\004t\306\275\t\217\317\274\001@\343\276\335$\016\276>\356\030\274\375\023\210\275\350\353\263<t\243\206\275#\004\311\275\326/\271>_^\253\275j\307\370\275\210\264s\274uGQ\274\371%\002\276\256\320\210\275\241\251\333\272\246\351\335\274.\365\013\276\353\023\251\275+\002\277\275%^\032\276\273\333\204<\244\207\237\275\023r\374\275\331\303P\276\346\237U=)\254\255\275\222\007\271\276\317\363\223\276\234\003\332\275\031\363\336\276\033>\213\275\205\302\311\276\226\231`\275\356j\275\276\245\316,\276U(\265\275@}\200\275 \255\030\276\346`\225\275\364L\365\275\225i\270\276\2363\311\275\255\343\201\276[U{\276(\322\211\276{\036\260\276\373\014O\274\266\235\263\276\264\263t\276\235FE\275\264T\225=\222\244d\276f\3617\276\023.#\276\330\336?;\217c\020\275\\\342[\271\3410\224\275\272\337\343\274\237f\254=\305w\240\275\364\316\000=\\\317\223\274\001}\266\275\236\222\223\275\023q\232\275\241\333\021\276L^\250\275\312\250\326\274\357\027\216\2758#s;c\334\350\273]\tY\275\246\325Q\275\355h\321\274\312vI\275\346\rN;K\371\352\275\255\271\332=\234\347d\274nu-\275\r\376\206<\242\263\007\276\304j\350\270\313\331n\275\311\323\275<\273\266\261\275]cC\275\201\237\312=\225\247\n\276\232\334\216\274\377\246\247=\377\032\021>\225\316f=\350\251\036\275TIA\275A6!=\274,\017\276H\354\034\275\222p\013=:\212\000=4\324\360\275>\231\210\275\264\342)=\3509\255\27465\363\2739\254\025;A\002z\272T\304\025\275\036\317\275<\352s\301<\"x:\274\300tt\275m\362\004=\305\364>\275\377\362w=\032M\363\274\334\002w=]\310\312;~UJ\276\377\271=<\362>\344\274\030\260\336\27632\231\276\315\342r\274koe\275\342\205\213\275\207\371\007\276\246\032\253\275\207V.\276D\270\014\276\307\221\276<\3651\336>\037\203\203\275\240\252\036\276\375$\361\275\r\263X\276\365/\t\276\277O\317\276J\221\237\276S\037Z\276\345\035u\275\360:0\276\266\243\252\275\265W\032\276t&\272\275\201\367\255\275H\223\246\276\010\026\253\276>^\023\276`A\253\275\307\236\001;\313\r\360<_\352\r\276sd\305\275\356\320\003=\377uz=\362\345h\274Eb0\275=}\343\275<\022s=\212<\251\274=\255\245\274\\\340\032\275\332\352Y<\276\307\231\274+\337\016\274\316\374Q=\010\025\222\275\030\225\313=\347\027\r\275\202\275\333\275Ev2\271\33407<|G(=\226\227\274\274\014\313\311\275o:\264\275@\205v\275\323:\266=)\002S\275%O\306=\001\217\263\275\256\375\236\275\243\354\033=\345\371\211\274\375\257\322\273]$\332=h\212\211\274\252\365U\275\332\313\007\274\202}\267<\244\273\222=Z( \275\034\250\367\275\001q\016=\271Y9;\224i\240\275\2457\223<\345\313\313=\254!\336\272\345\205\207=Q\374T\275}\017\257\275\232-)\275\232\002\274=\321\316\323=\272\240\340<,\316Z\275MR\230\274~\201\026\275\353b\350<j\372\265=r\234r=\205$\377\274\3371\016\276\334\0323= \242K\275\026\322A\2750\202\267\274H\244\350\274\247_\357\275\'c\224\275\227\326\241\275\364{\375;p\027\333\274\027Ea\275\002\330\250<\371U\201\273\"\356Q\275;>\025\275\304\327\326\275*\237r<\037\310}\275\252\234=\275\310\316\333\275po\376==\372\017<\320\306\256\275\362\323+>\222\331*\275\006\203\236\273Q\264\r\2741\001\336\274\t\252=\275\024\331\204\274\254\263\266\275\373\365\242\275\356I\234\275\340\216\353\275\270\333m<k\334+\275\352!\313<\374\213\002< \367\345\275\254\"G\275!\317T\275\213u\371\275\267j\323\274b@\251\275\337\366\030<.\220C:k\221\327\275G\316?\275I\221\202<B\317\361:\207$\231\275a\371\333\275VV\363\274\354\034\370<q\037\347\273\244,\033\275\345\256\260\275\006S=\274\341\216G\2758W\031=\217$\261\274\324!\315\274\214\211\233\275A*\242\276>\227#\277\364\255\027\276\213\206\241\276\211\271\353\276{\307\006\276C\264\231\276\313\347\223\275\356\371\325\276\305\373\003\300i@\244\276\243-\002\276\3619=\275\014\246\244>g\274\207\276\243\202\236\276\372 \344\274\227\007\307\276\271A\300\275\035\312\245\276\337\254\211\276\311\307H\276\330\023\002\277\247\237\243\275\372\204e\275uD\177\276\327\032d\2763\250\221\276\260W\374\276\003_d\277;\245\001\276\221Q\017\276\2721\257\276Ym\006\276q\215\326\273\007N\302\276Cu\203\276Z\216\344\275\336\007\323\276\"\007\332\275\243M\243\276o\200\312\276\026\266\312\276\311~\367\275\206Ar\275\310\275\222\274Z\360`:L\371\251\275w\205\004=\207&H\276\235\227\013\276=/o=\"\357]\276\235\242\245\275\207\343V=\032\313\354\275Q\304\335\275\025\301\242\276=v\325\275\355%\340<\246\253\320\275\276\220*=\306\365D\275\370\246\032\275\354\306\021\276)u\335<\215\277\320\275>6B\273\336o\t;\250\254\022\275\037\250\332\274\371M\224\275~\277\374\275!6N>\376x+\275\3675\226\275\035E\327\275\\U\262\276\361\010\276\275x\006\264\273<L\302=\373\214I=\362)7\275\000\201i;\002\336\373\273\342Y\241\275\272\366\214\273\225\205j=Zt\210\275T\364\007\276\206t\026=\375z1\275A\334}\274\370.\002\274|\265?=|o\377\275J\005M<r_8>5p\241\274\255l\250\276\325\324\272\275\330O\001=\250n:\275\2651L\275\"\325\254\275^)\361\277\334\177\r\276\352\035\002\276Q\273\352\275B8\013\276\245\ro\2754\271\315\274\302,(<k\340\252\275\211\254\236\275\203\277\345<\342\256\252\275\t1\214\274\n*8\276\365\312O\275\322\3348\276 )\362<\306\377\n\275n\017\315<\335\352R\275B k\275[\223N\275\370\221\377\274\324\225\034\274\230^\376=\355\323\305\273\372\031U\275<\177\373=\260\352\320=\277\361\024\276[T\235\275\240\r\201\274\\\352&<\262\343\215\274$\204\303\275\336Qh\273x3\222=@\217\316\273\032\000\271\275\246\376\250=A\032\014<\025\023\013>\266_ \275\344\010p<\0051\247\275\026\242>=\314<\302=\321\232\276=7\205\377\275\263qb\275\307\363\306\274\347\376\'\2747~\333\274y(\026<\036\016\242<C\316\255\275\002T7=\001\257\223<\267\212\263\275\364\202\007>Q\350o=9n\013<\341X\r\276\206\216\260<\314-\261=\226\010\264;\237\007\263:L+\034\275\234|\312=\323\341\303\275\304\034\031\274*\211\270=\367?\266=/m\303\273\344\237\216\275\216\327\353\2733\006\246\275h\315\225=\361\315z=\203\255\243\273]\225\253\275\354F\374\275\333?\302\275\304\"%\274q~\232=\271eY\275\036\245\317\275c~\324\274\250\334\213\275\'\026h\275\271\316\253\275\3058[=\002T\307\275Rx\371\275\305C\214<Y\267-\275#\352\226=\274k\333\274W\241\320;\3038\314<\276& =\241\314\224\275\357\242\t\276\313^Y<uG\037<\227\240Y\274\217\001!\275\014(\000\275W\211\357\275\365]\030=\031\212\263\274\325\374\263\271\010(\002\276\r\371\213<\366c\270\275\263>0=\327\014\251=\356i7\2749\232\232\274\340\005\244\275\262;\235\273\331)\005\276\262(E\275o\304E\275\202\031~:\305\022\035\275\243#;\2757\266\212\275[\0343\274\262\336_\275\235&\202\274)\200\024\275\300\270\302<@\000#\275\203%\013\276\370F\351=\350\271N\275\225U\335=!}\327\273\370\'\351\275\033G\017\276\316\'\342\273o\002\241=\357\375T\275\375\013\271\273\371\342\036=\233\364\241<\327\027q=u\021\311\273\364\242\266=\211\022^\275aw\320\275c\342}=v\246\202\275\216&K\273\2736\305\274\352\336\215\274bq9<A\203\022<\243\241Q\275\305\362:<g\245\371\275\t\020\n\276}^\377\274\251\203\331\274?\321\271\275\204\243%\275\220\250==\221\2502=\"(\003=\317\230v\273\310\306\243<6\222\352\275\"N\363=:E\262<\266\234 >\234\021\226\275l.\264=\3763\035\275\020f\026\275\326\262\365\274c\277\210\274KS\006\276`\030\023\274\256(\330=@\271\211\275H\006\252\275\331\214\207\273k\256\201=\205\261\363\274\324Z\033\275\374\254B\275f\300\000\275\311\006\227\275\t\226\264\274\350\267-\275Y\020r=)2\225\270Y-\276\275\324\310\253=\256\363\207=8\254.=\266\310\n\276\352\031X\275\036\020E:\003\321\212\274\223I\206\2740\203r=\322\030\331\273\246\030<=o\272\272\275\254r\301\274N\'\025=\0259\317=\014\362\000\276\242\260\307\275\345\030\251=\355\307\216\275V\t\253\275\307\253\260<\277#\274\273\341R\004=\030\332\247\274G\013\310=CS\014\274\347!\002\276\375-\336\275\264\367\304\274\247\272\276<\nU_\275sV\024\274\3416\215\276\272\367\005>\211,Z;\021\005\303\275\220\017\206\275\201\016\003>z1\030<\331\243\224=\3709\016>\227\010~\275i\261\023\276\363\217!;\t\217\310\273\272h\312=k/\206\273\"3V\2757\243=<\225i\320=*Fk<68`\275\204[\252=95K;\232\273\333\272N\336\317\275\203B\247\275:\214\371=\317A0;.\263\013\276\201\3210\275{\004\347=a\222\030\274|\252\206\275\003\276\037=\263f\375=\333\313\032<\331\2778\275\201\325,<i\2354\275\262\352\365<\3152\272=\035\033\210=\354\326\336\275e)Y\275\037\264\255\275~\201E=\004\357\346<\313<f<\252;\370\274\371\307\273\275\206\362\007>}\243\215<\241+;\275\254\226\205=O$\262\273\260\350\236<1\211D\275\371\030\263\275\353\345\376=\304;\221<d\n\242\275\030\257\247\275N\200\357=\244\314.\275w\340\250\275xv\361;R\356%\273\322\236e<$r,\274\"\366\362\273\233V\000<[\371F=\205\372\242=\325\351\320=#\321\r<\036\277\216</\270\204\275\351\302\t>\250\352\230=<\270\205=g\014r\2752,\014\276\365,\303=\230g\270\275\352[\022\276\357Ih=\005Ph<f\216\234=EVm\275\212P\t\276\256R\261=\331\255$\275\355\361f\274/\247I\275\026\312\253=\"u\352\274\353r\022\275\237\226)=\026\023\315=\\\305\377=\314\032=\275\276C\372\2753\177\226\275G2\002>5\206\030=\327\034\177=\027\331\026<\330\350\350:\332\306\337\274\004?\255<Z\365\347\274\334K/\274\374`\275\275M#\221\275\001d6\274\231_\006\275\216\224~\274\\\266\016>\260\231\335=R\032:\275\"}\252\2751\242]<\352\241}\274\0166\236\275\370\216g\2757,.=\215\374\331=\337\214z\275\302\207`<\364\362\211=\263$d=Mg\313=\310\204\004\276=\235\030\273\263I\360\275\341A\342\274\254\272\334<\363\022\\=\230\210\014\276Jv\235<-\236\250\275\032N\t=\224\004\n=\324\021\005=Q>p\275\020\030\017\275\355\322\243=\250\200\203<\351z\233\275\343\244\336=\017\313\n>\000^4=\365\006\225\274r\321\323\275\215\316\226\274$v\334;\034\022\303\275q7\r\2757\252\r>e\202\236<CE\204\275\356\275\302=\234\342v<J\312 \274=!\212\275\240\251\244\275\266@\366\275\367\305a=\247\236\312=\240\234~=J\326\217\275i\366\033<6\223\250<\307\352\376=\2118\244\274g\003\334=y\037p\274\323\325\013\276\374`\304=\270s\267\275\373%\354\275\027a\331=n\344\264<\201\231\272\275B?\014\275u\254\332\275\233\340\204=\375\033\317\275@\252o\274B\200\305\275\364\236\215\274\022p\030\275\360\361\032\275q\014`\274\016\234\327=P\031\303=\253\222\n\276\245g&\2754*\n\276D\321\364=>\302\200\273\315\302\304<Z\262\300\275\003\007X\275QJy\275\336\317\000>~?\362\274\335\0164<Y\372x\274O\\\346\275\355hM\275&\345\233\2751\330@\275\310\337\000\275\231u\370<\236\265\243\274b\032\362\275\205\221]\275\255fa=\315\017\205\275\360\225e\275rg\000\275E\001\034=\3668\302\275\207\336\343\275\r\024\250\275\2618\211\275\363Gd\275\363\223O\274ex\245\275\251=\005\276gp/\275\2263\001=\212\216N=\210\214\274<\005\036\026\276\244\260i\274j\td\275T\302V\274\240\255\260\274n\340\202\275T-\277;\340\217\"\276\241\305l\275q\354\273\276\023\004M\276R\265f\275\3750\336\276\327$\027\275\242%r\276?\341\005?P\354\034\276\356\200g<c\000\031=\252o\221>F\222\017\276\223\323\200\275\302\265]\275O\362\301\275pGP\274\017\247\013\276\244{\337\275G\205T\275\372\213\253\275\320>\301\275\273\273r\276\001\024\256\276\010\n\363\274k}\230\275|z\220\275\001\205\237<\364f]\274\202\023\017\276\261\243\033\274\247q\310=\027\212m\275G\321~\274\005\367\252=\356\276!=)\014J=QQh\275\201 \271\272N\013\351=\214\'^\274\240\033\364\275Y\261\030=\353E\311;tv\223\274\347\232{\275*L\222=s4\300=\355+\235=Fz\010\276\022\301\214<\224\261\031\275\r\262\310=\235,2<C\245\263=\305\347n\275\377\2466<\342\337g\275\276\261\005=\225e\210\274\241\241\n>|y\014\276\016\376\306\275\207\243\324:\016S\245\275KXB\274\226\302#=|\344\017=_v}=o@\000\276\022\273\265\275\303\303\242\274]h\340\275=cj\275\202\3548=\315\023\365\274\240X\334\275\005\234\230<z\3707=jjQ<\350R\277\273\215\364\235<\'\257!\275=\352@\274\244J`\274VDa=\356\270\'>\363\255\361\272\205\373\241=\000\312\035<\274x!= +\336=\353[\210\274\027&m\275X\371\006\273\323\262\355\275U\322F\275\253\374\242\276\245\'{\275\320\242\275\275R9\026\276\256m\346\274a</\275\371\354\255=8\332\357\275\036:\211<\264\355\274\274\n\275\t<+jQ<\033\034\220\275UX\305<\030\246\213\276a\212R\275\364i\214\276\202\305\013\276&\236\265\275\344\0001\275\311\360s\275\221\260\312\275a/\323\275\3227\034\275\336\0330\275x\326\034\274\023W\243\273e6B=\007\367<\274\271{?\275c\215\360=jx\255;\224\271\202\274\274)\302=\361(V=<\2754=N}\230<\354\343\321\275\262\216\261=\343\351\246\274\005U\203\275\362\331\233\275\375\260\334<\213\241W<{\222j\275o\327\230=\351d\315=\346\"\326\274>j\022\276\254\265\021\2756\021\276<\034+\342=\373\343\350=.\334\310=R\032\252<\314\301\251\274\022\327\t\276W{\343=\026\201\017=\206\354\300\274\"\344\373\275\362\366\340;g0\340\274\353\245\377\275\353,l\272\317\272\364=\247\340\241<\026z\220\274\337\377\216\275\240V\364\2759\314\212=\330\251\n\276\221\260\003\276\315l\300=\301\225\301=q:\345\275\305\235\313\275w\262\307=\002\207]=\204\362,<\334\235\252\274VJ\220\275\211\177\020=\346\260\265=\234\253\001>\316\003\024=,\231e\275V\316\004=\3378\220;8\213A=\3634\275<\225\315\217\274\027O \275\370\336\233\275\261D6\275J\032\"<\307\244\000\276\2068\324=\233A\210\274.\330V\275\345\233\n\275\201\214\277\275\201\344\310=b\223\r\275\320S\215<\0138\262;b\324\256=\363\353\316\275\031\207\266\272\004\314\256\274\326\211\233\273\252|\235<\035|\217\275\222\344\017\276?\007a\275\025n\035<#\035\226=\302\376\312<\277\234\252\275\025\305\235\274\024\355\233\273^\005\215=~\233,\275\263E\224=\344s\003\275\357\246\254\274\371\301\251= \020b\275\n\036\307:\244h\306=\354y\217\273\000\267\321<f\003X<%-&;\205V\247=\350\335\207\275m\365<\275e-P\274C`\303=]q\017\276\315\277\241\275\244|\023=\026\206\236==\005\310=\200h\231\272\237\216%\275\333\203\021\276#\030\233=X.\035\274b\252n=\327\233\000\276\224=\225=\210aH\275\264\232\007>\331\037>=Q\361\361=\231p\023<b%\244\274\305\313\300=%\025\333\275\025\221\336\2753{7=\241\233\300=\3611\007\275\020\316&\275G\361\235<0S\215\274\306vv\275\374M<\275\263^\223\275\2053\272<\321D\321\275\251\222\323\27597\305=uB\222\274l,;=\n\021\301\273\367<\002\276\020\240\366\274>\305\255\274\263\221\350=\021_\003=\233P\300\274\235\353\226=\270\327\242;b\\\212\2745\\U=\322\303\244<I\227=\274 )\272\275e\312\"=\336\020\260\275\000\316\003\276\370\217P<\013\r\331\275b\350\262\275\367L\334\275H>p\275V\\\270=\261\020\253\275k$ \274\242\356\034\275\306\212\341=\247\317\331\275N\035\210\273\021|3\275Y\344\257\274\035I\206=\007\321\000\274\217\374\016\276\021F\013\275(\237j=\234\277\327=\314\313:\275r\020\027<\343\001\202\275\225\371h<\202\322\216<l\037T\273Y\371\231\274\235q\000\276\n\211J\275e\313\257=0 \\\275S\337@;vF\310=\224k\232<:\031z\275d*\n\276\257\324\342\274P\251\243=\241\030\272\275\315\001%\275\351Y\035\274\262\202\247=\250\360\211\275\014\206T<\354\\\350=\002\3672\275\222\033\033\275\305w\323\275g\020\010\274\325\351\214\274\0038\252\272\367\027\241<\346\014\203\275A_\242\275\030\032\305<Y\367\216<we\315=-n*=Vi\276=\314\203\001\276\325\036\030\275\244\360\027\276=\032\205\275\275\244\326\276N\357\r\276c\305\360\274\252\206\211\276s\251\004\276F\372\014\276u@\010\277\002\013\224\275S\271\266\275\244\350\327<8\314\374\276\335\3168\275\000A\245\275\351\354\304\276\267\326\371\275L\356s\274\256L\224\276)\355\250\275\013!\230\276a\340\327\2740`$\275\245o+\276\322\355\332\276\303\330\345\275\211\324\256\275\367\367\230\274L_Q=\273\022\243\272\3338\0259g$\215\275Y\313\235=U\nn\275d2@\275\002H6=n`\n>\231\246\203\275\215\300\354\275ae\373\274\034\274\325=\315\n\204\275>f\347\275`of=y\266\210=\306l3<\377\357\234\274\271\331k=6\223\231=\315\247\364\273\026\201\220\275\315\214\013\276B\341<\2757=w=W\023\267<\3454\326=[g\234\275\256\333\302\274#\373\251;p\210B=\200.\016=\001\225\037=\030\267\330\275\004\365\036\277D\311\266\276\262\274N9\001p\266\276\001u\363\276L\026\347:\252D\021\277;tJ\274\216\277\270\276\346d/\276\301\014\302\276\2017\023\276\201G\363\275\224\341\033\276\220\270`\276\277\031\206\276\364\204\220\276{\241\225\276\341\0345\275\006\222\256\276U\'\220\276\230%\271\276\350\375\254\276Q^l\275dj\246\276\341\214\235\276=\005\035\276\277\201]\276\2550\365\275\035`\262\275\032\313\216\275$\346\331\275\212a\365\2743\212T=&w\003\276\034\212<\275\264\335\335=\210\275\260\274\001\320\216\275C\245S\274<\360\002\276J=9=\273\272\324\274\027\337\356\275\256\211\020\275\354\335\233=\336\362$\275[\226\304\275\331\230\353\273fh\004>7`K\274\036Q~\274\260#\230\271\r\231\217<c\262\247=&\327{=_\244\261=\371~\243\275T\3079\275\200z\275;#\351\346\273\230\244\343\274\201\202\313=\032\016\370\274FG\364\275M\203\027=\331\305\3319/p\372\275\023\006Y=\224\222\330:r\274\323\275\272\223U\2750X\317\275\311\306==\036.\236\274x\203\256\274\t\345\207\275)\344\000=\226\024\251\275yf\333\275\304\035\341=\360\341x\275\354\313\342\274\216\316e\2739\210\007\275\037\344\344\275\260M{=\316)\356:nj7\275Z\214\016\275\375\031\360\275\204F\303\275}\221\351<\235\321e=\r\277\213=c\301\014\276\253H)\274\201\2453\275\027`\010\276\254\267\306\275\304y\217<\360k\236=\007\235\270\275\235\243\217\275\375\021\350\275\250\227C\275\206\212\303\2757\024\014\275~\214\202;\331\223a\275\200\317l\275\377\373\272;\352\354\'\275\275\377\355\275\260@7\276;|\236\275\274u)\275H3\026=Q\353\250\275R\\\242<:sr=\035\372\007\275\277\252H\275\366\301\034\275\201\310\000\276c\224S\275\320B)\275\271K\303\275\373\004\237\275.\340\"\272\267\031\266\275\215\272\277\275\371\365$<&\320\270\274\025B`\275O\n\360\2752\376\276\275Cb\030=Q\242\305\274\257\025\341\275\252\2217\275\022\003i=t\013\000\274\340\337\336\274PBK=\303\345\246\275\275\267\255=\236D\n\275]J\366\275\177D\326\275\200\231V\275>BS\275?\326\t>\247\034\346\275I9\353\275\347/\020\275W\245|\273\014M\030\276\220Y\216\275\177n\030\275\355\353\000\275\376M\206<\355S\253\275w\240\260\2752K\243=\232\\\312=!b\010\276U\206\216\274\"\337\210<o\226^<.Z&\275\220\007u<\254\\,=k}w\275\245b\236\275\365\263\020\276\247i;\275\357J\027=\377\244\314=\025h\021\276\027b\"\274\'K\177\274\312\206\203<\245\017D\275#\2629\275\311\335>\275T\344j\274\273H\003\276\344j&\275vS\032\276B\310\266;\325\321\030\275\025SQ\275\021\235<=\n@\327\275\222\220\235\275w&\324=\310g\303\2759R\307\275\275\356\377\275xr\312\275nxx=\335H\257\275wB\211\275\201\010\331<^R\r\274\034r\215\273\223P)<k?\324\274\307}\222\273|\360>=\304\306\350;\340\341\362\275\250B\210\274\177\377\241\274?k\356=b=\230\275\020\3663<\3550\343<_XG\275B5.=\340\250\020\275\000\245\210=\363\007\330\275Y\307?\277+\025\207\275\311\316\367\274\202\220\260\276>-\n\276y\256\215\2749m\316=(O7\276E\261\350\275\234\234\305\277\235@l>\361\265\224\275\202b\004=\267Yi>\313\210\n\276\024\341\277\275\261\001;\275 !q\274^\324\021\276\365\030\253\276\227h\001\276(\300x\275\320\251\347\275\031\262g\276\031>\032\274\274|\235\275D\362\253<Jp\320\275\r\3268\277:f\337\276\213\311\372\275\305S\214\276Z8\342\274\2414$\275X\256\336\275G9\227\275D\220\277=\3674\177\275\364\315\216\275V)\033<4\250\273\275}\010\203=\223\253.\272`(\337\275~h\313\275/\201\336=\240\033\342\275\303}U\275i>\216=B7K=\326\267\207<f \024\274A\t\350\275oQ\226=\374Y\220\274\030T\014>\206D\311<\037L\005\276\001\020>\275L\264\006\276h\331M\274\242\322 =\212\362\356=\201\303\333\275\252\027\377\274Y){=\260\230\372\275\307\023\235\275\311\274\001=@\227\227=\326\211b\275\337\270\275\275\010\t$<\362\244\257=\312YL\275Z\346\006\276q\023\032\275yG-\274\353@\374\274b\rl\275o\211\373=V\300\003>\035\232{\273\007\220\253\275\030G\343\275\207\237u\275\035\001\261<\"\350\340;b\255\010>\342+\022\276\371\336\207\275j\261\265\2755\326\267<_>\372=#xx=5\203\014\276\'\333\273;\245\324\000>r?\305\274\204\267\321\275Z\340\316\274C\262\326=\310\204Z\275\205b\323\275\203\324I\27568\327\273\202ha\2753\310\221<\270\260/\274\335\201a=\356\342\037\274\272\036\216\275\345\345\303=b\310\307=\370R\246=F\233\227\275v%\013\276)\032\346\275;\243\240=K\017y=\204\322\324=\n\227\305\274S1j\275\337_7\2752\321\351<f\247\002\275\002\007\314=\2229\315;+\200\004\276{\007\343\274,\2158\273\010\372N<E\240\242=@\017\322\275Gpn\275\242\274\020\276\346\274?\274\315\266H;;o\234\275\024Y\326\275\365\346(=\033\224\206=}C\374\275K2\200\2758\215g=~\337\200\275e~\310<\216\n\354\274\030\211\016\276\272~\234\273\361O_=\344\033\201<\"f\233\273+J\247<</\r=d\3003\274\006\220\201\274\361\003\210\273\315\323\211\275|\021\r\276\360\302D\273G\307Y\275\322\243\334\275H\005\330\276(\t\324\275\346\204$\275(\242\242\276n\030\307\275\235K\243\275\0019\227\275\365Jw\275w\204\020\276\206\341\343\274\033\350\372\275\\CI\275\332\025\212\274\363\306\036\276\n\276\n\275\340\354\234\275l\014\022\276\n\312\020\275\304\013\025\276\370\2559=\361\376\t<\234k\320\275/6j\275\232\376\021\2764\244\323\275\211=\251\275O\214\213=\273\225)\275\000\020\234\273\272q\257\275S;V\274\3723\375\275\331\211\222<\252vF=N\314\242=)\311\212<0\307\255\275\341\363\246\274\336w\231=@y|\275\033\356\234\275\316\3749=\010\264=\274\232\031\244\275\017\3520\275\232\027\031=7\222\003>\260\341\267\274$\032F\275\210\342a\275\\K\207=t\\r=\010\307A=>\345\r>Z\307\020<@\004\371\274\347$\366\275\230Qw=\206\252\224\274\210s\301=P\003\322\275\263\257\023\275\t\226\265<)\311\030\275\266\017\021\276L2\264\274QQ\317;\2168\214\275\332\216\331\275\363\t\227\275\355\301c=!q|\275\336\177\274\275x(\347\273p\230\301=_K<\275^\212\005\276\365\250\344<\325\340@=\000\214\303\274=Z\006\276\234u\304\275\377\210\226<\220\266k=\341\206\232=\336w\243=\346j\2067\263\356\306=, 6\275\253\352I=S\2359=\367v1<\247\234\220\275O\010\035\275\345?\235<sZ\206\275Z\327\314\275\226\203\000>Fc\314=\265\207\324\2749\317\r\275\202\005\242;\317\251\235;W\274\306\275_QL;\032\"\224=z=\234=g\004\267\275\017\344\203\275`G\r>\204\225O<\002S\252=\373\276\375\275I=\035;\231\376\351=.\306\237\274\203\320\276=\241\253\035>W_\244\275\361r\241\275\273\316*\275\345\351E=\246\301\001>\317\027\367=\177\206\010<]\0335\275\021Uj\2744\252\305\2758\366\262\274\021Xk=Q\377\353\274\006\245\232\274\226C\216\275\253\260\202\2758j\337<\240\0245\275\277\246y<\341k\213\275\201I\326<n\363\362\275\310.\235<[\315\216=\210-/=t9\324<4R*\274\375C\366\275^\252\267\275\343\236\r=\342\216\346=\030U\236\275\260Zt<\331R\005\274\300R\222;\213k\240=\327J\243=x\024\000>\254\233F\275\342\227\323\275\033\367\003=?\225\r\275-\350\274\275K\251\251=\027\346\267=\n\277\230<\253\2220\274w0\035\275\221\224\372=\246H\344\274\320\231\212\274\253\233\265\274\340O\362<9]\016\276\"\316\217<\006n8<\014\353\277=\343\245\354=z\203}<\357\206\321\274\372\303\213<\235\032\003;\332G\216\274\316\010\002\273/\014\360\275\207\364\325<Ly\203\274{N\003=\036\200j=-\221\330\2747X\204<\340{\'\275\310\203\212=\336\213\224\274\333B\022\276\341\274\233=(hX\275\277v\270\275m\013\021\276 \374\300\275-~\274\274G\0003<i\"\364\275\216l\026=n\277\200=ok\244<\027\264\n\275K\375!=\233]&\275I\021\300=\262\240[;`\340\234\275N\240\310;\350=\246<C\337^\274\362)G=/\014\343\275{s|\275\350,\236<U\205\275<N\206\206\275\217\377\361=n\014\243\275\207,.\275\350\321\023;\374%\265\274\376d\202<\277\370\330=\361:\254=\024\227\210\275\273J\206\275gP\240\273\275p\257\272a\367\035\275p\023\253<\362\026\262\274(`\262:\324\266\254<\t.Y\275\255\310\320=\274\")=_\243\342\273cM\223\275X\345\274<\375\263\277\275I&\300=\007S\316=O~%>\306f\310\275\000/\306\275\025\271K<\345\343\306<z6z\275\033\236\210\274By\351\274\222CO\274^\320]=`e\000\275q\346\254<\325B\305=\223\263;=\201r)=\352#\255\275w\234Y\275\024\270\254=\"k\245\2751\231\342\275\363\036\237\2748\227W=\265\212\326\275L\260\010\276`\305\253=\340<\255=\021E\315=)\372\301\274\177\267p\275\366\237A\275\034\005\004>\213\216U=`\372\324<\017L\265\275\303\275\250\273\037_F;\361}\350=.\267\234=\367\323\r>\263\240@\274\347\020\375\275s)\027\273k\363\261\275\311\221\227\275\017\241\222\275\227\325\315\275\tb\253\276\3273\211\275qqM\274$o!\277{\352\224=R\245\266\2751\t\315\275\023\347\211>I\323\347\274\351\000<\276\026\352\260\274\225\221\014\275\334\334\367;\303\034\247\276^\344\n\276\327\212\277\2758\235H\276\327\343\233\274VS<\276wQ\242\276\276\235\325\274\330n\212\276\222-q\275\253\315\243<\252\035\247\275\305\227\264\2757\330\352\274\342r\306=\362\r\n\275AP\254\275\315]\321=\377Y\003<\033}\212\274\240\200\010\276\024\220\024\275\\x\001=\2120\324\275\264x\306\273JA\017\275 \271k=W\317\006\276E\t\230\274\024\307\003>\3753<<S\331\270\274\212C\203\273\022t\217\275}\243\021;\367\014\360\272\307 \231<i\214G<\016 z<Mi\343=Y\274\256\275\245\216\305<R\033\277=}\343\300=\301\236_\274\240\027\227\276\206\\|\275\374$\356\275\372U\266\276:\370\330\274P))\274\352\225\355=]\014\261\275\347\312\016\276\347\363v>\033o>\276\177\375\000\276\024\352L=\302\325[\275\335n\021\276*\017\222\276j\267^=/\363?\276\235?\312\275r\250\036\276al\235\2742eG\276\320\247/\2762x\351\275\373\035\212=\232\023\2339\306\3270=\362\336\262\273\204\250S\276\202\344\231\276\227\262\033\276Gql\276\214\016\020<\377j\243<\333\373\255\274\016\305\243\276\276\247\202\274\2150\377\275\003\355h<|\326a\275\244S\330\274\021\031*>\020\tm\275\014\022/\275\345\325\221\273\032oA>gx\336\275\034\224\273\275b\300\177\276\031\013\000\274\210\305\266\273\000r\370\274\256\032c\274\200]!\275\226\310\024=T\214U\274\351g\032\275\374\254\003\276\211\223\332\275\253o\344\275#4\177;\000\246\007=\003\211\231\275\216y\306\275\252\317\362\276+(e\276%\264\313\275C\334\212\276\236\216\303\276\243\235C\275U\025\310\276\273\370\207\2756\200\253\276\t\264\"\276M\036\246\276d\007R\276\355\'\004\272\365\025\007\276\335\342\305\274r\3164<\026\345\266=b\344\263\276W\025\332\2759\021\032\277\216\267!\276\027j\311\276]\016\320\276\003\251\\\275\317\327,\276\035\300\301\276}g\247\275\354\265g\275w\364$\276\265>\000\276\273\321d\275\275e\376\275Y\222\327\275\234\247\247\275W\026=\275\321\255\r\276\220$t\273\333\241\225\2757\016\337\275\223\310\341\275U=\3179\031\035\206=\005\364\312\275\033\010\003\276\375s\362\272\374e\241<\354\222V\275P\303\203;(\206\341:\3177\237\2731\355l\275\"<\233\275\351R\005\276l \020>\305\256\274\275Em\367=\022\323\353\273\r\360\023\275\232=\317\275q\225Z\275\036$a<\361_$\275;~\266<\326\005\266\275\311\222\217<\306!\323=\227p\032<7O\220<^j\237=\245F\006>\243\024s=\276\370\025\274Cv\312\2756\322\217=\220EJ\275G\017\022\275v\345\203=\253f\023<\037\000\313\275\031k\373\274@\215\031=r\360\260=x\303\234=\320%x\275\377\020\013\275tuG\275\321P\241=>o\353=\205\371\320<`\265\351\275\033\303\210<\022N\225\274\031\361Y=\261Ho=\305\023~;\262\323\310;\267f\237\276\343p5\276\2739\362\275\342A\310\276Y\270\026\276\023`r\275i\271\250\276\\by\275\030\235e\276\203\214T\277\354\374.;\016\230\313\275\307\315[\274\305\347\317<\226\300K\275\330|y\276\232g\333\274\225/7\276\262B\233\275\2451\233\276\345v$\276Hy\264\275)\014M\275\344\375\367\275\016\240\';8\211n=*Zd\275\300\031\331;{=\343\276\253\352\220\276\306\t!\276\2659C\276NDf\275`3\267<\227\223\337\275\342v;\275p\312\257=\264\207\312<>\305\335\275\354\377\021\273\364v\330;\\\0041\274\336c\211\275t\245\232<?\215\354\275\013k\325\274\312V\277\275O\354\264\275\200\204\242<P\2306\273f^\236<\215,\326\275\020Z\243;(\377\010\275\014&\225\275\005>M=\262\203H\274V\216\r\276\367\3346;\310\202\215\275\005\371\301=\365#\256=\234\222\235=\370.\254\274\303\246\t\276}\267\365=\252?/\275\324\265F<\t\223\365<.s\365\273Y\275\304;\347\245\206\274j\r\005\276\304\325\013=\026\272t\275\351u>\275AR\342;C\237@< *\342\275\272\343\234\275\275\321\230=0\346\274=v\350Z=T,\007:\277\026\002\276\374\270\352\275Vi\361=KY6\274+\016\336<\025,\324\275\231K7=\245g\220\275\225\202\007>>\375\240=\211\307\371=\000~s\274\204\017\024\275\032\203\026=\014\257\030\275\207|K\274c\333\020=\373\205\020=\341\255\023\276\n\314\225\275h@\320\275\r[\004\276V\2401<\267\336\001\276\003Y:\275\271z3=~\364\252\275\245HO\2756B\360<\245\313\371=\236W(=\343\227\210\275\031\365\202<\321\362\213<\341c&\2754\245\025\276\273\376.>`\013\224\275\016J\204\275\337\346\343\275\177\334\364\275)\226\276\275O\260$\275c\032\322\274;\252\226\275&\361I\275\374\231\276\273:\250\255\275\032\313H\274\375\270\277\273T\356\003\276\310$\336;\232\tJ\275\207{b=M\227\245\275\202\360\006\274\374\203\343\275\370N\033<\265\277\337\275\305t\320\274\206\366o\275m\207\377\275\017x\360\274WM\215\275\356\334\274\274\355\0352\275\342/\243\275\307@\272;pl\241\274,\377\013\275\226\324K\273V\261\212<t\222\343;\210Z\030\275n^\302=\362b\210\275`\246\340\276\r\271\034\2772u\007\276\374-\364\276\030\017\302\276\250\016;=\274\016o\276\266~\343\275\025q\341\276\2069&\276\r\347g\276w8\254\274c:\273\275\347\314\254=Q\"r\276\200\232\257\276c\033>=A\355\350\276T(M\2764b\253\276\256\337\243\276\253\n\t\276A\017\337\276,\373\005\276\340\225\004\276\207\233\336\276U\023\357\2742\334\210\276\234d\336\276\260\367D\277\306\272f\276\344|\001\276\332\356W\275\350]Z=\214\342\024\275\263?\231\276d\347\226\276:+\307\275\371\223\n\277Ng\313\275\367\202\267\275\301\363\332\276p\300w\276\360\334\302\275~\260\000\276\027\273\276<\360\232\323\275\013\363U<\032\025\034<\307C5\276\271\204\337\275\037\321\206\276\340LP\276\0140\334\275\253Q\027\276\000\236\215\274\205\216E\275hLf\275\027\r\013\276,vv<Z\352\374\275\355\200\240\275{c\375\275J\003`\275\350\346\345\274)A\034=\372\255\377\275\220V\273\275\177R\245<**p\275\224#\344<\243l\021\276\361t\010\275\273\374\352\273\263\242\346\275Dj\314\275\002\325\342\275\251\376\265\275\013R\342\273\267\223#\275e\251\212\276x(\346;R#\224<}5\250\273\333Un<\024\221\266\275\3760\027\275\216\374l=U\234\240\273\374\177\304\273\365f\317\274\303\2300;\214\230\250\275c\234\026\275b\204\003\274\305\313k;\335\246\177\275\375\323N\275\357\346\001\275\224\315\263\2760_~;\245s\006\275\264M\306>\261\376\204\274\200\255n\275^V\016>ec\002\275@c\270\275\250\031\006\276Qp\231=\256r\221<:W\r\276\032\207\217\273\217*\'\275@\352X=;\300\326\275\325>\236\275aq\n\276\201\337\333\274\\*\355\273\317\273\030=\256<\343\2757\220\317\275RA\255\275^I}=\371\235\206\275\314o6\275\347\314\025\275\030\365V\2750\334\371=/H\275\274\211Y?\275y\300\236=Yx\323\273\305\032\226\275\324e\024\275\270lW\275\234\351\337=\025F\366\275\200\210\336\275\002\232\220\272\314\377F<\321`l\275\360%\341\275:\263\373=\375\210\316=s\254\260=P\357\336\2736\337~\275\030\"\375\275\0266\002>)7\265=\233Z+>\3735\005\276\261\271w=\232 I\275\327\211\"=\202^s=j\324o=\014\t\273<\231b\267<Y\355\215<\337.\224;\346\223!<\3643\255<n\\\343=\245\373\001\275\207\217\007=\r\321\327\275k\004\231\275\302\217\245\274\346\235\004\275\235\'S=n)\000>\204l\225\275\277\327\204\274\037\030g=\315\343\202=\017\312]\275+\341\225\275\342\306\014\276\027\302\005\276R\227\276\274\001\204S=\026\373\t>4\266=\275\010\322{\275C[\223\275\030+\357\275*z\345\2759\336\264\275U\344\207\273\251\352\361\274\314\221\377\273\217\262\245\275o\336\177\275^c\036=T\332\225\275\022n\223\275\306\220\"\275>6\005\273\\K\215\275\224O\004\276Q\242\217\274\310\262\311\275\302\270G=\342\220\276\275\224[F\275`0q=\nq\276<\223dt=`-\313\275\351\333\371\275K\331I\275\317[\224=\252\212^<\014\207\t<\311z\020\276=\351\302\275-j\345\274\2756=\273\3674K=\374\231q=\027e\205\274\342\016\357\275\331\300\352;Rz\312\275Q\0061\275\263\r\277=\356 5;\256\036\210\275)|b<n\331\365\275\276Hz=\024!\037\275\274h\n\276\245\272\277\275\024^\227<\354\264\222\275\273n\n\276\340\222\327=I\3160\275\221\320\310\274:B\250\275sw\217\275t\017F\274\331\035\251=T\346\214\274\027\n6=\3504\322\275\303\244\203\275\030\032B\275\273\331\220<\307$\312<\335q\276=\216\222;\274\376\253\245\274\335\332\356=UFr\275\225\203\'\275\201\256\311=[\273\010>\005a\201=\372\347A\274A\246\317\275=\321\240<;\256\010\275i\032R\274\362\026?\275\000\274\230=\307\3451\2754b\305\275g\251\251\274N\304_\274\257\3665<}\303\273\275\324\217\251\275\314\324B\273\300U\335=y\215==\231s\000=D\272\342\273\003\244\332=\267\274\263\275s\247\342=\263\337\274=L\377\236=]\002Z\275Z\326e\275\237%\222\273^\266\001\276\316\313\033\275\220\364\270=\362\227\'=\300\372\006=\320\230\276\275O\350\263:\256\001\367=$\242\336\275\253A\273\275dN\010\276\345\326\251<p\353\223<\263@\266\275\'\247i<C\020\224=\3460,=\212N\376\274\000\343\r;\255\003\013\276\212\263\036=\374\300\275=3/\325\273r\233\032\274Q\010\202=\215ur\275*5\257\274\263\003\247=\324\332\017=Q\236\260\275\337+\376\274\317\204\261=[\374\346\275\202\021\315\275=@z\273o\310\234<\212\320*=\331\345\357\274\243&z=\322X\000>\030\022\272\275\225\031\207\274\321l3\274\357\014\000<W\224#\275\255\t\016\276o\302\241\276U\200\315=V\013\341=pP\241\272\302\272\245\274p\310/=,Z\366=\033\254&\274z\242\366<2\332\010\275F^\335\275\255$\221\275\243]\345=fG\230<\324\3550=\315}z<\3333\221\275\3740r\274:\203\266<2\317\021\276\203o\250=/\217\020>*\201#=\361\336\005\276\333\005\256\275\344\265\270=\326v\203\275\203\300\224\275\227S\365\274L\213w=\323\343 \275\243k\003\276)Q\365=\315\357\240\274\327\006\023<\013\365\323\275\225\354\032;\313\271A\275+\205\226=Mt\t>\221\357\014:\341I\350\275\214\354\n\275j!\372\274\034h\304<\300\035\002=<\304\263<z-\224\275Zp\020\274z\265\374;\317\330\370;\000{\r\276\3412Q;:T\302=1\021\217=1\315\000\276\264\310\313\274\035\2454=\023\032\013\276\2317\207\275#\323\215\275M\222|=\\\r\261\275\366S\320\275U\255\\=\205U\314=\203Mm\270\032\246\246\272<u\022\276\014\"\344\275O\257\275=|\3547=\226\231\323:4\010\224\274\255B\034\275\354P\301\274\033\337v=N\321g=\263\210\224<S\330\010\276\t\304\016\276\377.\347<\210\371\270\273\275\317\232\274S\022\301\274\020\266i;\356\354\234<\025\010\367\275\261<\213\275E\346\370=\0016>\275\343\274i\275A\205\037\275\314h\235\274qH\022\275\312\206\036\275\364.\002;\315\342\300<\272\231\014<[C}\274>\356\016\276\002\354\010\275\323\341\350=\270\217\233\274\331\013\010><[\201\274\304\255\252=\033\313 \275\t\237\224<\026\312\377=~\\\212=\316\360\352\275\376\223\377\275^>\001=\231K\207\274\214\256\017\276\314\261\347<Kz\372=\336|\317<\235\025\242<\t\243\237\275\352L\350=p\375\226<$d\r\274\331%\277\2755W\222=p\331\303\275\177\227\375\272\241AR=j\234\312=\276\177\n>\227\216\214\275a\347:\275KT|<<\360\320=:P\344=\"\311]=\354\013\352\274/P\031\274\247\206\032<\324\345\373=i\237\245<h\237\303\274\003\350\376\275\343\254z<\270\300\376=\335\310\300\274x.\207\275\177dp=>q\016<\3127\r=n\321\306\275\217\016+<q\265\341=\203D\371\274\360\313\305\275*\373\316<A\351\354=\016\035\253\275\2162\320\2750\351\000>\306@\222=\0166\006>%\254.\275\335m.\2751\207\246\275\021\340 =\333\322,=.\351\365=\341\277Z\275\251F3<\036\214\301\275\360\335\000=$\350\200\273\255R\014>\351\025\000\276\213\355,<lI\346=N\002\337\274\3733\304;`p\226;\003\310\207=.\256\305\275\304\330\376\275\232\307\017\276\304\354b=\324\212T\275\362\253\323\275\236\236\025\275\324\227\037=\357\005\004\276\215\004,\275[\265\325=\242\2663\273\024b\354=?<\200<S\354\233<\232\206\016\276J\302\231=\035|\240=\240F\312=\205\341\243\274=i)\276O\357\205\275\177s0<\344\0258=\022\032\227=\330\201\254\275\321\347\n\276\323p\233<\023\'\020\275\256\270\255\274\232Z\271=\300t\343;\3560\244;\273\326\020\276\371t\r<\342q\227=\0248\366\275\222o\305;K\337\236\275???=\n,\271<\001\313\006\275\006l\264\275\343s`\2750\313\231=\311\276\014\276\201_\204\272\364\353\r\276^q]\275\031:\253<\217\246\262\275Wy\025<\335|\021\276%]y\274\216T\345=\231\200\243\275\370\335~\274\373\340T<\357\331\020\276\002\266,\276OE\222\275\200\224\306\276\325s\333\275\201\324|\275\355s\232\276Yo-\275\207\223]\276)H\361\274\315\221\021\276\262d2\275\263\341\360\275\233M\005\274\345#\257\275\376\013T\275Z\327{;Y\242n<\024z\262\275\007\351\017\276G1\322\275\300\261\302\275\250\017\317\274\340\331\273\275K\340\203\275c\3029\274\360u\267\274\002\177\356\275r\026D\276\204q\036=Q\3128;\177\023\004\276\355s\211\275\037\341\276=\341\226\201\275\200\271\232\275\326f\330=\006\2645=t/g\275:9/\274n\304\303\275w\247O\274n\253\350\275-\240\374\274V\360\374\274mq\220<,\025\330\273\233v\256<\2111\247<l\033\202<\254\tP=\367\330\345\275\257\347\272<\366D\227\274w\337\376=\371w\017=W6\227=P\204\277\275\322$$\274\374\020\331\275\230\207\003>H\246\036=\320wU\273\023\354\250<\351\001\013\276\302\273\006=\036\361M\275E\305\021\276,\236\020\273\351h\231<\307c%\275:\'-\275\016X\270\275Z\005\n>\333+@:\320\266X\275>\"\225\274\022f\316=\205\"L\2759\350\356\275\312+`=7|\210=\033\266^=O`\021\276\365\177\013\275W\254\225\275] \260=\\\032W\274-\304s=YS\006\276?\252\267\275)a<<\331v\366=\020i\006>\033\"R=\315@\244\275;}\333\275\240\037\260\276h\265\353\274b)\333\276y\276\204\274j\031\373\275\377\013`\276\356\373\376\275\214\363\361\275\246\352S>\227\001\326\274\r\255#\274f\345\323\275\302\016\253\2753\307\236\275A\302\365\275 \227\n\276\276\263\311\276P\366\277\275\363\373\331\275\312\312\210\275W;\362\275\347\316e=8a\245\275\237\365\001\276\210\022\212\275\032)\010\275UWH<B^\024\276\312\324\271<\210\206\034=\347\234\205\272\202\217\265;\036\027Z=[\232\342\275?\000\200\275\000\023#=\t].:O\230E=\215\014\006\276\023=\242\275\361\215\014=\247]J\275\"\034\271<\361\222\212\275\224\001W\274\335]\026\275C\346\377\275|\342\021\274\374\322\031=Y\201\300=Q\323\004\276X\302i\275\211~\271\2751\007\350\273\232\014\233=\004\310:=l\205D<\370\223\324<0\216\321\275\370,\353=\300#\325\274\245e\235=Y\317\214\275d\265\341\275\340T\371=eY\001\275V&A<\356@c\274Z\304\361=\307\235\267<\tr\013\276\nZ\351\275*\240\023= \226\364\275\037 \304\275\000\027U\275\203\000\220=\305\204\247\275?\377\264\275`\204\272;hH-=\323\264e=\n\266e\275\201 \223\2749\030\333< E\253=W\000R:\271gZ=G\244\221\275\315\340\331=\267g\n\276r\027\256=\2239\313=\312\003U\273\312\265D\273;%\177\2750F\253<\304a\002\276\202\231\246\274\354\211s=\375\004I\27558\226\275c\264\245\275\346\231\230\273ib^=\225R\202\275\220\375\231\275T%\205\275\212\253\n\275:xY\274\361\344\327\274@\210\315=\261U\374<\262ho=\251;\345\273*\223\277\275B\377]\275\001\200\207=j\000\273=X\233\254\275y\346\254\274\213RX\2751\344\373\275\377\036:<b\026\003=\274\342F=b\222\032\275\\\234\240;R\234$<,I@\275{\350\332\275:\241\271\274\033V\206:\334<\257:~A\346\275{\305\200\275\002\205\223\272\345\246\241\275>\227\246\274D>\241\275\366\020\266\274\355k\325\275\366\014\003\275#\207\002=\2579G=\352\277\226\274\374\240\215\274\366E\341\275\262Jo\274{7\331=\r\372(=\253<\204=e\203>\275\351\202}=o\244F<\315\251\254=\214\233\375=\301\376/=\004\003\317;\361\265\253\275\250\234\232=\r\204\201\275Qe\016\276\257dE=\324\251\212=\225\005\233={>\010\275\204\222\303\275\341D\331=_\370\016\276~g\236<\253\312\350;\014\275\272\274\201\260\244<R`\013\275\330J/=\030\202\355=\020\243\257=\322\005\311\270\363m\254<*\332\317\275n\253\330\273x\007\304=L\316\324=\n\227{\275\270m\001=5\245\023\274d\204\311=\277\371?=\007\033b=N\227o\275\002\354\265\274\245\204\230<H\262\022\276=\331\204\274\352EB=k#:<\246\271 \275\232c\246;cZ\310\272F\211I\275\263\364\263\275\231\341t\275C\314\351\275:\025\256=@\310\234<\rs\226\275\277\324\243<6(\353<\250V>=C\020\345\273\330\203\240\275J\375\t\275\0201\271=\322:!=\030f-<\372\336G\275S\356\364\275\367\224x<\303\t\205=\200\013R\274\322\227\222=$\025A\275Z\030\302\274Xn\243\275\260\364\364\275\334\237\022\276\365\3338\275\243@\316<!t\307\275c\264\341\275\266Y\320\274r\024\004\275,\271\"\275\302\301\225\275_\322\004\276\304a\001=\306\320\216\272\001t\302\275\264\340\352\274\033\014)=\343\354\301=2\370\360\275\013\204<\275\376R\310\273\276\010\212=6>c<M\"\030=/\027\177\275\332\317\255\275\207?q\275m\272\001>\3577\203\274\272\361\020>\376\027\362;>\222\210\275\250\033\010\275\343\035\n\276\254\002\314\276\017\332\365\274\316\204\032\276[\270?=Y\321\033\275\"T\203\275\240\031\211=\324n\207\274\t\2555\275NmY\275\321\213@\276\352{r\275\020\217\003\276\350$\202\277!t\007\276\220F\027\275ap\337\275\\\214\001\2761\216\201\272g\333\275\275\304\331,\275\214\204\312\275w\347\357\275?\334-\276\307O\357\273.\212\n\276ygM\275\237K\330\275\256g\272\2757\204\t\276\371u\315<\254\260I<\234t\200;2\207\034=)>\376=M9G\275}\026-\275\362\343\242<Oy\205<\325g\257\275\201\262\260<V\310\245\275Q%\320=\210Z[;~\230\301\275\024f\351\273\030\324\373=\343\"\252=\351\'\244\274*\027\371\275\353n\r\276\254\375\264\272\235\033\327=\317\201\021>\302\363\274\275\230\335\272=\323\353B\275F\274\235=l\027e=.z\302=\324\365u<\315\231\001\277\227\323\274\276\264\326\316\275\363=\247\276,\303\372\276\362\252=\276\235\333\337\276$b\234;5\024\267\276\275\006\274\276-\004\313\276\224\352\245\275\370\317\275\275\326C\n>mj\023\276\232:\243\2761q\300\274\013k\212\276\262\305\245\275\236z\275\276\3400\223\276\323\256\254<d\347\233\276S\250\243\275\234\340\206\276=\332\320\276B\007\020\276C\024X\276\203\224\026\275\365YC\274N@\020\276dl\017\276F\370\010\276hHi=\016\361\346\275-I\244\274_\022F=\217\\\213=\031\"\203\275\364P\366\275\367\177s\275\356;\007>\226\266\253\274 dR\275\371\346\347\275}0\307=\360B\253\275\037\313i;\352H\264\273\265_\355=\3351\371=\210\271\212<\313\275)\275\212x\245\275\376\364\204<\261\302\331=\001R\205=u\010\002\274\265\237\343\274%\341\001\276\026\304\312\274S\364\253\2747\343\334\273\013\277\352\275\377\016\353\275\204\220\363\273sL\210\273\370\004\022\276\371\035\032\274\303x\247\275\032_\364<\202\336\005\276\202L\264\275\325\304*=P\230\227\273{z\001\276Y\334\014\276Kf2<\321\030\367\274Df\220;\337_i;\004PG=\330\340\255=\307\014\254\275\313\241S\275\257\017\245\273\337u\211=.\355\255\274H\250\245\275\n\306\310\275\224\365\337\275\3655\016\276\306C\210=\330\307\\\275\260\246\273=\263\020q\275\326m\327\275\035\314S<\332J\026\275\207M;<\364y\036=\236\201\n\275\023\254\305\275\357\275\236=\331q\352\275P\311)\276\263\324\260< \341\277\275\030\352\202<\352\345\250\275\356\243\333\275\032}\214\273\0171\210<c\305\025=\200\304\346\274\225\267\234\274-O+\275hK\016\276\323\235?<i\030\345\274\035\357\213\273ECa\275\351=\020\275h\004\014\276.\375\211\275\324\360!\276\205~\207\275>\362u;\322k\224\275\274\370\241<\270\362-\273\245\021\001\276\333\333\257<\347\n\264\273\271\013\242\275\373l\232\275\215zg\275\371\031\304<\276\366\253\275\227\001\351\275\367\234\344\274\331q\006\272\303\205\230\275\246*\213\275TY\252\274\026\264\265\273X\266\221\274[\267\210;\\\324v\275\317\253:;7JI=8\2519\274\252\347\377;\\\030<\275\365l\265\274T\331\002\276\2662\004=\324\324\006\276VSe\275\222x\007\276\005#\321:Z\0163=\r\006m\275\253Q\021\274V\363\271=X\023t<\r\241\004\276\350U\377=\331e\236\274\375X\224<\216\016\263\275%\340\262\275g\037\020=y\322x<j\277\265;\003\303\265\273#GC<O\022W\273\253\247\231<\254\307s;\250v\260\275Q\240\000\276\363r\316<\003\311I\275\235\257\016=\371\354\n\274G\207\374\275\037\307?\274r\237\"\275(\312\002<G\233\177\276\307A9<\320\217\373\275p\350\236\275\336#\250\275\316\'\332\275l8T\273\210\223\313;\312\223\207\275Ou\352\273\021{\247\275h\234#\274\213\210\243\275\256x\003\276\273\361\n\275\323\341\326<\226\317\210\273\306\000\320;\344LW\275\360{-=>\227m=\275\361v\275$\263\n\276\t\305\343\275\214b\206\275\333\006\220=\322\335s=\377\034\227\275\014\200\225\2752Y\276\275\253\005\352=\340\016(=\304\365}=\232\024o:\322\326\314\276\274v\256\276M\013\255\275\002\021\300\276\337{\250\275\367E\266\276i0\367\275\274\214\'\276\307\232@<\215?\033\276p\372\270\276\221\260\020\276\361\2020\275s\271|>\"\017\357\274\005Ra\276B5S\274\374\277\252\276\227z\366\275\250\\\235\276\354\265\246\275\215\311\337=\347\326\007\276\305q\203\276\342s\356<\213\006\240\274\352|\213\276\315\357\235\275_\005\r\277t\272\212\276\361\312r\276Z\276\225\276Q5\203\275\302p\266=\326\225\370\275\373s\276\273k~\271\274\313\243)\275Yr\221\275\212%\343\2757-\222\275\210\201>\275\324\266\335\275\213\210\241\275\263\255\212\275\333c^=n\351\307\274h\3600\275v\014g<\177\312\245<]^\353=\312\"\022\276\314_\353\275~\333{\273\274u\241=\031\340}=GM\211\275J\024\231\275\023\214\214\275\007\226\220\275\311\332\236=\007%\177=\r\323\001>\271\266\320\275\331\227\326\273\254\367\016<\364\203\227\273$\243\264\272\336\225\037<#\367\345<\n\000\360\275\2053\373\275\254\212\004>\0355\203=3\272x\272\004\022I\275(\371\262\275\032\227>=\326q\205<\n\037\021\276l\216\242\274\266\271E=y\364\373=\033\020\225\274<\013\264<A*\021\276=\"\260=M\303>=\007h\204=z{y\275\356\021\303\275\245\3579\275.\326\031<tb\003=\323p\207=\271\240\243\275\273\203\236\275\263k\313=\344\177\337\274\2658\216\274\331qL<\203J\006=OVz\275\366&\205\275\213|\262\275&\347Y=\314\030\016\276Y\367h<\363\324\240\275;\372\275<_R~\274\252\257\302\275\214X\037=,\263^=#$\365=M;.\275\231~\251\275\000e\206<g\003\253=W\242\003=\240\240\310<\242?\220<\3565\326\275?\311\205\274FK\366\273x\310\224<\370\276\004>\211\007|<k:\245<\324\302\254\274\013\241\\\275\214q\270\275p\353\220\275\253u\214\275v\324\262\274\017\313\356\2749\016P\275d=\232=*<\342\274:\023\237<J.\340\275\362\302{=\315\202\000\276\244\367\337\275p\226S<\024\317\330\274\013\223(=ly\002\276\010\310\207:\\9\211\2759\247M\275$\276\203<B\354\005\276\237\305\022\276\233f$\275\254<\013\276\\\346E=\207\202\021\274\rR\222=\203\224\302\275\360-T\275\237_\362\275z\307\353\275\266\350\327\276w\237\003\276\010]\016\276\322\366\261\276\264\006\321\275\321\267\n\275\257\233\221\276\021l\255\275\001q\013\276\324\003G\275\235\216\200\276\247\345\225\275\252p\234\275}\333o\276\376\300\002\276\341\255-\275\326\243\377\275\376\237\016\275\026\224\207=2\340\337</\221\002\276\234\327\224\274\016\023&\275\276K\036<\0225\253\275qP/\2766\354\227\275U\265\354\274\272\035!\275\000\022\203\275w \207=\330\350\377\275b\374\354\274\034\t\305=\240\367\006>r\321W\275\236\236F\275\227\372\340\275\303\232\014=\255\364\200\274\336\270\007\276=e\336\275\005\214\263=\301\032\215<\244$\314\275\026f\264=l\301\207\274\251\275\300=\026\363\346\275\267\264\351\274\375>\242<dc\321=\345\217\224=jM\272<\344\306\213<\336\211 \276d\257\n\276\2101\304\273B\232\026=%\321\370\2740ei\275\313X\376\275\230f\014>=<\t\274\220e\212\275\302\223F=\263\007\262=\267\362\026\275x\245\010\2763O\270\274\204\275\211=C\222\271<\340\247\024\273\257\223\010\276\034\022\212=\222}\376\274@~\022<N\\\212=\311\357\343\274jW2=\024\325\253\275\\\005\266\273\005i\371\275\207n\320=\267\270\212=38?\274+l\307\275*\r3=\370\337\247\275\262\022\266=\001\223\001\275[5p\274\017\211\233<\2245\312\275\014s&=MF\002\276\370.A\273\307\033\212\274\003\363\022>\003\025\334\274tHK\275i\027\214\275O,\304=\315\001\020\276\004s$\275\371e\301\275\307.\347;H\311\373:\373Ap\275\243N9=\037\231\275<oJ\304\274R@o\275\373x\361\274\316\225\224<j\325\255=Hg\341=\002\233W=\335r\241\275<\372.\275\366\337\307\275\020Au=Ba\234=\210\3224=\347\360\230\275\023\r6;$\2563=x\366\210<D\265\t\275\300\0134\275\253\365F=\355\035\353\273nB\000\2762\013/\275\262oO<B\017\356\2756\220\246<\276\362\273\275\036\251\330;\233$\003\276-\242H\274\326\357\210=\324,P=\023\323\234=\340{%\275r\253y\275\020td\275U4\275<\330.\003>\225\215h\275\020G\\\275\355\023\311\274\376\237\000\276+\204d=\257M\315\274Wc\211<8\032\277\275?\352\255\275\374g\026=S\254\254<(J\241\275\222\357\236<Y\003\237=\316\0055=\003\031n<\227\3206\274@\256\345=\244\'\327\275*\002f<\035^\263<\326\272\376<h>\322\275\034\005\326\275#}\024=\326l\276=\270\300\241=\367\242\005\276<\246\310\275o\236\"\275\2212\251=\365\215\'=\036F\307=\233\330\266;Z\262\022\276\t\214[\274\\/\302\274\204N|=|\265H=\250\030\201\275\255$p\275\2725}\275\354t^\2759\250\002\276\006\005_=@Gy=T,<\274f#L\2736-\n\276\016\t\032=i\341\240\275-w\021\276\201\030\233<\331\206\3509\014\227\007\276\207\2407;\211\320\203\275[\007\310\275\275\263\264\274\230\343\205\274A\"w;tG\211\274\017\301Z\275[\371\231=\315\0143\275I\327\002\276\247I\004\275v\\r\275Z\321\214\274\273\022\000\274\206\267\340=\246\236\236\274\010\221\207\275\361\002\346=\300\350\233<\261R\265\275\361M\016>\313\223\316=Z\275\233\275\003\330\264=\213wO\275\222K>\275\235\336\355\275\206\245\303\275{4\227\275\356:\351=U\222k\274\017p\003\276\351\006\326=y7\000>\336\'\000\275\262\256\271\273\342\304\207\275\021\r\213\274\032\353\025<p{\325\274v>\001>\361\221v;\325\304-\275e\326w\275\242U,=\244\234\200\2754rO<\002\274\270\274H\272\202<\265=\223=l\310\241\275\252\010(\274e\r\306<\303\020\251=v\"\276=\022\246\271<\305f\247\274\023 \311=e\r\342\274\304\210\261\275\364?\217\275\223z\002>\213\264\342\274\263\305\313\275H\325\245=HnB=u\031\013>E\366\017\274v\347\206\275\374\304\374\274\033.T=\352\230\301\271\345h\220=D\353a<\352\366\260\274j\256\371\275\t\020\017>\356\273\237=\022\010\240=V\r\271<;\330\367\273C\337\225\275X\277\274<\273~\311\273\377\354*\275\217p\333\272\027g\246\276\332\273\010\276\277I\251=\273\000\302=o\214a=k+\260\275\372\212\244\275\363\300\302\276\231\262\007\275\030(L\276\026\221e\2750\324\260\274\333\273[\275\032\210\251\276\327w\220\2751\321\334\275\3715\300\275D\3658\275\356\345\036\275\340X\273\276!\211\314\275\027\022.\276\0038\214\275\215_\337\274Z\214%\275\003\235\273\275k\251\213\275\306\232\275<\242\355\000\276\347\276\005\276\350\373\247\2744\010\341<\222),=9\352$\275\342#]\275,A\005\274\026L\007\276\256\360\321\275\032\270\345\275;=\366=\377\340\n\275\\\335\001\275\016\247@=.\370\304=\376\242\265=\377O\307\275\016\205\364\275\003w\350\275\327\271\020=\271\r\214\2734,\214;\305\205L;\343\315\277=\325<\332\275\220\263\314=\253e\356=I\233\340<c\346.\275D\014&\277\210\001\212\275\256\256\333\275\321\301\312\276\364:Z\275v8e>\031JS>\260\331\316<\275\340\r<z\243\225\276\232\347D\275\266\240\227\275\370=\246\275\217@t\275\032\353S\274\247_~\276\236*2:\005\016\240\276\341\315\211\2752a\367\276\376$\267\275#\033\337\275!\341A<\264q\023\276\207E\003;\377\256i\276\307\207\202=\300\275\375=\207r4\276\233\246V\276\330\257\206\275l[\212\276\277\361\316;\354\304\027<+\205\221\274\367m\226\276\223\2272;\276\200\002\275>\342\210\275`?\003\275\272Fx\272\350#\245>\334@\017\276\343H\247\275\372\255\266\275lwc>m\313\241\275mFv\273\254\3001>\225\001\242\275\250+\254\275=\355\246\275Z\227\304\275tw\020\2754\246a=\260\275&=N\264\340\275\234\234\336\274\362E\013<\347\2152\275s\240\364\275B\'\267=\262KX\275\374\354\211\275\250\377\376\276S\247\241\276\364d\035\275z\244\257\276\304\217\263\276i\267\265\276\177\227t\275)\262\327\275\2432\323\276Z\r\257\2762\324\277\276{\217:\276\026\036\005\276\367/X\27554\331\275]\270\362\275\013\304\343\275o-\225\276\003\331C\274\330b\350\276\014\302U\276\2565\352\275\244\247\275\276\024\264O\275\326\310\260\276L,[\276\273\373F\275\365s!\2747[\274\275#W\221\275\214\320g\274\353 \207\275\305~\r\276%\006T\275\036\331\'\274\007\010\346\275*JU\275\265\274\216\275\3139\331\275\257>\325:\\\237I\275p|\206\275\340\363J\275\3128-\275N\360\333\275c\271(=\226\226\006\276j\3454\275\305Xq\275|^\274<{\211\237=?\221\240<W\007\272<\326cl;\345v`=B\0013=\022\223\001=\265\254\325\274\302\035o\275(\224\221<(\257\031\275\216\355\352<\022\246\'=\026s\261\275\356\000\204\275\242\211\306=&]\321\274u\357A<\251FC=\006\253\031<\200\363W=5\3552\275`\272\343\275(.\354=\214\215\002<\211\334W<^)G\275\000\254l=\222\263{\275v\252\322\2757\360x<\3426p=\222k\204;y\256\t\276Y\261\241\275\201\203\316\274m6\302=O\326\001>\245\235/<\036\244\320\275\025+\360=\314\"\222\275\032U\240<g\343\270=\211\037\344=N4\213;{\005Z\275\343\'U\276G\224\230\275z\007\271\276\023\232\r\276i6\361\275a\2722=Rn\364\273+\362\016\276\307\377~>o\271\235\275\245\204&:\201\346\245\274\236\267\251\276\254iR:\031\003\014\276\212\314\302=\n;B\276=\000\370\275\034\035g=y\006w\276@\001\005\276^^3\276\254\243\251\275\237Vy\275\037\274\261\276\272\214x\274a\370\301\275\255\274\206\276i?\341\276\250K\000\276^m\210\275\207!L\2751\003\274\275 \272(\274Q2\316\274\305\037:\275\251\275Z\275\342\227\n=\202\023\214\274\322\332\371\274\263\221\224=\203\254\013\276d\273\003\276|\032\334\275\273\323\021=P\025#\275^\210\232\274#\035\340=|v\220\274V\253\376\274.<&\275\222\035;\275\202\241\230\275\227F\315\274f\035\344=8\320\241\275\262\304\300\275\033\\m\274\324\336\204\2754\322H\2748*Q=\313\311p<\313T\010\276\224\034\313\27527j=\311k\245\271l\332\306;P\204+\273\031\252\364=\215\272s\275\315\261\333\275\216\0308\275Bd\217=z\332\330\274\\\350S\275\277r)=\376\357\\=\2666\004\276\037\034\206\274s\016\317<!\213\372=|d\003>\250\006\005\276\024Z\330\274a\023\000\276H\270\004>\'\035\315=}\340\344=V\264\242\275\0344)\2758\337\020\276&Eu=\263?E=\211H\335=\317\363E\275me\255\275\350\2254\276\211\177\013\275\007\232\353\275^\272\\\274f.E=\"L\360=>\3446<\277\267\354=\317\205\321=\0374a\275)\244\374\272\262\032\010>\234-\020<\311\324\245\275d<\242\274\357\202 \275\024~\002\274\303\371\030=X\203n\275\350\216\027\274\346\231\372<\305S\"<\264\203!=\300B(>v\346\002\275\361\357\375\275\215\325\216\274\271\371\231<\371\t\347<kb\r<\204$\217\275e\273\014\276R\307\344;,\000\335\275`o\352\2757g$=\334\207&=\267(\216\275fh\244\275\365p\n\275?\354\200\275\312\357\003\276qT\254\275\365\034\214\275\206-\230=(\335\346\275*Z\345\274\321\245\265\272\302\241\304<\201\235\001\274 \303\n\276\234\234\002\276\251\365I\275\355\354\200\275\201\211\n>\330\276o\274P\321\017\276\225\253\361\274\213\201\303\275\004`\022=\343\346\375<d\037\306=\350o\301\275~\264\371\276\331\024\241\276\372~\245\2752\237\002\277#`\276\276\035A[\275V\345H\276\020r\277\275\311\360\251\276\213\326\277\277~\374\002\277\030,)\275\332\326\273\274\205\272<>\245\244\342\276s\036\340\276\326\333\207\274\340,\374\276ae\324\275\272\202\300\276\r\351\311\276\333\357$\276\364\003\344\276f#^\276k[2\275\317\202\320\276S\201?\276\366\373\256\276 \252\203\276+\234\014\277\345\226,\276/\276\321\276\342\320e=\254\rs\275z[\256\275\177\227L\276z\3146\276;\271\021\276\371\004\241>\223\251\203\275A\203\030\276A1\255\276\020S\265\276c\343v\275\337\016k\275\246\201\032\276\200a\207<-\275\301;\237\343\030=\317\341@\276\266\316\273\273U\024m\276sS\376\274\375.\234\275\277\025D\275o\273\343\275p\023\031\276\206(R\276Nw\004\275&\254}\276\346\333&<\301\370\347\273\247\214>\2755?M\276m\255\001<\236J\036=\032\226\346;\022\227\316\275\3408\231\274N\033\230\275\267\277\202\274RV\236\275\001\001\226<\267\306\355=K@\352\275\020^M\275G\260\245\275\032\317W\2770\312\000\276\263\254\263\274\223\020\357=\321\345r\274/\255\343:\255zQ<\237d\266\275\361\217\271\27562\020\274t\024\227;\341\321\303\274\371\376\254\275\211\023v<\215:\014\276\373\"\313\275?\000\231=\373o\243\274w\217\317\275\331\201\017=\216\212#\276>-\003<\251\363\265\276l\325\236\275\346h\010\275\010\207\027\276\225\336\014\276QI(\274\350m\t?\022\223\344\274Y\372U\274&\254\311\275FI\006=\210\237\'\275I)R\272\253\245\n\274n\224\236\275kEG=\244\037\370<\355.\365\275\177\351e<\320c\035\276\213\335\036\276\0055\316\275U\025\352=\2205\241\275\222\322\027\276\322\272\314:\333\345\314\275+\017%\276\335_\305\271\212\230\260\275(\361\322=j\350\360\275O\231s;\203\306\317=\030\335\275\272\231\334\327<2;\t= \314\361\274Ug9=\225\037\355;\325\023\023\275<g)\274jk\241=\274\200\230\275v\"\243<\352\300\205=h\023\000<\324{\337;\3073i\2757\203\254\275!\355^\2746\006\206<,(\342=\374]\002>dr\210\273\346\201z\275F9\213\275V{\354\274\207Z\370\275\035\000\021=-\356\313\275\254S\t\2748ua=\320)a\274-l\265\275\223\334V=\315\353\001\274\374\333\201<\221M\355\275\035k\325\275\013{\202\274A\037L<b\232\256\275\311T\243<s\006\333=\202\n\260\275,yv<\222Xc\273\014i-=N\240\212\274K\255\010\275u\363+\275@<\004\275t\'d=\340`\345=e\217\354=\254\370\205\275\034n\316\275\307Ro\275/0\274=\2260%=\3358\351<\013o\225\275\3000\231\275\243\346%\275r\355\223\275\224\334\324\274\014\211\240\274-t\215\273\234[\"\2755\262\360\273\2775\207\275-\255\356\274o\337\010\276\255=?\275s?\364\275\025\2042\275\201\355\312\275\272,\021\276d\320p\274\215E\225<K\275\210\274n{\223\275u9\203\275\244\023\002\276\311\003\303<$O\243<\352qb=\204\260\230\275S)x\275}@\352\275N\372\203=~\250@\275U\346\372=\033\314\317\275\r\211M\275\317\313%\275\213\332\302\275\363\032\331\275\301\250\032\275\256\266\036\275\035i\365\274>\035\252\274C\364Y\274\323\207\365\271\365\030\320\275&\357v\275\313^2<]\200,=Ge[\273\235\316\367\275CL%\275A\253\277\274\267\331P=5\316\\\274\234\360\264;=\342a\274XE)=0\346.\274\310\336\237\275\323\300x\275\374\340\207\275CG\020\275\326\3721;\225\320\030\275Pd\340=b\033\207\275\"\224\235\275\005\330\215=\340$\300\275lq\364\274\213\0350=L\r|;\322\342*=\247 \370\275J\250\217\275\314\371\347;+\006L\275N\246\332\275\331\007\311=\217\300\007>\014\010\007\276\244\263\211<\373F_=\312\2700\274\2626\014=\257\206\312\274l\000w\275\216\001I\275T\305|\274&\305\274=\272{\254<\324\355\253<\340\307T<\321X\203\275J\345\000>\342&\244\274v\n\376=\275\264\001\276\232\331[\274\357s\306=\336\361p<\271W\256\275\370g\006>z\260\230=j\321X=\362g\274<\020\345\224\275\364\203\365=\036l\375\275I\372\271\275\334\340\003\275\242O+\274w\312\035\275k\224{\274c0\332<\200\264\334=\333\316\200\274l\354\365\275\202}h\275\000*\326\2759>\300=b\004\233<\336\261\272=B#\326\275K\014\211\274\271\266b<\006\017\220\274\373\256\330:\002\212\363<\353\257\245;<\n\241\273\304\006\215<\375\336\344\274\252y\260\274WJ\333=\331\326\240=u\237\225\274_\237\304\275t\250\214\275w\244\305<\276\277\250\2743\227T\275\326s\232<F\323\211\274\003\034\230\275c\r\013\274\353\347u\276c\226\021=\376\031r<\n\353\220\274\n,\243\275o\312R=\323.\026=\346\331Z=*\001\027>\316\251\220\275\217\215\302=\367\302\271<\301^\007\274t\037\237=\366\354\003=\333\372\005\275p\304\340\2750W\265:VY\325\275\326\213\021\276MkA\273\213\320\274\274b<m<\tpd\275\274\277S<\005\020\237=N\271\254;\376\337A\275\333\376V=\376\326\234=k\226\022\275b\025\271\275\257\231\010>\246\250+=c\351\266=15h\274\021\031\r\276\253}\333\275\\\351[=B\234\370=\004$\021>\352\215\221\274\013\007\035<y\211\031\274\030\277\177\274\336\2635\274\027\330\232=\227\355|\275[e9\275N\276U\273eu\335\275\243\261\n\276xD\305=V~!\274\221\261^\275\223\330\207\275o\022\253\275\206 ;=\226d\003\276\212m\211\275\237\306\206\275?\316\325=S\205\356\274|\3169\275\206\205\\=F>\204=%A\316=\021\227\005\276\202~\022\2760\013\216\275f8\242=\306$\241=iB\263=| \025\274\300\236\243;w\243\211\275\300\020\313<?$\205=u\314\272\274ll\371\275\007A>\275y\313\002<v\234\232\275\032\366x\271\016h\370<t9\346<\335\334\r;\261\221\003\276\313\325\010\276\277\361\003\275V\020\212\275\365n\277\275\334(=\274r+z=\266\363$\273\005)c\274gd^<\340\271\311=T]\322=v\031\367\275\3264\345;\373\002\312\275\224\r\377<?\3278=\343\354\026>\211\025\300\275\205\240\217=\255\361\305\275o\353\311=u\300\306=\327N*=C\277\017\274\330j\277\275\031}\273=B\ng<\230\277\334\273\312\372\237=\322\341\021>\214|\021=\354;\207\275\322\272\256\275\334T\233=U\331\005\276\320\344\222\275H\247\220\274h\t\373=FH=\275\256)\t\276t]\024=dz\236=j\200\247<:\261\r\276\231N\200\275\022\222\261\275E\032*=*~{=%\036\204=A\322/\275\360\216\n\273\037\021\242;\300\302\374==C\375=\313\304\267\274\377\010I\275p\200\346\274\254\215\365:\232c\210<\224\263S\27574\232\274\001\276\021=I\356\214=\231\033\372\275b\274\251\275\273F\300=\363\236\004\2756\306\204\275\342\307\035\274\322\256\342=|I\014<\216\206\312\275\304j\t>I\267g=\340\3505\274~9\302\275]\300w9\336j\014\274$\252\r\274\266\017\301:\225\340\371=?\276\022\276:|p<\347\200\232<-]\341;1u\233\274<\223\236=b\320\350\275\206\251\274\275R\352s=z\262<\275S\267\224<\271\227\':\035\rv=f[P<@\301Z\275\334\332u\274\023\377\235;\332\343O<\320\356\016\276\234\320\r=*\201\302=5\223\332\274\273\001\324\275\033\025\270=+\313{\273.\324\303=(\006\327\274\3746\013\276\332|\267\275\317*9=S\026\247\274\017\006\265=I\320\350;\256\177c\275\017*\001\276\340\257\227=\'9\357=%\020\351=g\266\235\274]\333\003\276\037\224=\275\310t\274<V\352\020\276\347\363U\275\354\t\203\275Dx\003\275G\247f\274\034%\252\275\242\026?\275=\261#\275\216\202\302\2744M\353\275\364\203+=\"h\216\275\005\006G\275\030\305\203<\216\031\022\274C6J\275\246Ci\27542n<*=\233\275\352\2267\275\'\306\223<\243\363\207\275\263?\332\274Yd\211\275\206Z\355\274y_\320<|\347\363\274\002U\227=\365\211\021\275\370\323\000\276\032\022\002\274\320\321\334\273\331\360\261\276\034!\216\276\235u\004\276;\252\016\276\003\276\243\275\342k\266\276\323\316\031=Q\325\317\275\345\2026\275\030\0314<\210\274\266>\330p\017\276\203-\000\276\354T\365\275\356\200\233:&\235\021\275\217\314\261\276\230\021\032\276\210w\276\274\261t\276\275\314`\353<Q%2\276\236\210\350<E\205\032\275\346\010\301<\332\213\223\275A\355+\275:k\217\275#\211;\275\3500\312\275Gr\000>X\022J\274\275\264\326\275\300\t\010=W\361\245\274\367\222/=\205\307\241\275\330c^\274\036\372\336=\0012\004\276\354E\211\275R\275u\275,\016\303=.\213\232\274$L\202\275\014\234`=#\031n<\373\225\263=\033\234\242\275- z\272mV\021\276\035\353 =\256\302B;\3038\342=\321\rn\275\003w];C\364u\275\'\3554=\321\333,\2744\313\250=&X\013\276\270\274N\272\001O\016>\326K\345\2752\232B\275\223/i=\024\236\210\271q\374\224\274y\324-\275\251\267\332\275\250z\212<\021;\277\273Pu\226\275]\021\201<v\017\362=\243\251\315\274\217\343\251\275D\002\244\274\200\t\370;\361\345\335\274f\351\226\275sz\016\276\221\013\376\272\254/\267<O\231\314=}\306\260=\003\037u\275\344\364\211=\036\356\020\276\321\224\345<\332\241$=<\352&=8\256>\275<\007\014\276\261\332\301\276\243\357\004\276\356Y\225\276I\030,\274\024\265\024\274#\022_\275Z\014Q\275:$\016\276\317\003\023\274\026#\230\275\345\004\257\275iXr\275\327Y\r\276U\250\232\275\312L\017\276\260`x=\375\350\236\276\226:c\274\352`\336\275\312A\341\274\232\030\001\274\000\352\377\275 