node {
  name: "NCHW_output/perm"
  op: "Const"
  attr {
    key: "dtype"
    value {
      type: DT_INT32
    }
  }
  attr {
    key: "value"
    value {
      tensor {
        dtype: DT_INT32
        tensor_shape {
          dim {
            size: 4
          }
        }
        tensor_content: "\000\000\000\000\003\000\000\000\001\000\000\000\002\000\000\000"
      }
    }
  }
}
node {
  name: "b3"
  op: "Const"
  attr {
    key: "dtype"
    value {
      type: DT_FLOAT
    }
  }
  attr {
    key: "value"
    value {
      tensor {
        dtype: DT_FLOAT
        tensor_shape {
          dim {
            size: 4
          }
        }
        tensor_content: "/I\222=\316\356\222=\355\020\220=]\217\220="
      }
    }
  }
}
node {
  name: "b2"
  op: "Const"
  attr {
    key: "dtype"
    value {
      type: DT_FLOAT
    }
  }
  attr {
    key: "value"
    value {
      tensor {
        dtype: DT_FLOAT
        tensor_shape {
          dim {
            size: 32
          }
        }
        tensor_content: "\303\032\202\275\246\253D\276k]\224\276\346\354N\300\334\224e\276\321\267u\276\377bl\275\350r\231\276\373\244W\277\020l\202\2761@\037\276y{J\276C&\021\275\221\003\203\276#\263\232\275\277\371\024@\377\030\240\276\270a:\276h\273\356\276\371\332/\276\262\243\322\277-\271m\276-\353\241\276\302g\220\276\336J_?\004\376\034\274\tM\021\2771\237R\276 \325\221\275\013\255\324\275i\274\320\276R?\242\276"
      }
    }
  }
}
node {
  name: "b1"
  op: "Const"
  attr {
    key: "dtype"
    value {
      type: DT_FLOAT
    }
  }
  attr {
    key: "value"
    value {
      tensor {
        dtype: DT_FLOAT
        tensor_shape {
          dim {
            size: 64
          }
        }
        tensor_content: "<\260k\277\316\267\225\274\200\366\211\274\327\033\314\274\271Ht\300\365\202\244\276\236\030\241>\002\244P\276#X\251\274\277^\237\300\272\364\016\275\227\n\000\276\033\361\213\276C\345\317\274\360\255\034\276\321\245\023@\243\321\252\274<\303\245\275\350fh\274d\001\013\274!\335\236\276\330q<\276\n\302\217\276\240\302.\274\247n\222\275\334\325\220\277\244J\215\274;\255@\274\034\025;\274\t\311\237\274\005\242o\300\r\252\335\277\216\003<\276\2228\010\275\234\257~\274\307\264\333\273Y?o\275\266\261\355\275\362p\202\274D%\213\275\275\315\332\275h\263\363\275\\\332\215\275\270\203\303\274\253\240\353\2744F\373\274?\034\226\276\313\323X\274n\304J\276Hh\217?F[>\274\325v\265\275\200\2070\274\212gt\274\310\225\210\274\023n4\274D\347\034\276;\007\220\277~\354\304\2756\235\351\275\357\254\014\276\361\261\t\275\325\243\207\275iEw\275"
      }
    }
  }
}
node {
  name: "f3"
  op: "Const"
  attr {
    key: "dtype"
    value {
      type: DT_FLOAT
    }
  }
  attr {
    key: "value"
    value {
      tensor {
        dtype: DT_FLOAT
        tensor_shape {
          dim {
            size: 3
          }
          dim {
            size: 3
          }
          dim {
            size: 32
          }
          dim {
            size: 4
          }
        }
        tensor_content: "\323}\207=\303g\212\275c\224\246=u\220\356=\272\032\024\276\206\331\340<\303\360\'=,\355\276\275\265\371&\276\246X\275\276\316h\244\276 VI\276s\226\031>\213\364g>#-t>c\302\236>\312\335H\274\345\227\010>\231\237\373=Y`\226=-C\017\276n\207\231\276\231\264?\276\021\277\362\275\010\373n=v\005V\274;TK\275xH\n>\323\261;>\236>\333=\324\367+>\214\035\264<\177\3001\273\261\337\027\2739\014Y\275\352LN\275\267< <\027M\367=b\334\326:Z\2356>\206g\310\275\230^z\275\000\024\327;A\366\177=\257\361\206\276\224(\255\276\2511\215\276T\2200\276\261P\306=4\232\036\275\245\326\355\275\237\263\006\275\327k\211\276\321\253\000\276\244_c\276\300\262w\276\247\361\307\274\354\370\025>\363\201<\275\203D\021<\005W\205\274\237\336@\274\303{\210\274\2649\236<y\352\244=\247e1\275\234\344\212>n\010m>\200Z\251\276;)\303\276\377Fw\276\322=,\276Hg\376<\211\245\024=y\002\267=\340z\341\275\rHk\275\326m\261=\371\325_\273\303(U\275\271*q\276\034\253\200\276\341\236\211\2761\270\216\276R\365)\274H\364\274\275\032\250*>y \215\274\260\245\251\276\375\354\205\276Q\327\260\276/\276\331\276\000\376?\276A\216\254\276\273\220\004\277\353<O\275\345\353\372=\240\332\252;\003\020\345<\226\2047\274r\253\014>\336\306\303=\305\321l;A\345\013\275\354\323\000>?\304\347<\004\243\377=\2009\240=\026#v\276\274[\254\276\216\201u\276\352_\207\275\301\351\035=\375=\010\276\227V\253\275[\361Q\275\'\023v\276zy\313\275DuK\276=^\371\275\335\006\214;\007\334->\2523u>\247{\220=jq\355\275\201\300\010\275\213\342Z;\035\205@\276q\336\236=\235\321\342\275\312\350q\274\003\300Q\2751>(\276\272\2605\276\177\355\250\275\322\205c=^>\257\276=\333\271\276\321\370\225\276 W<\276\025\210z>\'.\212>\r\227F>\221\341e>\237\303\234\275\323~\\=\324\3546>\242\373\230\275\234is\276]/e\276\377\326\202\276\271D\352\2750q\206\275-\024\335=\304&(>B6Q=\267\324\020>j\354\234=\016j\023>\355f2\275\266\034\007\275\257\311\252=\033}\227\275A\312_\274\344z@\275w\266\237\2755\213%\275\251P\202=\235|\241\275\361\262\016=\210k\241=\2407I\273\304\363\241\276\337g \276\367 k\276\037j<\276\313\020&=\353P+=\3353\266\275\273\221\277=\251\233\203\276\212cy\2761\375W\276\314\002\036\276#C\277\274ta\252\275\375\347\335<\206\3703\274\031\020\254=21\261=\256x\267\274B\255\232\274\374H+=\20444>MU\226>{\030\202=\036\376\255\276C\360\027\2761V\236\276|\024\303\276\315\325N\276\243\326:=\301D\352\275\202\0032\276G\266\261=Gr\343\275\345\341\316<-\262N\275}\315>\276\330\264\201\276\372TQ\276\364\033\200\276\006\200\340=qN\201=\343f\222\275\366K\220\274\033\366;\276f\241;\276\024\327\243\276\360SZ\276N>\357\275\346\302\222\276\231p\257\276Ci\020\276O\005h>\300\366p>Js\241\274\315\247*\274\3058\260=\370\334\r>\236#+>x{\356<\206\356G\2754\004\241=\302\300\325<Z\225\r>\002+\030\276\210\273_\276\\Y6\276iF\232\276\271H\263\275.\265\265=F`\275\275F\343\256\275Y\n3\276h_\t\276\274GA\276c\261t\274\305D\341=\0307%>\317~\226>\010\331\316\273\210\303\205\276\357:|\276}\357\300\275\251_C\276\303t\273;i\324\267\275L\333\266=\312|C\274\005\265\354;#\225M=]0(\276z\013==\270X\372\275h\247\241\276\356\211\326\275&\346\204\276\324\205\\>S\010\026>C\275\235>\225\264P>Am\002>\255\302\321\274k\'\025>\321\241\274<\'\377\220\276Wq]\276\200\366\202\276\014\r\243\276\366\306N<\031\333\274\274l\005\'\275I\227\357\274\222\233\210\274\205V\244\275R<\313<\037\336F<1!r=!\336\017;K\206[\275\035\235Z=D=\352=QS\002\275%;\037:\236\331\326\274\034%\246=\222&\372=\\\224\330;\325\201\206<\342_\014\276\017\005\210\2768\374\262\275\241\005\347\275\0369p<\031\302\341=y\206\303\275+\373\370\275\266t\207\276>g\273\2765\272\220\276\276+^\276\355&A>v62\2758*9>\216N\026>R\313\t\2742rk\274\0270\267<4y\222\274`,\215=\231\252\264=q\327\227=\\\260t>\276]&\276\325\225\300\276\013\353@\2761\304\241\276\370\254\036\275\300\023\223<\033\0066\276-n\241\275\343\336\205\275\274*\305\2752\343\257=\250\227l\275F\t\215\276\341K\333\275\312\301\264\276P`W\276\026\255\260\275\362\n\230=\302\347\222=^\371,\275\211\262\270\276\251\315\212\276\030<=\276[\311U\276N\2309\276g\026\322\276\247)\225\276\262\211n\276\223\273\000<\347\234\001>E\345\362\274\230\004\315;\005\240\312\274\227\3343>\210\210\312<\017\240\013\275\237\036\027\273Sp\327<z\t!\276\263e\274\275(\351\211\276K\307\366\275:/}\276\274\250-\276\325BG=l/\304\275O\233\260\275EG\367\273\203&\036\275\202EY\276\244\236\"\275]\250\024\276\332\346\025\275\335oO>\356\027b>L5\031>\377\320\334\275\033I\003\276\234\033q\275\235%\257\276\320\003\270\273|a\352=u\262\351<\310H\022=\205\203#\276\250\\*\276\352\351C<\361\224\262=\366\2152\276\350\213\263\276Q\320\204\276\007*\024\276\204\300\205>\206\216[>{\212x>sWg>%\307\016>\024\275\246=\303\314\004>V\000\213=D?\224\276\355\221\304\276N%\217\276\343\201\217\276r\314\022\275c)1\275\263\020\033<\331\367\344<\017h\365<)\222;\274\206\311!>\034 \204=\370$\373<u< <]\024\031=\257\215\354;\321\321\235\275\340\002\025>2\201\317=V\374W\275\"\373\327\275\365`\247=\3327\324\275\340%\354\274,\263C\276Vdm\276\373\331!\276\0103\024\276\262\336\365=4\r\025>_\375\002\276\232(\204\274\221\350\204\2761\354>\276\337\277\204\276\r\320\375\275\373\217*>?]\027>\032K\213\275\377\210\307==\314\250=e\206\217\274\254\027\244=\\\322\210\274\267Xk>!\354;=\225\301\251=\025\017\260=\026\374H\276\306(\204\276~\355=\276u\366p\276\374\3646\276\360k6\275\'T\216\274\323&\374\275\245\253\365=\201\366\031<\254,\221\274\212A\253=>\374&\276\267%\204\276\332{N\276>Q\177\276\014h\204=|\220\253\274I\361\"=/\276%>\001\037e\276\273\032F\276#\372Z\27611w\276/\250{=?|\273\275\200\024\316\276\233\201\342\275G\375j>\021j\177\274Q\225Z>\033\346\023\275f\037\321=\0001\365;\315\312\206<\261^q\274\206\254\277\275\336O\211\275\332\201 \276\203S#\276\357|\037\276\222x\211\276\241\220\013\276\030\3246\276\367\375\000=Nt\274\276O\265\202;\016\277\030\275!\024\331\275\201\314\317\275\2056\216\275\025\314\205\275\367\266\206=z\300H>v\014C>\030Uu<\237\350V\275\224Sg\273\255\033V\275\206;\370\275_;s=_\030\271=K\250J=\003\254j\275\375\264h\274\263\273-\276\n\366\251\275\2042\n=\201\"\202\276n}\213\276\212#\261\276\342r{\276\2662,?z\003)?\324\316.?\003\3731?&v\207=\210\262\002\274\275\334\317\274\264\'\262<\277\276;\276\024\221\232\276\037\316w\276\212/\214\276\257\037\224\275\343e~\275y\215\257=:\246+=,\331\002=\301-\010\275\270\003\306\274\305\024#>Y+T=R\023R>A\005R=4>\022<\366g\333=\271\356\213<\364\344\377=\331\220\026\275\255\262\314=\001\265\225=\016=\024==9\203\275\363\265v\276\003a\250\276\363\036=\276W\2450\275\335\"\361\275\334>\267\275\205\344\214\275#[>=\327\311\200\276\226\004\331\275?JL\276%ex\276\234\210F=\035n\'>\263.l\275\262g\204<\321-\307>l!\312>] \311>~2\312>\013kk>\014^F=S\362\000>|\333\303=\300>\255\276\332>\307\276\006q\253\2761Od\276\341\376(\276\007zW\275\222\023 \276\020\266\316\274\036\200\274\275\247\014D=\346/$>@,\037\275E\367]>\245\213\356=\026d\360=\271\373_=T\350\353<\275\214\304=m\332X=\223i?\275\217\200\'\276o\336\257\276:\372\272\276\213\317\223\276\324\023\t>\262\342&\276\3619\272\276\333\277:\276\230y@?\3252=?T\356>?\0169>?\312v\">\240\272\311=\262\345\333<W\006\037\274\246\375\007>@]\342=\025\325Q>\227\000\350=f\367\206\276\332am\276\274\331\225\276\305\211\215\2761\275\212\274M\375*\276\246U\315\274\365\231\343<)\353\274\275m\213\327;M\203L\2766\033\377\275)#\205;\351\n\'>\314\277\220>3:k=\324;\277\276\343\202\r\275\201\365\204\275\313\350\016\276R\303\027=\365u\004>\330\353\263\274\254rS\275\302\251\243=\300^\003=\265\237==&\217\244\274_4\232\276\372h\230\276\267\021\262\276\0175\341\275^\033>>V0\204>\342;7>\275\301g>2\332\006>\273\313F=\266\006c\273g\016\364:\205Q\217\276M\263\205\276\320s\241\276\237Xb\276\324O\000=\021s|=\371t/>jZ\016>@\371\263\274\357\207\n>D\272%=\006\305\305=\177\334\274\275/r\344<!\002\357=e\264N\275\341\322\232\275\241!\033>}@0>\342lv\275\256\316\342=[B\004>h\000\334=7:\330=\024\210\206\276\275\365K\276z\307\227\276H=A\276\2479\237\275\212\274\326=\036f\177\275\336U\206=\276\3713\275i )\276\355O\215\276\356\325\216\276\244;\036>\220h\036>\237\260\220\274\377\370N\275\365\207\204\2749\265\233=\251\236\202\274O\357\245=\362=\260=\344f\201>\341\266\026>\321#\225=g\272i\276\036o\025\276\221d\216\276J\375\371\275\205\0173\276\304Y\013\276\361\262\265\276{s\207\276i\001\227=\212\215s=\252\335V\275\2433\255\275\223d[\276\275\244&=\353)s\276eOn<\314\203^\275\240\342\005>\316]\354=\371\247(>\007 \327\276d\273\274\276\277\301\203\276\217\205\230\276\005eh=k\250\003\276\313\026\304\276:`\034\274>L\327\274\330to>\310\204\312\274.\024l>nf3\275\235&9>\344{3>\326\375\227\275r\265N>\365\363X>\373@\022;<\014\234>\024\324}\276\202\340\213\276*\244\260\276\177\325X\276\221\306\365;2i\327\275\202}\223=5-g<\2429\320;h\367\016\276\206\315.>\003:\200\274G\347\221\275X}\237=\312\273\224>\034\345.=\255\265X\276\353\331\213\276\245\213w\276\251|\215\276 \212\001\275\336m\252\2759z \276\310\0017=\375\225\313\274\256R\016\276\201\257\021\275\024\376~\275|T+\276\203\221@\276\035\370\274\276\235\356-\276\276\205C>3\205\212>\275\r\371=&\2721>H\206\004>l4\316\274\032\271\247=\226TN=\204:\213\276M`\303\276\2343;\276\212Y\005\276\317[\343\274-c\376=\357\376\225=\\\257\216\275>\000L\275It\016>\224\371L\275eN\013>s\344\270\274\032\342\264\274\212\316\300=.\212\366=d\035\\\275+\346\263\275~=\307=\307\302M=\004a\305=\265@\261\275\363\347\321;\"\247\233=\350\224\234\275\031\334`\276\034\355\201\276\204\333_\276\350=\004;\254\177\237=\250\342\032<K\267M=\266\346I\276\365\246B\276\226\352N\276|\025\225\276\276\2030>Rh\233\275\"\034\037\275\321\377\364<k+\202\274|\017\302<f+\\\274\317\353\021\274\242\354Q>\356\026k>u\313\306=J\234\013>\205\016\036\276\2053!\2762h~\276\333w\263\276\337\316 \276t\332\020\275\270\007\252=\300\352\266\275\224G\363;+\335\377\273\322\335/\275~\"{\2757\220-\276K\273\010\276\311x\022\277x\230\003\277\230\310\315=\300\356\362\274\200\274\254=\005\206\365<\001\336a\276\206\351\215\276\250\223\333\276\376\343\235\276\313s\032=\321@\264\275}a\216\276\221\035\003=\224_A;\213g\027\275\262\007\366=|\357\266\271n\001\213=@\273\013=\252\241\207=\343\"\034=;\357\240=\010\037\352\275\2212;=\247\303\320\275N\r\204\276\227W\"\276\222\216V\276p]<\276\220\224\033\276Z\277\024\276\022\307\242\274Y8\202=\221\272\001\276I\305|\275\376^\\\276\013\n\201\275\241\214\241=\030\227i>\361\360\016>\031)s=W-\217=d\313Q=\353\223\212\276W2a\276l\254\005=7\232\344=\266 \000\275}\336\243=\221\'\n\276\227\234\027\276\353\'\243\275\2103E=O\223\340\275O\203\206\276\326\237\252\276\345\220=\276\307\004g>\203\307s>\362\002\215>\346\207\225>\355\232m\273\267\264\001=\305\342.=FU >\204\242\212\276\204f\214\276\261:D\2769\205t\276\334|\207=\2235\002<i\244\354=\276,\351=\036VC\275\2003i<\325]P\275\302\206\370\274\367\241\221=Wc\334=\330K>\275r\010#=\202!\373=0\020\023=\024F\005=\017\354N\275\272\252\262=\204\236\303<\212\277\"\274\030\352\301<Z\225\204\276\303\200\311\276(61\276\237\017u\276\232M\025=M>\223\275`a=\276B\3169\275\240\252\304\275\335\024G\276\t\333\255\276\345\314v\276\300\246$>\352\025\256=\311\263Z\275\037\024\367=;w\226\274\001X\265\274\027\366\253=z\325\253=\255bd=\353\317\205>\276\240\210=\261v>>~c\211\276\016\310\256\276\300\221\300\276\335T\264\276be\247\2764\275\230\275\241\242Q\276\001\245\221\274d\227p=\301%\365\274X\336.<h\266\324=\230w\206<\227\220\212\274\037\217\220\276\371\035\317\276\323\313\252=\363\313\325\275n\373\026>\037z\027\275\006\246\200\276&\347\242\276vd;\276>\356\210\276\233I\226= \231z\275+?=\276\"\024\206=\017\351\353\274]\211\275\274W.d>Rw^>\025\206=>\363\200\352=\244I\034>\033\022\313<\246\002\006\276\201a\364<\006\n\261\275\217b\023\276R\222\203\276\264\177\014\276&\222\202\276\306C\236\276V\220\245\275\270\230M<\245\245\206\275\372\367\322\275\340\214\017\276\223\270-\276\020\000\217\276\237\227\220\275T\243\232=\014O9>C\344\021=?\000\026\276>\016P>Q#\300>\225\327C\276o\267\034>\276\013\020\275\324\243\004>\367\215\237\275g\350+=\270e\252;m|\225=\311\353\221=\226\014U\275\314\347\270\276\320\260\345\275\"e\204\276Cx\271\276\217\327\222>!\027<>C\225@>\326x\007>\207\256\005\275\277\373\350<\006s\322\274\235^\247\275\255\005F\276\326\363Q\276>H\332\275\2616\344\275 \367z\275\003g|\274\377\301\362=\253\037\221\275-\357N<\335\261\264=pD\036>\216\327::\330Z\232\275\337B\020=\300\2726>\241\020\252=\2106\020\275\320\020\341=\310\217:\2752\026(>\277\207\000>\224\304\243\275\016\275\257=/+\034\275\264o\205\276\220)]\27612\263\275`\220D\276\n\255\000=\340\223\213\275AV\'<\240\027\233=N\'\223\276\3232\200\276$\314z\276\007\335\230\276|\3613\275\221\205\252=\2160\230\275<\036\350\273L\016\273<\233oP\274\014\203\030\274\372Ez\274\356\331R>h\030\300=T\207\010>\321\362\353=\314\265\323\275%\205\211\276\346\300\016\276\257Dh\276\235a\216\276\t\303\362<\277\010)\276t\330\301\275\027\211\276=\313W\027\276B\0010\275y/0>\331\303\243\276I\253G\276\202\304\304\276If-\276T\346\236<R\247s=\357\361\207\275\013\267\351=\271q\334\276\304`w\276\344]T\276\364\201T\276\362\322`=\347\206r\275\241\305\252\2766\362\026<\315\025\265\274li\\<\237o\035;k\223\003>\365z\221\275\211\371C>HE-\274\035\363\253\274\017p\221>\253,\014>\367f\210>\023k\316>\340Y!\276\020\024\"\2761\356\263\275\352\022\245\276\"\242C\274\023\342R\276N%\272\275W\004\375\274B\316\236\275\260<\035\276\216\013*\276T\310#\276\302Ty=\326\260\222>\\\217\302\273\235\254\371\275\254\031p>f.+>&M\206\275\267#\240\275"
      }
    }
  }
}
node {
  name: "f2"
  op: "Const"
  attr {
    key: "dtype"
    value {
      type: DT_FLOAT
    }
  }
  attr {
    key: "value"
    value {
      tensor {
        dtype: DT_FLOAT
        tensor_shape {
          dim {
            size: 3
          }
          dim {
            size: 3
          }
          dim {
            size: 64
          }
          dim {
            size: 32
          }
        }
        tensor_content: "o\034\'\275\366H8=\017/\240\275\"\037\276\275y|\202\275\345\203^\275\332\345\232\275\206.E\275\2454\276\275O\032\216\275\3625\234\274\025o\010\276\364N\203=\003\352\t\276h\327\267;\333\313R\276\361v\312\275\343{\201\275`[\006\274\374\210<<6\327\275\275,Z\342\275\375\013\016=\035\346\276\275\253\035s\276\205\016\313\274\375\236\246\273n\206\303\275i\332\013\275\274qK\274\277\321\003\275\311\274\350<\214G\223\275\220dY\275\276\322|<V\220\253<\017\252\003\276%\357\222\275\237\020\251\275\2377\231\275\256\321\037\275k\232/<\326\272j:S\201\344\275\027\211]\274\203\241\252\275\316#\t\275\214\256\215=Cc\307\274\023\023E<\311\0370\275\035\323x<\334\355==j\322\347\272,\226+\275\004c\021<\352\034f;\272{\310\275\271\'\025\274\232W\331\275\332m\005\276\232\305{\275\200\t\026=\024C\316=\"\263\305\273\276\202\014\275<t/\275\233\\\245\274oCo\273\025j\275\275\245\354\312\275\347M\200<F8?=k\371\014\276-\254\225=\345\256\361\275\311T\312<}\t\020\276IO\213\275N\330\217=;C\204<o\314\027\275o[\240\274\371\334\307\275\266hb=\240\377\274\274\211\257\312\274\027&\227=\332\n\303\274\016\017\202\2749e\210;\344\316\375\275\t{\324\275bf\211\274\261\347\243=VYB\275F\013\212=\270\205\032=\251\222\002<|\342\275=\2253\004\275\301\320a<>\266\022<L\026[\275a\306\016=\200\335\302\273\264\2161\274\026\342\345\275\341?5=\3216\330\275(T3<\005=\207\275\252\335\213\275\006\022\016\275\207\370\204\275\336\330\241\274\301\342\300=sv\241<8\010o=l\257\307<IX\242\273\274J2\275\300*\333\273!\337<\275\237\363\013\276Z\014\021=?\360\304=\332\307I\275\327\372\233\275\222@\243\275Pvx\275aRc\276\321\274D\275D\357\322\276eM\237\275\250@\003\276\252\255\361\275B\026\260\275\375\016$\276^d\314\276\271\267\265\274[\244\001\275.\253\307:\236>\367=\356t\222\275V\272\320\276\206\3431\275\215\037\220\276\032\336\270\276\327\326\233\276\203\234L\275\004>Z\275\361\220\023\300f#\221\275\322p\247\275\271\376\305\276\226\371\263\275\221\225\245\276\237\262\031<\374\370T\276\264{\224\275\301\317\211\273\373\243\222\275\\\236z\276}3\022\276\037w\021\276\313uT\275\220\261\222\275E\374\341\276\366\016\000<\201\234\200\275\220.\325\274j\370i\2751\'\256\274\365R\206\274\316H(<\347@\352\275\344=\226\275\315h\177\274,\235\230\276\032\240\204\275\026}\217\276\264\326^\274;\025\033\275T\242\377\275\214\025\236\275\276F\313\275\337\305#\275\342Iy\274\250\311\231\276\363\016\241=\310.\265\275|\236\216\2752ZG\275\001\364\t\276D\373R\277\324\332\325\275\030\334\256\276\325]\t\275\256\002\007\276\257\350\220\276\315H\006\276ZW\326\275\317\326\352\276\373\327\200\275\257\242\271\276\300\225\203\275\205\216\376\275\303\316\372<\314\252\220\276\260\332v\275i\253\221\276 \320\241\276f\221\214\2765\014\246\276\260\311\305\276\341\316\224\277,9\260\275B\2124\275\246<\330\276UL\n\276\271h\026>o\302\026\277\316z8\276\t\273\265\275\203\346\214\275\310#}<\\\330S\2740\343\034\275\344W\271\275>*\220\275[rS\275\226B==\311\212\021\276\0342>\275W\351\220\274\016\263\260\275\006\377`\274\274\353\353\275\002W\027\276i\035U\273!\204\217\275\256\236\261\275&\034Y\275\252_\272\275*\314\240\275\021\024\215\275+\375\004\274\r\302\017\276\004=L\274O\211\244\274\032b\222\275\241\330\345\275\312\310f\274\357\r\214=\002\261\323\275\232\335\266\2757b\241\275\334&\036\275\325\264\274<%\010\215\275L\350\212\275v\240\257\275\3639\261\275d\207u=\322\272\006\274\343u\'\275\240\315\267\275\345\376r<\225\023\326\275tJ\031\275\204\327\267<\375<\n\276\221q^\275Ej\310\273xV\245\275%\346\207\273\306_\016\2767 7=l\373\234\275N\372\203=\203\006\366\274\247\313\200<\007\252\354\2746\321@\274\264\337A=U\0249\275\202S\312<\217.\202\276\376\tn\276t\027\340\275\345m\364\276;i\255\275t\313\263\276\0054\344\275\360\304\363\275\227h\335\276\226z\020\276i\325\022\2756\212\217\276\352Q.\276\257\2000\276\217%\033\2760W\250=tNG\275\014j\231\276m`\255\276\220\335>\276\022(\310\276%^\217\276r\254\327\276\007\357\230\276\3476\331\276V\374U\275.\250\215\276W\232\227\276:\016Z\275y\003\343\276s\370m\276\205\003\213\2765\'=\275\310W\244\275\002\326s\275\336\231m\275J\232\360\275Lv\204\275\0378-<=3\014\276\002\304\273\275\354\232|\275\351V\226\275\377\021\223\275\036\361X=\031\246\274\274\325\270\004\276\034K\333=\004\246\240\275\222\010\003\275h\247\226<\257\014V\275\307\354\257\274\302\267\335\275\342\320\235\274\237\3208\2750\006b=gQ\373\275\021\346\222={/\202<\276\244\002\276\030\000v<\253\303\323<\334\007\213;\022T|=\215\277\225\275rJ\r\276\306\n\237\2763\223<\273Q\301\255\275\371\\\004\274\212\270\227\275\240f\'>9\\\006\275\005{R\275F(\303\275\016\350\304=\261g\244<\022\370\250\275$\2662>\373\245\270\275G\230\215\275\243\301|\274\376\027H\274\310\245z\274N\0340\275\'\323\237\274\022\331\241=\014\246\333=\247\315\223\275\311\003I=\024<\003\275&\0344\275\250\365\\=\240x&>\345\360\004\275\\l\343\274\013\253\177\273\224\373C\275\030K\375\275kf\226\275C\275B\275\237G0\274\267\216\216\275E\320\334=\005^\207\275\206\376\326<A\'\317\275i\342\230<\246z%\272\346b\262<\257\363\030=\240c\352\275S\230k\275\330\361\200\275s\355\207<\356w%:\000\215\225\275o\276\204<z\213\367<l\343\006=\000\026>\275\201\336\206\275\247\252\256\275\365\263\241\275\375\004\216\275M\326\253\271\260?\210;\320\013\357=(,^=\234b\317\273V\207\210;Z`\005\276\022\207|\275\024\212\201\275\213F\001\275\027\227\242=\267\272\323\275\201w\206\273 \261\247\275\317\322\272=H\227\001\276\363\301R\275\017o\"<*\326\001\275\236\363\341\275\341\352\367\274\273\277\226\2754P\311=s\370\236\275!\032\220<0\"\'>\367\3035;\323b^\275\030\317\236=f\336\r\276\235\264\324\275$\206\031=_W\351=\271\232\221=\0174\335\275\'\207\266\275z\371\t\275G\313\003>\220|\356\275\350\236\017\276\271\237\373\274\247\261E\275\226\330\323<&\342>\2757\212\031\276\325a\352\273\223#\232\274d\231\274\275:0\353\275[\247W\276\3734\236\2754\366\260\275\036\301\250\274\323\006\'<\240EP=\345\'\353\275\2308\362\274HX\275\275\3638C\276\320\256\336\275\234VF<\'k\355\275\0347\227\275<X\227\275K\235)=\001h\010\275\200z\217\275\203m\346\274))_\276\005~Y\277<gt\275\2579-\275\025\2243\275\317+\014\276\177\273T\277\234\361g\274q\004F\275v\217\216\276\025\270\363\274\226\251\n\277\032\001\n\275;V\002<\020\005\250\2769\230\241\276\021\223\360\275\023l\270\276\371Qh\276q\316\230\276\363^Q\275{\363\346\276`\300\353\270\215c\036\276\341\203_;(8$<G\256\375\273\035L\231\276\177yg<X\233\177\275n\204\032\272\217~\243\275\211\217\233\275\002\273\036\275\220\345\356\275\375\337U\275SP\306\275\014\022\022\276a$\014\276\026n\251\275\311_\004\276;J\005\276Q-\007\276\364M-\275\366t\260\275\237\014\223=\212\002\365\274&\032\220;\214\202\025\275\376\003\000\275\355\236\231=\377!\257\273\360\304\272\274\320\221\010\27570\253\275\367P;\275\262R\\=\342\211\252\274;\215{\271\235\\\351\274\341\206Q\275\332B\n\273\223\002t=B\274\240=\332\357\007\276\364\222\230\275\305\276\377\274U%\375\275Y\227N\275L\227\007\275\375\3260=\204\350\004\276\200\353\277=\'\332j\273\237m\321=~j\264\275bpM\275\200r*\274\017\331H\275\347\355{\275\026\265\200\275/\313\027\273\017\256\300\274k\003\202\275\313\351\243=t>)>YD\251\272\253\r=\275\3608\027\275\007\024\013\276\205\364\035\275f\363E\275\347o\356=L\255d=`@\257=\312\350\233\275\227\357\376\275\'WC\275\304\274\225\275\233\227;\275?{\355\275V\tF\275r\000\000=\330\376\343\275\001\212+=\215\203\226<\036\332;=\"E:\274^w\376\275\033\277\270=e: <\ts\030\275\017J\005\275\020\217\343\275\222l\333=z\262\236\275\276z\237=\230\374\010=\327\312\260=\263\326\274\275O\276\237=\206\201\227\275\237a\336\275\r\272\366\274A/\'\274\275v\264=r\200\271\274\'/\212\275^\242\216\275\237\306\217\274\315\252\330\275\305\3074\275_/\014\275\333y#\275\030r\257=9q\010\2767t\025=\215i\250\273\010\315\220<+*\236\275\204g\005\276h(\242\275ly\313\275E\376\003\276*\344E=\374\340\377\275\344\025\220<=\300\263\274l\324\024\275\202\021\004>\243\310\365<T\252\220\273L\301\220<\224(\321\275,\\\006\276\207\372\201\275\366\324\241<r\350/\275Y\321\254\274\202J\336\275\232h\354\271\025\230T\276\201&\\\274\323\276\t\276F\3266\275ME\177\272\336bb\274\216E\220\275\243\325\022\275j\340\274<\360\001\353<&o\234\275\022\'\013\276\231\245\242<\217o\356;\363{0< x\231\274\362?\364\275T\210n;k\211\221\274\356J\222=d\303\333=\313\353\006<Z\220\265\27489\220=\330o\347\275\202\024\224\275\2345@\275yU@=\r\355\224\275T\322\311=\230\277$=\367\320\355\274\253\023&\275\253\203\027<\022\362\356\2752\210=\275\366\177\212\274\345\226\212\274\267\237\031\274\366\314\236\274\210\374\036\275\033\3028=D\340\304\275X\237\251\274\353J\223=\002\244y:\362\007\206\274D\240\222<\240\010\303\2731\333\252=*;\317\275\202pU\275\320Mi=<\213J=b\265\373\274x\000\311=\213]\374\275\252z\207\275l\264\010=\265\203\233\274zY0=\353\020\346\274\\\253\230\275D\363\021\276=E\013\275\326b\255<\372\016\277\275\376vb\275\017\344I\275}.\'\274@y\020\276\323\345\005\276\273\263\366\275g\363\255\275\252\340\227\275\343\210\243\275\243i~\273\335\363J\275\002\243\"\275\336\224\250\275\014\302\034\273\304\260\253<\365\352\306\275\210?\241\272r\212V={=\005\275\372\266[<\276uk<\307\000\000\276Sx\302\275^W\377\274+\260\223\275\361t\221<\200w\225<\277\213\354\275\224\2263\274km\305<O\251!<\226N]\274\026\003\300\275\206n\257\274\336\234\266\275\315\003a\275\241\032\317\275\266\350\221\275\006\346\216\273\255\274*;\350o\266<h[\256;\210|\322\275\216p\252\275\342\263\256\273\234\022\336\272\365\370m;,\303\343\274<\240\235=+8y\275\345?\254=\214\373n\275\t\\\251\275H\203g\274\344\300\346\275\203,\231\275y\343\013\275vR\220;\0378.\275\022\240\037\274\323s\306;\255S\200;\233\320\233\2759`K\275\272\305\334\275.\220\336\275T\266\334=f\263\217\275\347S4<\335\301V\275\025\326\364<\304\324\372\275\0266\320\275\006\247c=\243R\004\276\341+\254\275m\027\225\275\247\316\270\275\261\343\255<N*\275\2740\225P=f\233\205<\215\2031\274\326c\277\274\217$\341=\317\010\336\273Cu\313\274\307I\232=B\372\363\274\233\364\034<A\305\333\275\254n\031\275\320\201\032\274\312\352\037\276\200|\006\276\271\"M\275\323r\317\274>\371\017<\272\203\340\275\325\000{;\307\3274\275=d&<0\373\244\275\251o\233\2747\024*\275t\275?\275\365\267\037<\302\372\307\275\256\234\301\275\375lH\275Hz\312<\025\317\344\275\366H\025\276_\022\324\275\253\370\246\276T\257w\275\2351[=\366\257@\273\301\324^\2752\342B=\177\303\010\276\306V\351\275\311\217\032\274q\315G=A\006\003\276.$\354\272\026\342\372\275|\312\220\273\352\2152\275\275\364Z<.\323\330=^c\300\275\207X\215<\235\255\275\274\235Z\036<a\341\321\274*0\222<\177N\370\274{\325\262\275\001\331\352\275\2241}\274\227+E\274\014\355\275=\300\307\227;\202\270\214=]\226\324=\266S\306\274Ld\325\275\037S<=\231\010\025\275AL\240\274\230\254G\275j\315\215=\264\0279=\224\326#=>??\273H\355\353\275#\353\347\274\370\256\225\275\321\314\t\276\314\3553<X\254\262\275\344\377\241=\337\016\003\276&\241L\275\300\336\213\275+\225\013\275a\'\372\275\031&\003\276Y\307S\273K\250\231\274CN\261\275\216\t{\275\327(m\275\364\007\252\274\330\363\243\275\335\021\310=\202j\202=\"(\371\274\312\242\032\275\223,(\274;\367\356\275\211\215\207\275sD8<\363\303\235=4 u\274T\026\356\274_\353\024=_d\211<<\026\343=\246\002\240\275\024\367\262;]\343z\275\331\020\022\275\226\313-=o\367\273\273b\035\031\275ne\t\274\324=\252=\301j\000\276\225\345\224\275r\006[\275a9\342\275\370\253q\275l\261)=\330\347\376\275\241\017F=\232M|<\221\004\274\274\004\207\276=46`=\354=<\274\373\347\354<&\234\371\275Y\270)\275\"7\325\273\222k.=\365!\212\275\'Y\207=C\355\314\274\367\366\244\275\256\002\302=$bc\275\332\343\225\275\304\320\016\274\270\250\305\2751\250\235=\257\345\221\272\032\225\332\273=\226\265<\333Y\232<J\000\210<\212Rz\275g]\376\274\333\234\264\274\024-L\274\237\201\247;\377\030\231\275\275\212\263\274$.#\275\3228\\\275\316\255\242=\035\234\246\275\321\316\246\275\004k\027=\323)^\275\210\245\300\275\007m(=C\376\020=\255\203 \275D\327\236\275-\263\202<h\367\303\2751C\237\276\346\225\006\276\271\002\003\2762\022\367\275\352\216\217\275\034\262\217\273\023\223\365\275\236E\266\275\366,\243\276\006\301\006\275\235\"\260\274\316\372\305;\\\013\313\276_\370\241:\313=\356\275sG\221\276{\330\330\275\277\031\341=H\234)\275U\342(=\247\322\225\275\360\362-\277\023\220\270\2749\344X\274\\U\315\274\306\353\266\273\036\266\221\276;\235\013\276\007k\225\275\305o\266\274\225\274\235\275*\200\t\276\030$\343=\242\005\305\274l,\n\275\254F\336\275r\240\305\275\004\347\016\275>\272\266<`\026\260\270\306/\331\276?\200\230\275n}\217<P\373\364\275w`O\275\027z\003\275r\036p\2752\033\223<\337M\253\2753\324\270=\350\314\275<\001\345\257\274\020]\237\271r+f\274\020\327\220\275\021.\204\273\271%\347\275\032\345&\275\325aH\2759\036&=\317\341\220=\262\016\032\274\257\036\025\275<\2220<\375`\306\275a\301\225\275B>\276\275\251\'\260\275\257H\010\276\345Kf\276J\245\315\275)\023\223=\360\355\342\273\356\0314=\327\321\217\275\250\302\022\276\3348\357>\010\223\327\275<\235\227\275\224\335X\275\025\230`\275\244\203\002\274\347\213\225;n\323\271\274\336\261c\275\360x\002\276\351c)\275]vP=p|\207\275\341[\264\273hO@\274\002\035\350;\210\336\023=FF\006\274)\244\347;\356\'\"\275\243\t[\275\377l\003\275\340y\014\276_+\t\276\333{#\275wQ\003<$\2040\275\005\207\010\275\023w\231\275\241\317T;\324\261\337\275\351\355u\275zx\245<\017\266\017\276\245{\001\276\003t\375\275;#\354\274\007[\001;\2517\322\275\353\036\264=:\000\317\273\034\337\200\275\0220\017\276\324\304\236=\335\221\254\275\260W\200\275\n\316\371\274\033[S<\375}\210=\340|=<\357\230d=\345HZ\275jN\343=>\271\272\275\276D\370\274\"|\312\274\336\214\277\275q\301:=\306\225T\275\3341i\274m\214\201\275\0223q=\2650\026<*\224\340\274\020\236\223= \305\346\274\017\3412\275\014\366\307=W\240e\275\245\001\313=\3158\000\276\354L\313;Z+k=\3258\021\275\257k\322\275[\301\032\275Or\026\272\304\370\320\275A\276\264\274\220:\026=\264\222\345\274^b\224\275\315H;\275X2\374\275V\203\001\275eOG\274\222\323\323\275\371\367\030\275W\337\275\275HvX<\230\303\347\275s\221\273\275\023Hb\274\007A~\274l\345i\274\010\314\366\274\0029\343<\003:\022\276)\321\210\271\217\352\030=w\336\341\274\222\271E\275\207\207\237<\362\237#<,\301\033=\353\317\217\275\275m\233;D\255\273\274\222\244\020\276&v\240\275\260\003\330<\351\261\n=Mzi\274&g\340\275\034\252\014\274\376\253:\275=\203\321\275\355?\r\276\343\270\206;\360\321\004\2757!\245<\366\347\321\275\257Aq\275w\3179\275\271z\240\274\337\312\313\27574`\275\337 d\274.:+>\353\205\004\274\332\235\342\275\005F\223\275hf\252\275!\255\250\275=\306\241<\\\204\272\275\205`x\275\300\360\202=\254x\204\274\242U\346\274\3371\005\276\203\336\326\274\363\206\253\276\251(\036<\202.j\276/Kd\273\266lV\275O\261\351\274\031\360\024;\357\2251\275G[O\275\272\315\256\275Y#S\275j8\252\275\220\211\241\275\363M\"\276\317\340\264\275\376\204\362\275\216\356\'\275\241\017\006\276\266\177\211=\222\227\264;&\363\016\276\262\302S\274\035\237\313\275\241H|= \242\334\274:+\246\271V\202\234\275\371(\262<\210\230\260\273;\336=\275W0\317\275;I\371\275W\315J<@\205\250\275{A\377<E\261S\2734\342\3659j\270\356\274)\270T=\262\234\365\275@\2230<\252h\266\275\006\010\351\275I\232\367\275\341\325\033\275\266((=\330\255\317\275^\n\253=2\262\200<\245\334\250\275e\222\213=Q\326\270<[\341\346\274\303O\036\275/\013\272\275wk\317=\016\020\000\276p<\241\274r\374|=Y}\265=\362\267\000\275*KW\275\215 )\275\037\202\252<\004Y>\274\372\310\025\275BR\233<\016Uw=T\001]\275I\305\207\274Gf\214;e\314\r\276\202\342\372\2757c\000\276\274U\271\275\237;\034<\377\354\004\276\252\2415=\001\222\316\274O\"\253\274\3051\361\275C\232\360\274\326\252C\275\305\232\221\274\334\307\312\275\251\215j=\n\034\234\275\027\337\316=\372\016\342\275t\353\202=\245\332_=\220\207\010=\343`\360\275\236K\205=D\200q\275\245\2022\274\'<\275\2742\322\213<Tfd\275,\302\317=\243\031\214=\235)\337\275[\356f\274\313\256\344\275\312\354\317\273!Q\356\275\032\017\014\276\222\342\221=\325\215\346\275\002\217^=\333\242\177<\351)(=\356\334\001\267\305\006\307\275\322@\311\275\'\246\206\274F[]\274p\3747\2752v\315;\256Q\313=\"7\301\274\352\331G=C\347\370=\t?\271\275c\0277\275\206}.\274N\372\216\275\377J\205\275[\013\232\275\"D\201=P\363\326;\232\010\243=\237R\t\274D\256\005\276\026\276\255=\221\032\020\276\246\332\360\275^-\276\275\332\'o\274\355g\354=\362~\n\276\n\320T\275\260P\243\275\367\352\232<\236K\002\276U\351\252<\324\322\256\274\035.\321;~\311\361\275\317\311\263\275\312\272\227\274[\007\214=\231-\270\275E\026f\275\352\333\244<b\033\024\274\335)\n\276\014C[\274\212\360)\275\200\212C<D\241\035\275\210\357\301<s\246U\2753\r\211=d\245\217\275\003\343\346\275u\326\243=7\365\267\275y\347\357\275y\305\235\275\313\254\213\275\262\335\202;\336o\026\275X\236\205=\310\265\267<\323\231\231=\356z\2509P,\005\276b\316\202=-d\374:\324x\277\274\032\\\303<d\323_\275\304\244Q=\251\267h\273\026\235x=\nU\014>\306G\220\275I\n?\275\273(\343=\"\204\244\275t?\002\276\367\377\244\275*`\020=8k2=}\001\013\275\376\371\024=\325\346S\274=N\333\275\n\023\337\275T\"\365\2758\206\372\27406\276<0[\2779\336!\310\275i\265\307\273% \260\275\215\244\356\275\035F\016\276e\354\377\275T\360\204\275\300\213^\2754\365\250<C\304\r\276n\274J\274dT\177\275\250~\320\275P\231\370\275w\007\300\272\357(\002;r\364\330\274$\003R\275<\344\261<y\242>\275\365\n\020\275\301\3117\274\202p\354\275O]\254\275[\234\013=0\373\210\275\352(I;\215\344\366\275V\267\275\274\205\261\371\275/\356\320\275\361\316\350\273\373\271\304\274Lb\221\275}f\016\276u\336\022:BI\020\276\332\245f\275\350\215\306=P\225\265\274\231\274T\275\305&\027\275\245\'\347;]\252\201=)\263\177\275O4\254=\333\307\245\272\215m1\274\033\260\034\275]P\031\275!\2677\274.U\343\275+\243Z\275\333\265\275:\325\021\026=q\030w\275\r\227\376<`\256\320\275\202x\000\276/\014\007\275\217#\\\274\177R\220\274S\026\354:\177\242\002\275>\213\014\276\366\231{\275a[\001\276|\274(\274G\357\303\275W\344`<H_\250\275\245\n\326\275\315\007\257\275\274\031\323\271!\206\303\275\\d\004\276\345\265\253<?\257\246\274\234\371l=\247\257\317\273x\'`\275s\0147\274}\325\003\276\007\367\016\275\340\342\217\275\211\0008=\345\231[\275\222\217\260\275\250\347\303\274\215[\002\2766\236\322\276`1\273\274\017J\200\275\231\276\006\276\352\321\277\275\005\031\351\276\237#\367\275\021\207\301\275\271\343\023\275yH\033\276ou\363\275\264\325\t\276\234\364\252\275\021B\036<U\312C\275\304\335*\276\323\231E\274l\247\367\275\213\241\227\275\367n\036\276n\361\364\275\202r|\2760\243\261\274\252B\025\275\026\242\'\275\240L\300\275\347\"\215\275\030\226\345\275\223t\027\276\256\377\210\275\220\207\267\275\350\232N\274\205A\317\274$s\006\276\351 \031\275\024\311\371\275\025\336V;\372\376\345<\231\207\010\274\267\242\252\274\225y\352\274K\216!=\010\304\010\275\334\207\010\276\013+F\272y\207\316\275\240\314\001\276\332\3218\275/\372>\273+\373:\275\362\021t\275\240\321\271\273u\356\266\274\252\036\271<);\350\274\2740\033\274\372\354\035\275D9\360\275\217TF=\364\362b=\353\251\302\274\331\340\022\276\212\377\217\276\275{r\275\337\271\272\276Z\324\275\276\n\024\304\276\000\365\224\275V\275\215\276\241#\304\276\236\250\370\274\323\2247\276\377o\271\276@e\211\275\326\263\270\275z/\001\275\\b\220\274\335`\017\276\207d\242\276\262\353<\276\277\311e\276nL\215\276\024\272\255\276\351\2341\275\254V{\276\336\224\220\275\344\217\331\275\266\352_\275\220\266\214\276j\244\234\276Lh\334\276\016:\241>V\017\274\274\365\221\036:\370\366w<\212S\203\276?v \277?\206f\273;\351\376\275\377\343\016\275\262\250P\275\030\236\322\276\264\226=\275\352\275\310\275k\262\223<\t\2065<d\341\355\275G\017\036\275\330\250>\276\264\204\257\276\017G\013\276\337\001\340\275M\347`<\352\226\314\275( ;\27545\237\275 \3705\276\352\237e?\036\343*\275V;\016<3i\332\274\036\177\353\275\023\\u\275\361d\021\276\3500o\2752\302\311\273G\203\335\274s\026d\275\342\232\037=m\177\323\275\271\247\300\274\177_i\274\030\034B\275\036l\321=\010\264\304\275\336\302\026\275m:\244\274_\376\237<-I\231<\321\273\267\275n@\314<\224\274\270\275\372\316\252\275\346\036.=`\200\343\275\310\240\243=1uq\275\331\264\265=,\373\330=z\205\217=_$\345\273\231\223v=\264s\227:\232\306\204<\203Y\026\274N6\367\274Oz\240=\313\265%\276\006\263\217\275\025\211\263\275\211\204\224\276Y\210\244<E\347\273;#\371\366\275\357\035\325\275\313\221\001\275\221\246\262\275\016\313+\275\030R\203\274\357\030\301\275\033V\306\275\327\252\311\2752R\025\275\257\272\340\274\210\r\366\274\207a%\276\030\255\314\275*U\204\276\225\"N\273DYE\275`\2752:|4\350\275\003\270\325\274Gz\003=\373(\023<+x\302\273\273I\235<\374\377n\276\225\362h\2760d9\275\227( =\321F,<k\307\201<\275\212\027\275\302)u<\231\366\324\275\310\351A\275g\255\026\275\245\205\270\274\273=\334\275uW\245\275c\373;<\026\310A\275\313B\277\274<e\306=\352r\333\274\227\345\334\274\306\326\316\274Zr\277\275\032\346\207=\357$\220\275\326\016\032=o\351\343\273\346\240\021=\002P\322;\377(\240=\317\021z\274\341)\311\275\314\375\374;[\r\241\275\322\027\237=\246\317\314\274?\231\247\274\321s\303\275\205\356J=\244\362\003\276\354\231\364\275)W\256\2749\0173\275~0-<n\310R\275\235\006\247=\343\257\326\275A-\303=P\007\203;B\200\014\276@\204n\274r\337\002\275# \331;\264\007\206\274\250\234\252\2742\235\270<\311.\202<Q\343==e\234\206=\330\031\177\275\260FM\274\026\017\247\274\010\3179\275/\201\314\274nt^=3x\202=\256\337\240=b\243\373\275\215~\004\275\222\323\002\274\261\271R\2756\244\204;\022x\262\274\242\250\221\274\206\333\327\275\236\036\002\276]Y\337\275\331\211\026\275\271\324\224\275\013\\\270\275\362\276F<\270h\312\2755/\267;\203\227\t\276\030\\\372\275\\f\357\273\204\016\250\275\242\350\t=]\301\370\275\273\231\206=h1\032\275\241b\264<Tk\332\275\021(g=\017\263\334\275\033\242\363\275\265\304\245;g\365\361\274\226Y\302=\210<\243=\256\211\212\275z\010\244\275\207|\264;\345\206\032\275\031\210\261\274~I\320\274\024\321q\274\030\331\232;\373 \003\276\322\254&=g\200[\275.#\233=\334f\244\2750\246\350\275\252o\262=\010\346\260\275\332{\336\275?\014\037<\2276W\274BZ \275\357\310\353\274\323\363f;8\220\'>P\307\325\274\271\272\326\275\326\200\030\275S\021\276\275X\240\232\275\264S\347<\031b\300=?yV=_3\n\276k\201\354\275D\243~\275L\203\271\274!\271\006\276\253}\274\275\357\213\361\272\222\266\203\275\273\021\017=\023\202<<B\267\273<\202\010\325\275s$u;\3554\334\275\320-\352\275ztC=_3\005\276\025\303\263\274\352\"\347\275\263}\327\274\373\032\200\275N~\226:\363\304\212<\266T\353=\264\216\306=9\336\235\275\264\227\327\2752\r\222\271\270\026\210\274\201\027\231\275\277n\241;\3634\226\275\3436\351\275?\225\374\275,\204\310\275\237j\276=\306\026\006\276\226\036\207\275FQ\270\275nh\216<\3716\026\276\244\001\253\274ZO\035\276)\216 \276\366\303\027\275:\254\246<\212\346\352\275\346\230}\275Rk\251\275W)\000<~M\004\275_P\352\274\301\345\264=\001\266\225\273\300\3631=\366J?\275\002\323\331<\256\347\024\275!\331\212\2745?\347\275\304\2320<\216pT;\030m\207\275K\353\205=\363\254\311=\016\300\t=\005\213\247\275\371\354b\275_\371\233\274?\014\311\275\036\342\357\275F\242\033\275\302\273\261=!J\026\275U{\270=o\232\353\274\225\213^=\363K\215;\022BF\275\230J\240=2\351\304\275\325\335\276\275D\322\314;\343\261\347\275\326\317G\273$A3\275\267\314a\275\374r!>K-y\274{&J\275\362]\226<\342_\273;\347(_\275N\033_\275\357=\242=\013l\350<\202\177\324\275\303\354\226\275#\016\353\275{\016\253=\211\020\300\275kS\226\275\005\357s\275h\244\204\275\355\337\r\276\3142e\275\345\020h\2753\225\030\275y`[<\t\227(\274\3555N\275%\325\374=/%\357\275\'p\235\275\210\325\014\274\300\230\313;\022\227\330\274\324\374\317\275\244Tf\275\3236\263\275;\020-\276\272FG<\343\201E=\235\256\317\274\026\325\332\275\"\310g=+\\\345<\367\324\247=\311E\266<4\t\032\275Bz\271\275\201\001\022;\233\'a\273\214\364\247\2759M\001\276l\334\344\274\276\304\\=E\267\033\2753\373@=\272\376\334\273\232\223%<\2243\333\275XM\233\275?\310\261=vN\222\275\342\277{\275\251H\215;\304U.\274\307\265\003\275h\004\272\275\207x\321<\226/\343=\216L\211\274\316\320z<\253\212\321\274\010\224\275\275\016\211\232\275\355U\205\275\277\r\253=G\033d=S\220\267\275P\260L<\n\203\374\275u\371r\275\321d\234\272L$j\273\356\231\\\274?\004\247<3 \231\275S\245\373\274%\r\241<\324Cd\275.\355`=\252N\346\275d\022)\275\276\330\364=%-\236<~\224\326\275a\261\202=\275\232X<\221\277\317=EC\305\275#\253m=\266\001\210<S\365\234=\225\245\316\275\322\323\260=\310\010\371\274\243@\375\274\306\010t\275\311Q\231<\031\317\337=\214)m\275\341\002\302\274n\247\346\275S\037e>\352N\310\274WU|\275\201\364\372\275\313\177s\275\330\231\305\276$>R;\3076f\275(\001y\275\347\215/\275\200I\204<9\275j\275\023b\216\276\3404\177;)Z\257\275mm\304;2\3117\272^\324D=\360\270\346\2752\225s\276p\307\203=hj\200\276\335\270\006\275\350\273-=7k\264\275\255b\016;+R\035=\256\313R\275\\[/\275qt\275\273\3465\243=\n\037\311\275\266;\300<\345\264\231\275\260^i;b\363\000\273\022B\313\275\200\310\346=],5\275oL\226=\354e\344\274}#\001=\224{\312\275,+P<\344\357\225=l.{\275!\036{\275\354m\260=\356\245B\274\277[{=,E\'<\272\270\335=\214W=>\346\371\324<\031u\016\274\221\2400\275\025{y\274\221d\026\274\302\262I=\177\242\377</\357\325=n}t=y\005\321\275\310\273\025\275\"\224\345;\311L\342\274\275Y\256\275\021\024\021\276\031\301&\275\211d\035\276\334\373\237\275\364\267\017\276\030\032\004\276\327\373x\273\264\351\236\275\360\300\232;w&\304\275)5\313\273ca\r\276\346%=;h:\336\275\333\374\276=Wl\232\275\230(\226\275\331?\306\275|-*>\234\375\255\275\313\2534\275n\334\262\275\037N\366\275\331v\222\275\365h\307\275\354\267\223=(\270\337\275\"\220\252;\267D\210\274\263_\340\274\335lD\275\334\221\207\273N[\313\275\247MW<\303\327\265\274\352d\356\275;*\260\275\202\345j\274\330\246\000=Ev\226<0\347\222\275\013\204\344<\334\335\226<\t\336\272\275\305\241\307\274\311\352l\275\310\344\321=\'\270\324\275\002\373\273=SGh\275F\317*\275N\356\270\275E\221\306\275\224\232\267;M)\031<\007\330k\275pg`\274\235\016\366<\237\241@=\022O\244\275\302F\335\274|\271\366\274\267\353\304\275g]\000\276\026?\005\276\027B\020\276\333-\312=2\004\206\275\345~\177\274|\r\255;\255%a\274,\317%\275\027\363\271\275\300\225A=\\\215\002\276?\214c\275l\225\225\274\300I*:\314R\276=\3300\370\275p\340r=\003\242\026>\245\346\212<\305\342\t\276\232\223T<x\265\372\275)\350\225\274\231\344\365;`\206\305\274hp\177\2735a\025\275\327\300\277\273\237\343\006\276\274\313\277<\335\360\253\275\232\326\276\275l\251~\274\324)\223\275\n}\216=F\354\211\2744t\311<@\234\343\271\304\306\270<b\207w\275t\334\001\276\014\312v\275\373\325\361;_PY\275}\010\023=E\251\002\276\005[\316;\033}\360\275\331\343(\275\253\236U=A\244==dUx\275\356\257\221<\027\306\t\276\307o6\274\026\177\224\275^Q\222\273\321+A<\355~h\276\360`*\276\024\354\244\275\317\260=\276V4/:\334|\311\276\n\204\345\275!\341\020\276T\317\004\276\267\375\350\275z\363N\275S\372\251\276\204\356\017\275\201\022A\276nE\274;\201}\315\274V/\220\275e;\276\276*\020@\276\033\365L\276\3500\262<\236\031\262\276(\340\010\275;)\356<\275\266\220\300p\236u\276W\204\252\275\021T\331\276\234.\230\275\371\326\276\276bo\322\275\262fV\276oj0\275\336\364\030\276\371v[\275\237L\221\276\226*i\275/7j\274\003\301\346\275\274\227a\275\224\227\377\276H\004x\274=\246R\275\365\213\305\275\001\261*\276\304\017\261\275O#n:\215\242\336\27686\217\274%j.=t\260I\276\203\\\250\276<i\032\276\253b\262\276\370e\274\275\373\371\315\275?\363\001\277\026\r\322\275w\003\265\274\0248\014\276\320\002\272\275\021\262\341\275\217X\242<\225\342%\276\314\261\270\275\250]\r\276\300\240\027<|d\310\276\2307\010\275\010\342\224\276\230\014\233\275\000:\024\275\001w\274\276\217\023\003\276\315_\321\275\220+\343\276bN\206\275\371_\311\276\220\014\305\274\366\324\026\277\271\235\356;\217\301\313\276=\007\241\276\345$N\276UU0=\005y\341\276Vk\264\276\017\312\354\276\250\030R\276Tq\n\276\243\207\'\276\344I\325\276\217m\353\275?\222P\276\310\000\"\277\372\204\226\275y\350p\274j\304\321</\'\362\275\306\r\221\275N-\247\275\n\177\313;\004:\361\275}\214\247\275\220\217\215=\327;i\275*K\016\275D\t\330\275\ri\201\2745\234\253\275\206\264.\275\016\367\344\275\344\262\362\275\316\230\313\275x1\233\275\030-\215<Q^\231\2753(\315\272&\217-=\353\254\036\276\243( \276U\317O\274e\271\036=\246\313W\275\020\355\345\274\216\347L=$\r\355=\310$E\275`\200D=\314\314\007=\270$\216\274i:\331<\r\303\022\276\372uN\274S\241\251\275\337\322\335\275J\226p\274f\321\204\275v\316\021=\363\\\214\275#o\246=NI\002\276s_\251\275]\364\270\272\273\327,\274\222\333\322\275\274#\360\275Q\303\222;Y\016\331=\241\242\013\276\230\214\205=\005\340L\275\315f\373\274K\361$<\354\327\353\275\272@\301\274>\201\336\275et\t=\223R\212\275.\273\317=~\232F\2767h?\276\266m\217\276e\263\200>\346^\006\276Q\017\272\276p\211\265\275<(\354\275w\\\027\276\313\217\016\276\307\370\227\275=\240\246\276\312\307\361\275\201,\234\275\233\356\364\274\225\352\201>2\336\360\274e\356\310\276\210}\212\276\274\215\236\275\274\257N\276I\276\236\276\216\307\260\2766Q[\276\266<\005\275\324\356\320\275-\230\022\276\224F\270\276\245d\327\275\307\014\301\276q\366\005\276(5\024\276\033\337\340\275\220\271\253\275(k^\274]\206\200\275\374q\226\275\340\315E\274B@\217\275\326\223\374\275\013\021\242\275|\232I\275>\267\271;\264A\240\275\226e\220=*\242\202\275,\034\004\276\272\356\330=\002\335\262\274f\346\003\275\377\353\321\274k\265\004\276\261\274\246=\373L\245\275e\224\254\274;\237\220\272V\227\242\272\200\240\335\275\304\"n=G`\346\275h\374h<\"\036\233\275\207\220\215<\365E\353;\272\322\220=\016\257w;\375\331\016\276\203Q\260\276\347l\373\275\214\223\203:V\305\354\275\243;\363\275\325Ej=\322\262\302\275\315\001\003\275\314\200\025\275d;\313=1\"\371\275\014\323\027\275[\267s>\331\030(\274\231\'\n\276\361On\275\226TG\275\010 \224=\327\023\n\276\034\334C\275\216\312\317=\037\001=\276\006E\214\275K\022*=l\257\344\275<v\261\275\225\322P=L\267\362=\230\3629\274F\\\236<\312\037\244<n\351#\275\000\271\332\274\250\273\017\276&\224\017<)-\030<o\210\014\276\203\344\274=\301\002\323\275\263\365w\274\364 \241;\002\312\264;\362U\021\276\2274\373\275\316$2>\346\306\221;\263\345,\275\205\254\031\276\351\234\246\275\273\030\202\275\234\326\217\275\236)\003\273\344\261Q\273\025fM\276\265Q\016\276\256v[=$\204\010\271\273\230\201< \2631=XQ\272\275\353,\324\275R>\276=\r\024\241\274\302\020\272\275\003\225!\275\337\344\310\275\322<X\275\021\177\000\275\ns\013\275\202\013\216=\247\274\224\274\001\331S=\301\210F\275c\247w=.\262\030\274gg[\275\241f(=;4\032\275\017f\336\275\264Z\271=\234<\206<\3500\305=\276\"1\274\274\022\245=p=\343=jXK\273H\360i<\"\267\010\276\255-\206<\272\325\036\274\270\3217\274\214\303j=\035\376\214=\333Z\273\274/\245\236\275a5\252\275\000\201\255>\242\253\010\276uV\350\273\370\375\277\275\263\360x\275\205\273\202\270\361,\205\275\334\372\361\275fyR\275\304\210\313\275\366\016T\275a\016\310\275\272S\250\276\274\247j\275\\.\375\274\nk\256\274IC\000\276w\320\243<\212?\000\276U\026\234\274\202\231\203\274\250\031\'\276@N\037\275\027\347\377\275\246\271=\275\324\211\207\275\002/\273;\235>/=\2411j=\312h\366\274};\372\275z\233\300\276\275Q\227\277\021\254\001\276\211\327~\275\003n\027\276\265\027\323\274i\010I\277\371\353\000\275\303\273\334\275!\375\264\276A\337z\275\303\210\344\2766\\\235\275\232s\202\274\023\230\256\276\006b\224\276\325#h\273GR\300\276\270\343\300\276c\360\236\276\350g\307\275\266\347\357\276\245Ap\276\314LQ\272\312\333\275\276\240\253\234\275{@-\276j\262F\276\006\304q\275\370Nl\276\3458(\276\356\355\202\274l\231\231\275!\203\354<\250H\247<\373\365\001\2762\360J\273@,\234\275|\200\030<\261\345\225\273\255\021\366\273\305\335*\275\314`\014\275\013\313\231\275\371\300\234\275\235`$\275\277\017\361\275zU\t\275Q\336\023\276\246{\007\276/?V\273\336\314\237\275\017\334\222\274~\000\032=\212\246\243\275\316\351\215\275\227]\213\275\310\344a\275\306\020L\275\003J\331\274\302\372\211<\330\316U<\246\367\237=\310\r\213\275\017-\325;>\236\251=M.\231\273\002\372\003\276\340p\377\274\311\177\363\275a\224\304=G\374\207;I\020\211=U\246\271\275\030\327;=\306\222\206\274#\276\350\274J\250\032>OX\t\276x\236P\275\300\250\313<M\030\025\275Je\006\2748\346\032<\264C\206\275[U\246\273\007$\204\274\024\212\022\275\003\'\242=\350{Z\274\250\316\034\275D\001+=Q\007q=`\035\322\273\355 ]=\214P\347\274z\201\330\275=\020\237=\212\n\207\275/\213\017\274+Y\371\274#\312\003\276\370{\253=\333$C\274C\332\245=\013\023\311\275\2616\207\273\3757\266<\213\206y\275\375\323 \273\001c\364\274vu\226\275\246\373f=R\336\034\275\333\247\016<\007E\002\276\247\334\215=k\345\240<\246CQ=\013\177><\200\354\273;\215\217\014\276\005/\331\275\245.\222=\373\030\023=\236\363\222=\206\316T\275d\220\031<\351\305\311\275\363\252\224=\366\273\315\275\r\223\235\275q\377\302\275:9d\275\234\330\264=Y<Y\275\326ma\275\205J8<\210\226\246=D\'\003\275r\313Y<\265\347\215=C\302\000\276\033P\216\275s\"\364<\202\366m\2758<\246<\375\264\014\276\237\213<=\236\244+>y\356\324\275\000\210\205<\366\212\225\275j\027\222<\024\tU\274ka\274\273\372n,\275%\236\336\275\352L\031\274\033\\\264\275\024\352\t\276\252\315\264\275\211\3476\275\336^l\275\006\035\346\2752\233\207<bC\335=d#\326\274b\250G\274\263\277d\275\311_\225=\322\357\334\274/\304\225\275\203\335?=\324.\r\276\320\035\344\275?\375\n\273\265#P\274\262D-\275\2313{<\271\240\333<\004\301 >V!\004\275D\003\302\274\205:\030\275\256Qo\275\360\326\336\275\201nS=\007\354\312=,\265\216\275\265\307\023\275\350\312\335;\201\273\001\276\203#\\\275\251{\3568Q*\007\276\221\315o\275Qk\230\275[\335U\273\213\245u<\300\273.\275\312\225\240\275h3I=\371\031\200;\007\225a\275\203\000\020=\037\264\257\275)\273\302\275\375\032\013=-\240\231\275\341*^\274\212\247>\275\342\001\200\275\311\375\356=\354\2173\272C\266\374\275\244t\270\274o\026>\275\227\n\302\274\233z\231=\227\233M=\00069\275\364\1772:\013\'[\275\330| <\305\277\224\275\366\206\273\273\\M\030\275\235Y\372\274\250\020\005\276\370D\236<OL\347\274\204@\033\275\345\324\277\275\371z\255<3$\377\275]s\220\275*ne=4.\313;\335X\322\275\002)\373\275l\225K;dP\030\275\347\265\231\275w&U<\360\370==\237\223p<\265h\330\275\305\023\211\275\205\006\022\275J\253\272\275~\306\315\274.\002d=\277\340\240=!*\016\276\327\343\024\275\316\356c\274n\337{<:8\024\276\247\332\214\275\233b\007\276mg\010\273*\355\255<\353\255\225\275@\362\205\275<\273\373;\302\312\344;\246\244\211\273\032\271\200\275\223\025\211<\373\305\341\275\200\303\356\275\376\277\017\275\204S\214\275\307Y\365<PX\236\275\217\352\306<>\241\327\274\264\231\372<\334\023\247\274;\215%\274B\306(\272\036d\333\2754\201\343<\237\361I\275\006-{\275\302K\306=\312\273\220=\361\215\235\273\232[\207=\213*\022<N\331\351\274\212\336\000\276Kz\224\274\367\357:=#u\331\275\340\364\377</\306\202<\306c+=[\272\273\275d\375\325\275\017\\2=L\231-\273T]6\274\336\214J\275rY\033\275\211\244!=[9w\274nG1=\027\225\r<\275\273\017<\341\377\201\274\274w<=_\271\316\275\232M\277\275|\342\227\275\351\272\340=\006\265H<\036i\247\275#^#\275\262\200\340\274\345\177\332\275\324\275\234=Rf\252\275\333X\000\276Zx1\275\205\332B\276\252\031\r\276\371\213\243\275\000\0374\275k\245\274\275\214\007\276\275\270E\240\273$Z\374\276\304a\264\275*M\222\272q\325\017\276*\255\270\275{\031\335\274\377\2267\274N\335\370\275\213\335\341\275+L\251\276\375\030\232\275\357\266N\275\2571i\275\307&<\2755\376:\27616!\276\321\250\301\275<7\251<j\243o\273\364\360\207\275\341g\312=\345n0\275&^t<4\0364\275[\360\366\275\000)\005>Ht\217\275\374\010\366<\024Rt<N\231\337=\362R1<x\371&\275\302\316\203<8q\003\275&W\242\275\326YE=Wd(\275\025R==\325\342\232\275_\362\307:\354\2748>\025R\033\274\277\327\r\276\016$a=S\347\354\274\271\230\016\276XE\001<\315\256\373=T\003\010=!\021\007=i\236\373<\017\177\352\275\253G\213\275\317J\026\275\0141\207\275O\272%\275\265\014\267\275Xx\006>\r\267w\274\231\306\370<*\273\234\275E\000\257<re\260\275\203\037\257\274\322[6\275>p\374\275X\356\272\2743\224\026\275\313\"\023\275A\340\023\275\351\\\346\275W;\270=B\034\271=\2751$\275\271%\232\273@<$\275x\214\232<\246=\203\275\272k\227\274\341h\263=\254\265\211=yZ\316=\330T\220=\023` \275\025\376\217=\306\266\222\272g\311\312\275-0(\275\277\334Q\275\326\021\245=\004.\000\276e\010\004=\341\203\251\275{.\335=\224\004r\274\363o\r\276\213\241}\274\3569\374\275`\303\020\276\370\257\031\273\001\357\020\275\231\244\206;\307\343\215\274Gf\236=\036T$>\322[\207\275\363\260\'\2748\323\303\275\324\237\343\274\355\275\231\274\203\257x\275~\326\231\274\3426\016=\023#2<\337\031u\275\344\361H\275\303$\016=\311E\306\275\261>3<,\317\341\274\370\3027\275\'\245y=\007!\256<%\031I\274\310T\275\275\362{}<\276\013\243\275Vz\270<\314\232\260<\302\001\267\274\254\277\235\275\241\224\264<\014\000\242<\223\0035;(\003\314\274\225\314A=Rt\366=\245\376\266\274WQn\275\303\340\210\275\271tV<\306\211,\275r\227k<\337m\005\273\265\267\271=\221\274\350\275\032\341\001\275\343\311\303\273`A\275\274\364E\355\274Xn\025<\230\030+\274\306B\340\275\343\327\026\275\007\375\330\274\376\307\256\275f\370\270\276\322\013\277\273\016\227\002\276\2774\265\275\226\372o\275O\031\313\274\323\221B\275\220z\207\276P\266\004\275 \262\206>\301\256\312\275\201\362`=\020\373\022\275\345\035\r>Q\345b\274\334\363\004\275$\275\354\275\3630\324\275?\357\313<-\372\277\275x \274\275\203s\263\275\357\347\203\275yv\311\274o\355\306<\010v\266\275\216~H<\033\274\017\276f\257\007\276\013\231\276\275\031V0\275~\216\001\276hJ\222\276\'\032\244\273\212\243\257\274\334K\016\272\243\227\322=5\024\014\275\206\177\005\274\317\264r<\216\350\021\276\206\355\353>\340\022\007\275\356\242\r=h\237\360<\276$\240>\312\2518\275\266\274\202\275P\010\314\275\324\243\014\276>\322m\275Lp\254\275\234\351\234=@\365\237\274\310\363\270\274\365\3023\275\211\207\376;\256\372(\274\013\275p\275\302q\001\276\301\033U\275M\273\241\276\2642\242\275\230\247J<J\213\223\275\301\304\277=\305 \273\275/\313\270\275\377\255\330>w\217\266\275x\337\355\275a\301\237\274t\362\335\275\036u\203\275\233\021\235\275\343\363P\275\336\037\312\275\332H\';j|i;/\356X\275L\302\234\275=uZ\274z\034\252; \355\247;^\273\035=\342\007\311\274_\245N=\020v\331\275\374\242\227\274\212\'\262\275{\017\023\275F\030Y\274,5\350\275\301Z\000\276\310A\257\275\251\025\000\276\017d+\275\323Y\004=7\326\\\275\276;\374\275\205s\273=\311bO\274S\367\323\275Z6\367\274\243sS<!_\000\275\323\371\330\275\257\025\310=+,\310\274{\305\004=0e\303\275\372\036\265\275\274[\241\275w4\'\274\371\353p=\370l4<\367HB\275G\361\251=\271\231\254=\303\300\312\275\257\350\327<\344}\314\275(\377\246\275\002c2\275\244Kv\275\t\'\257=!\367\274\275\271]\252=\364s\200\275<\236$\274.Y\001\276\353)\355\275\320\017;=\304\334\312\275^\226\377\274S\307\251;\3263\030\275\022\355\325=\315\276\211\274\361\261\262=\207\354\255=\216:\256=l\301\215\275/\261\010=(r\356\275\325\362\272\275\022\351\355\272\264L\360=)\034;=R\2212<\026\250!\275\300\245\331:\364\307\204;T.\270\272\002\205\305\274\367r\343\274B;\017\276\031y\214=R1\025\275\341wm<@\310\364\275\364\362\335\274\3449\377;\217\017\005\276\023d\200<\201u\023\275\036\337]\275\367\371_\275\220\375\215\2758\231\276\275\343w\213\275\304\352\016<\363L\002>.\031,\273M\345R\275\034\251T\275\321f\303\275W\213?:4\257@\275\371\270\251<\302\231\021=\272#o\275h!5<\205\326>\275\'\3442\276:#k\275\022\010\003\276\336\207\013\274w\2140\274=C\017\276i\364\374\275\225L6\276\303QF<X\252\307\274\377:\346\275\2159|;\035\347\310<\020i\267\275\205\232\215\275\"cy\275\350\270\336\275\316>\344\275|F2\274\217dx\275\210\332q\275u=\244\27587\357\275\206\026\026=\2647\361\275B\000\325;+v@\276G\210\346\275$\245\007\276s\254\246\275\204\302\320\273\3577\226\275K\361\026\275-\342&;\013\2031\275(EP\274\301\222\231\275\246:\334\275\261\006\240<\261O)\276\025e\025<\014\316\353\275<@\213\275\\\344\247\271\0354\000=<o\235\275w\342\224\274B\252\006\276\235hk\274)%\250=6J\220<\2522o\275E\214\n=\031\235 \274\037\224\010\276\362\252A=\232\365\344\275\301\260\301\275L\354\235=)\223\\<KG\005\275yT\270\275\201\304\200\275\322\334\361\274\264\006h<V\006\023\274o\313\243\274\233\322\254\274;\"\305\274\272y\224\275\261\016\307\275\365\372\350\275\360D\330\271R\2412\273\322\366\251\274\276\037\352\275\363\326\205=\256@\272\275`\027\020;8)\035\275\2261\266\275P3\235<\250\317\262\275\310\376\013=\351k\233\273*\177\"<\345\210\016\276/\022\034\276i\036\361\275\200\3600\275\214\334\221<`\257\200=\223\000t=\002gV=2t\246=\343Hr\274\361t\336=\215M\300\275\316\244\245<\367\3411\275\270\317\310\275\310\367\230=\000\203\235\275c:\240<D\236\005\276G\224\240=@q\311\275\366\346\302;\262*]=~\3638\275m\022\022\276\332\374\242\274\005\217\236\274\367\2134=\201|_\275\005\233:<\204B\366=\177\236q\275G\203j\275-\275 \276\025/\205\274\265\264\000<H\326\210=fg\321=\267\206\372\272\3504\226=U\355\252<i\316\241\2748\177d;\013,\243\275\260\235\235<\263gC\275%\236\363\275\211V\001>\205\233|\273\266\tG\275\233g\021\274\tZ}=~\302\267\274\220\010\t\276O\302\205\274x\233a\275kn\363\274;\323\201\273wj\t\276\221\233\314=\025\220g\275\001\323\214=\351\203\325=\006\335x\275\235\312\310\274u\327\311\275\003\364\303\273\226;\254\275T\373\273\274x\231$;\334\376\217\275\205(E=y~m=3$\251\274\207\2751<B\202\357\27424T<\276e\340\275\242t\272\275\013\307\201<\2000\020\2769\300\273=\3768\377\275\335\203\224=3\314\374\275\362\232\244\275\366Z\216=\033\\\014\276\025\272D\274\2018\256\275\203S\000<\232k\305\274V\004\217;o<\363<\204\340\327<\255\244\270\275\270p\311\273\262I\017\2759\240\241;%\365\000\275\267A\017=\305`\253\274\316\006l<\374E\347\274\'g`=\220Q\275\275\252l\006=\256\203V\275\010Q\313\275eT\251\275\006\317r\275\220W\004>\343}\271\273Z\252\265<o\177\305\275\362\354\t=\304\245\370\275\261\243c\275X\353\031<k7\225\275M\307 \275\264\351p\275R\330\324\273\376\274;<\252{4\273\237\317\245=\210\036:>\335\240\216\275\"h\320;\377\326W\275\025\262\027\275\326j\030\275\354\321\205<\313\240\257=\221\302\255=P%\030\275\023\356\257\275\355o\361\275\273\224\226<%z\317\275\242F\302\274\2165\266\275;D\313\275\227\t^=`c\270\275~\277\246\275\364w\353\275\345\205)\274\026\372\261\275\242rU\273)\265\247\274b\241\005\276J\363\"\275\233\256\241\275\310k\371\275M\341U<e`\000\276\225\236\204\275\205m\010\275v\326\037=\0347\013\275u\305w\275/\316\214\275\036C=\275\330I\253<5\263\237=d\210\024\276\266\324\307\275\345\263M=\321\251\321\275\333\356k\275\325\000\026\275\016\246\240\275qr\316\272\304#\300\275`\346\225\275\221C\n\276*\t\247\275\253\305\326\275s9\305\275\341X\323\275\200\226\307\275\002;X<\227\014\275\273\270\t\014\275\037+\337\275\276\004\214\275\377\325\374<\371G\332\274k}!=A\020\266\275\300\327\201<\307JI\274\251I\200\275\327\334\307\275q\360\230\275\275\031\r=\016\235c\275\337#S\274\245\n\001\276c\364X<W\227\202\273<\236\236\273N\364\003\276\272\323\331\275_$/\274\026\263\303\275\346\247\253\275\200 \233\274\307t,=\256\242A<\022\022\342\275\372\341\241;~}f<\354\371\266\274a\205\271\275\372\003f\275\321\322\211\273\235_\334;\027\001\222<:@t\274\273De\275r\256]\273\366\003\275\275d\226\305\275\024\233\345;\267\366\006\276\330\010\017\276;\221?\275\262\036\027\273\220\202J\275\265\266\031\276\225\311\275\275=\222D<\001\371y\276b\260\221\275\324:\356\275\r\216\006\276\244\204\013\276\252\270\313\276\216\031<\275\243bu\275\373\223\007\275\360\005\307\275.\260\266\275\271\260\204\275\030\216O\273\261\265\224<\221c,\274{9~\275\311\211\354\275\246\2539\276\321\023\020\276\266\033K\275\304q\310\275\202\275\333\274\032J\273\273\374\245\341\275\003\363\275\275\314b~\275\354\215\200\276a\357\277\275E\031v\275\252\3500\275T\225h\274\2659\r\276\361\213\271\273\312\t8\275\313\256\376\273\r\237z\2749E\223\275\335\323\020\275\004\304\217\275\310\332\200\275a\007C\275\340a\221\2750\244\256\275\373\316\322\274\357\351\377=\265\020b\274\216\357<\275\360\233\210\272\306\315\335\275@#\263=\214\347\301\274\210\230\022\275\300\301\377:\252=\262\273lfU\275\366\237\311\275oW\272\274\271#\231\274)\344}=I\204\207=\322C\366;\203\320\315\275\335\257\226\276\246\350I\276K;[\276\235l\234\276\334c\207\276\270\224\036\276)\000\257\275\"\024\230\276u\310\005\276u\234\310\275\336\351\225\276\017|\237\275\220\324\247\275\026\304\300\275\006^7>\262\214\326\273\220\260\230\276y]L\275$\260\246\276\364t!\2779S\214\276N\236\375\275\003\210\252\276Od%\276\213\227J\276\332dA\275\370\320\273\2762\347o\276\307\354\001\277W\230\220>s\237\224\275^\307\370;\263\214\307\275\r\017^\276L\2734\277\034\362\225\273\336\010\021\275\177I\013\276Q#\3739#bI\276\236E,\274\310\351w\275\222m\234;\262\345\357\274vN\325\275$\241\343\275\202q\032>\355,\326\276\021\205\033\275R\357\237\275\353Q\251\275s\270W;\275H\272\273\301\202\361\2730\345g\276\"o\271\277\276\366\342\274`~\307<#\347\033\274\206V\330\274\276\250\252<\331\254p\276\031\326\341\274>-\006\275\210\231\200=\330/\016\276\333\025\315=\314\230\001\273\215\030`<\357Y\271\275\336\034w\275!\337\356=Z\207!\274w$\036\275dN\250\275\364}\277<\000\251\000\275\232\270\337\274%\255`=\003\257\2327&\341\221\273\314\367\305\273k3`\275\227\223\370<\037i\234\273\314&{\275\342c?:\233\244\026=\322\3655\275\350\r\313\274\230\364\250\275\260<\225\275(5\250\2743K\202\274\303\233\346<\372J!\276\035\237\005\276N^u\275_6r\276\300D\316\275\251\007\300\275\342\3416\275\361\001\376\274\374/\r\276l9\373\275\371:p\275U\273\342\275\254(_\275\254\002\320\275\262\375\350\2758\220\310\275\367\303L\275\224,\303\273\216?\205\275zv\007\275\221\323\004\276\013\331\200\275\353x7\276\016\212R\274\322;E=\020Z\010\276SS.<(\226\200\274g\367\203\275\014v7\276\365\305\227\276B\033\243\275\000\253\235\275\215\356\322\273Z\252\t<L\274\210\275KK\361\275U\367\331\274\363j\226\274\365MI\275\263(\205\275\331\022f\274c\225\255\275\224\361\n\275\301W\240\275m\325\237<%\255A\275\024oV<\264\'\331\274e\3010<\360\360\236\273\210\213\205\275\314\323\235=\032;\230\2759\007\021\274\213\002E=Rp\204=\340I\205;Fv\000\275\230:\031\275O\2030;\241^\230=4\306\220\275\257\247c=\273\005N=%R\263\274o\337\000\2761\340\306=\030\364\361\275\252\301z\274\022\207\230\275\257\363\237\273H\246:=\366\014T\275\311\023\361<\202\014*\275\337\021%=\307\n\032\275\020\004y9\273UW=\263}\000\276j\371&\274\004\271\203=\307\212\301\275\361\364T\273\273\001\266\273\317\310\330\274\211Q\006>\\Ti=@\274/\275\201\363\226\275r\"4\275\376\361+\275l>C=\340\345\275\273\307\272f=\315:\010\276^%\313\275f\324\245\2750(0\275\035s\304\274\257\301\333\274\262\250Y\275\352\355z\275P\023\367\275\344\366\214\275>\340\275\275C\374\301\275\342Q4\274\\\2029\275\272\021n\275\241\3238\275\356F#\275\036Y\200\274>\366\210\275\240\274\315\274\253\334\343<\315\r\251\274\317\320\304<\240f\320\275\252]\314\274\222\304\001\276Y~\371\275\223\332\026;u\207\354\275/\204\036\275\261\225\304\275\254\272T\275\326u\243=\316\3679\275fk^\275\211\2703<\004z\204\275\343\000\326\275\273\236\246\274n\205\362\275\034\301\277=|i\310\275\204cr=\266\223K<J|\246=Xe`\275\002\032\004\275:U\005\275\262\035\202\275P\223\r\276k&g\274?\255\305\275\322q\221\274\254\025\037\275\207\306\226\273K\251\204=<=\245\275s\307\256\275R\010\215\275E\313\021\274p\321\201\275\220\036P\275\357\364\323=\010\234o=\033R\255\275\244k\234\275G\266\242\275x6^\274\324\350\364\275\375\247\350\274\023\035J<N\037\r\2766\3533\275\356\266\007\276\305c=<\324\217\322\275U\034\021\275DJ[\275\331\365i\275\362;\223>^\r\261\275D\220\255\274gx\265\275\363\331\262\275\tJ\234<)\264\202<\342\206\354\275\020\356F=yn+\276X\333\307;s\n\025\276\023Pg\274\216B\205\275\212d\t<\034\366/\275\374\250\022\276\367\203\260\275\246A;\275\301\254\232\275\323A\331=\252?\362\275\001\233\240;7\310\222\274\214\310\275\275\013\to\275mi\336\275\316\206\001\276\275th\273\033/[\275h\241\234\274q\353\262\275\357\244\341=\374\357\351\275\250h3\275\"8\324\275\376\312\327\275r\221W>\204\252\273\275\360\363L\274\017\334\314\274K\236\376=\270=\212\275S\331\327\275\351\200\262\274\200-\217\275C^\022\275\334\235\330\275\343-<=\216#\014=\303&\213\274\263\226\242\275\200\243\267=\323mD\2735T\263\275\376\017\252<{\3758\275s\003U=\26571\2745\206\234=\310*x<r=*\274-;\207\2749\023\n\276\337\371E=\364 5<\212 \236\275V\253\234\274@qQ\275\331\252{=\200\317\t\276J\312*=\022q\035>j6\261\275\321J\337\275\371HZ\275\023\023\007\276\035_\037\274;T\227=\014H\017\275\246\245\221=\263[\356\274#\306\257\275\266\313\360\274o\010\324=/\377\323\275\265N\250\276\224^\201\275O\374\250\274I]\344\275\306\343\007\276\246>)\276\323\001Z\276\370\006]\275\370\217\275\275\032\254\371\275\330\324\350=\275h\241\275\252\031.\276v\2515\274\200KJ\275\"\323\303\275\352\177\323\274\261\020\313;\372\262\240\275\241@\257\275F\037\t\276A4\201\275\276Bz\276\024lL;\340\016t\275\024\314\224<\321L\233\274\201K\264=\241,`\274_\030\243\275\377>\244=\216j\312\274\006\323\t\276l\231\001\276>x\t\276\021\260r=\007g\217\275Fo\355=\321\310I\275\260V\273=)Xj\2754\"C\274\211\342\312\271\214\025\262\275\224n\201\275\007\020U\273\013\350I<\ns%\274\267\004\371\275\200\314\237\274\025\314\200=7\264b=\270u\266\275T\177\322<\001_\366;\225\323\351\274\256\255S\275\344\257\330=\305e\275=\326b*=\355\365\207\275\332-\031\275\221\215\301=\365\254l<d\021\"\275\200\224r\274Z+\014\276\226$\345\275\034\360\000\2763=\257\275W\243\n\276\237\355l=HG\231\275gf\326\274\0319\272=\255\325\212\275\271\344\237\275\3768\213\275\345l\251\275\225=\301=\337\213\245\275\346\341\224=\312\007\013=\006\265\034</J\335\275\276Pe<r\036\000\275\355\363\016\276\036\246\007=\010\203\200=f\216\204\273\256\020\250\274\2402\330\274\317Q\302\275\274\365\207>\221\357}<\245l\262\275\211Z,;y\261\207\275\335.\231\276\231[\206\274\205\246E=b\263P;/\037\213=\343k\265\275\274\034\t\275q\353,\276\025\270R\275\020\274y\275\036\377\240\275A\205\270\275\320W+=c\307\221\274\220\360\204\276\34500=F\364\203\276\325o\312\275U\263\021\276SN\022\276\220+\314\275\262>r\275a\363\262\274\326:f<\273\214\255\274!\000\205=6Y\002\276\237O\215\273r}\320\275\021\267\210\275\2673\030\275\244O\360\275\033\263z<|a\310\275G/\274=\371\210\222\274\232\250\242\273WPW\275\215\342\222\275\305\014x<s\241\210\275\202\201\241<\331\3736\275k\205\007\276\231-\242=\337\264\250\2750\377\320=\t#\177=3x\265\273\206\240\275\275\240\324?\275+\017g<\030\273\004\275,d\202=\266\214\020=HSh\275\233c_\275\306\\\226\2730\211\336\274W\320\251\275\321\240\377<\371@k\272\3226\201<\273[\017<\367\217\373\275\232\017\023\274\200\244\004\276\357*\335\275\037?\220\275\366\3238\275Wm\361\275\233\262\\\276\224W\017\275!c\326\275\302\233\010\2760\320\016<\341_\017\276W\245\266\272\357\242P=p\245\260\2756v\344\275\342]\346\275>\270\237\2742\001\010\275@\207\273\275\231\250\230\275f3\264\275=\361]=\226!\233\274\370\037\022=\024T\203\275\355\n\220\274\235\366$\273\270\265\232\274\306\025\204\275|\036U\275+\243\350\275M\002\005\276\201\022t\275z\215\037\274\253\352\016\275\335\274\344\274\027\235\010\276\334Q\252\274i\226\241\275\302\306\t\276\360\241#\276\261\327|\275\024:2\275\372\321\030\274|\014\256=\334a\344\273\0339\211=~\251\372\275?\r\007\276\213\255\226\275\257\203\244\275\235\242\203=H\273c\275\350\024\252=,k\263<\034\252t\274\321\323\003\274\313\312\346\274-L\373\275\301\372\021\276\330\007|\275\275\014\255<V\203\302=\033\302T\273T\304$\275\3511G\275\005\357\201\275\000\026a<u\217\253\274\216?E=\202\212\027;\252\224\377\274\2405\365\274\205\275Y\274\2754\026\275\376\227\343\275\370\362 =dy\036=[\270\300;\275a\267\275\3351\250\274\246\022\317\274\002W9\275\270l\205\275\214\233\375\274\2633\235\273\3021\345\273k\315\253=6\010\263\274\231}\363\274\375\304\251=H\364&<\245p\247\273g\364\223<0\361\341=K\245B\274p*\004\275nJ\014\275\213+\215\274\023N\013\276nx\300\274\033\033e=l\377\204\273\207\213@\275\205\215\206\275\264h\273<l\346\023\275\352\326M\275\214\t_\275\005\003\002>\347\004z\275\222\233\253\275o=\361\275-\244\322\275|\222\266\274\035zb=\263\331\253\273\273x>=\230\367\237\275\305\235\364\27542\314\275\346k\331\2765\2044\275\206j\211\275V\003\001\275\005\317\346;\274\271\276\275\303\r\355\275\270\030\023\276}.\266\276vs_\275\256\267\032\275\360\003\347\2751\200\344\276\030\t\351\275;\'\373\274\276\354\003\276\272\014\035\276\013(*\275\324\257g\276h\272\007\275\227&R\274{0\251:\340\272j\275\330w[\275\363s\232\274\220A\246<\3124\215;\237!s>s\336\003\276\361r*\276^\246\003\276\350\256\216\275\210C\361\275\355U\025\273z\213\355\274\206 \272\275\035\337\373\275@\033\363\276AW-<C\237\227\275KB\223\274I\n1\276d\017\006<u\'>\275\0268-\275\264\271\365\275\236\"9=\001!\026\2752\303\231\276\3745B\276\223\252\245\276\376\036%\274\301+\246\275}\022\261\275V\330r<%\327\007\276\320(\333\273\315!\231\275\227Lb\274!\000\305=,w\244;\331l\211\275\235*\327\275\233\026\236\274\356r\203\276`\325\356<\357#\347\276g\216t\275\315\026P\275mi\244\276\303\276\307\275ea\037\276\250\022\330\276\005\341\006\274\207O\020\277\242z\210\274\214I\025\277`$8>\334\242\203\276\201\260\304\275\014\232\217\276\030\310\375\274\'\217\313\276\220\376\253\276\314\330\266\276a\302\004\301`\007\225\275\r\3745\272n\241\233\276\006~\251\275,\333\307\275i\302\035\277a\230\010>\260H5\271\203\031,\275\347\305\005\276V\035\274\275\207\334I<L \275\2741\241\351\275\326\270\312\275\377\324\335=\252yb\274\"#\213\275\2229>\272\205\335\331\273\271c*\275\241\305\275\274\250\034\024\275p\014\003\276\215nK<\331L\002\275\014\220P\275\032H\005=\274\003[\273\037v\n=\226\215b\2746\346\223\275e/\007;\205O\205\275\035\301H\274\257i\276\275*\322c\274\257\252\031>\356&;\274\363\314\234\275\260\216\265<\027G\246\275\246,\003\274\277\033\206=Uc\022<\333\016\275;\003\371\243\275J\377\271\275\344,\366\274\362\322\241\275\033F\273;\303\034\230=O\3255\275\273\233\004\276\271\307\205\272@q\257\275\001\247+\275\271\324\360\275\332p$\275\264C\366<\300\251\273\274\205U\330\274\033\222\206\275\354\373\227=\345\024\014\276C\307G\274\016\037\017\276\257;\341:$\274\237\275K\214i=\t\347>=-yT\276\002~U\276\253\'\257\275\251\214\003\277\371\261\206\276-\332\327\276[\346\006\276\037\360\277\275\013C\341\276\210.\374\275kb&\276F\207u\276d\323\305\275F\336\362\2753\343\t\276\227\004\217>y\320\253\275\033I\207\276\354\273\356\276\354\364R\276\023\341\237\276XW\206\276\373\254\275\276\367\363\345\276\215\374\370=\200g\364\275\177\246\333\275\233?\245\276\231\217\000\276\301P\361\276\t\233<\276L\030\262\275\364\210\240\275[<y;\000\022\226<\273R\003=\210\332#\274\333b\326\275\rt\234\274\371\275$\275\234\200d\274\355\226\321:\227\\\037\275Q\341\007\276\342\327Y\275\267\035\216\275\002Q\206\275Z\021\310=\206L@\275\373-\017\276[d\337;^\353\377\275I\213K=)W=\275/\346\t=\302\264\013\275\261\026\035\274~\216\267<?\306U\275$<t\274\201\033\325\275\\\367\216\275.\304\024\275\317\3000\275\263\235R<P\255\017\275(g7<R\320\205\276\265{\200=pq\247\275K^\371\274ZN\r\276\206>\315=PH=\275\017\261\316=r\330\335\275;\231\263\274\365Q\257\275/M\227\275>g`>]A.<\313\233\330\273\350*\245\275\316l\022\275B\026\342\273\275A\255\2751\275\244=6\216\014\275\177Y\322\274\3039\207\275y5\004\276\355Y\331;A\270\007\275\313\334S=!\246\266=\371W\357\274\336\024\340<\312Aj\275\316\304\370\275\231\343\234=.\274&\275\013\362\276\275G\001\003\274\253\010\230<\031\322\007<\260v\227\274(\356\222\275\327\274\r\276\225t\227\275\251z=\275\3542&\275\2646\303=C\244}\275mg\206<\262\254\230\275\255\354\345\274\331\244\255<\245\261\317\275g8\364\275\247\376\245\2742\352l\275\274=\206\275nW\230\275\031r(\274\006\361*\275\362\210\236<,\216\007=\271\207\016\276pt\235=S\254\221=\360\306B\275\230m\374\274\265\221\212=\311I\356\275u<\353\275\343\243\037\275\335\234\374<\334\230\030\275v$\022\275\005\212\322\275r$\335=n\220\005\274\371\224\337\275S7,\275\345\t8\2759\245z\275\353\304\303=\337SF<<\315\023=\334AO\275rB\240=\360\221\035>\265#\331\274\037\271k<\233#\262\275c\205v\275\002\266\264<\361J\013=\255n\222=\037x\350;\361\371\244\275\332*\273;\376R\362;\2673\252>\374+\365\275\262y\211<@:w\275\002\257\032\274V~\262\275\n/\243\2750\361G\275\303\262?<\244\332L\275\232\t\020\274\322\032\337\275\037\333\202\276\037\216\315\275\303C2\275\252\356 \276\253/\352\275\337\223\336;z\273\250\275\006X\327<\246\267><\227$}\275\262t\r\276\312\315{\274\013]\322\275\007\254\017\276\nO\213=@!\214\275/\306\332=\333\312-\274\240\017-\275\035\303\246\276\223%\350\2761\213\210\276Oq\303\275\'>\246\273\336\032\367\275\264\327A\277\360\024\017\275h\327\324\275\274\235\277\276r7k\274\362m\310\276}\221\264\274S\034\003<T\214\265\276\035k\267\276\257}\236\275\026\233w\276\016\343\024\276^\201\217\276\364X\321\275+Y\353\276S2\037\274\240\245!\275\215\260s\276\204\245=\275\372\346\032\275(a\010\276\rtL\276\261\2748\273 \327\271\275\220\332\237\275\331p\323\275E\235\251\274\364\310q\274\007\251;\275\263|\236\275\020\025\017\276\374yP;\222Z\251\275\214#\010\275\307\264&<\330U\221<~\003\307\274\373n\253\2754\017\007\275X\002\301\275\342\312\231\273\023S\020\276$\347\316\275G\364\347<\266\004\243\275*\340\270\274\020\225$\275\266\334$\275\302\316v\275[\322;\275\233\032\014\276\330\031\326\275\334\312\020\275~z ;eE\247=\0264S\275e\304=\275\365`\264\274\243\310\020=MH\276\275\311\315\032\275\026\206\340\275J\n\275\2721\342\304=\242\312\305\275RdN\275\311\243\006\275\210\273\026=\322\005\326\275\2255\223<\223^4>\2513\365\275\006\255\315\275\330\217_;\004&\241\2758&\314=\315L\215\275\273\232\234\275&%\312=\261\226q=\263\221c\275\030\206;=d\016Y\275O\370\355\275`\301^:\017(\261<x\225g\274\004\233\021;\313j?=7\217\036<\334\335U=\3279k=L\213\350\275\232\001\350\275u\356\235<H\027:;\261\367\200;%R\r<d\361\264\275\013\257\201=\256\362\r<\334\366\201<J\026.=\234\255\020\276\247=\366\275x\326\336\274O\235w\275\347+\036\274\206\r\010\275}\333\235=\355#!>\345?J=\276\216\272\275\234\246\024\276v\306\216\275\373\246\037;{\316\273\274\203\024\006;\332c\'\275\024\271\202\272.\357O=\304\265\'\275\017$\243=\247\316\225\275W\225\265\275\302\017\007\276Jl\357\275x\276\363;>\t\017\276\352\247\177\2751:\277\275\277_E=y?\010\276\"&\025\275\'\227\337;j\337,\274x\377\203\275[\302\373\2740!-\275S\014!=\322\356\265\275\017h\207=\345\006\205<\354&G=\353\035\001\276\346z\023\275\226\227\007\276\224a\306\275\373\035(=\034\n/\275\365\333)\275B\332S\275D\343)=o\234\007\276\321\353k\276\326\215\255\275\333,\342;\264\3661\274\366\316\260\274a$\233=\236\325\231\275\365\240\352\274\nG\342\275\002\204r\275qit\275\320\200\317\275\311B\275<\326n`\275\230\233+\275\367\227 <G\013\222\274\355\344\272<\'\263 \274&\350\250\275\324\000\237=\335\366\223\274\367\321\306\275\265\345\340\275`EV\2759$\245\275R[{\275\317\001\374\274m\316z\275\273\277\217\273n0\256=1c\240<\350\275\225<+\302I=\3275%<\177\261\231\275\275y{\275&\273\021\274\375\232\030;,\276\324\273*\360\326\275\231[\326\274p\363\310\2756\325\320:uP\252=%!\007\276%\312\255\275\216\343E\275\315\374\000\276\010\021\256\274\031\033\202<\374\3572=4U\246=\264\312\026=\210\016\312\275\251\004\357\275\333\361\211\275%w\220\2759\276Q<T\325\207=PDt\275I\313\234\273\241\225\362\275\373x\003\276\031\017\305<D\213\363\275\2014\013\276s\364d\274\216\362\246\275\007\331\333\275\371\226\360\275\030\320\226\275\317YV\275N\234\251\275\254\216\006\276\215\003\241\275\216)\347=}-\265<nl\003\275w\324\013\276\305$\252\274\357!\253=\373\217\350\275\274{f\274B>_\275\\\035\255=r`\001\276\211\036?\275,\264\351::?\324\275\266\202\252=\020\252~\275Q+\003=\322\277\225\275\0171\373\275\355\201\243<\273\304\177\275x\"\003\275\215\021\274\274X\374\304\275\263\360\330\275\304H\216\275K\3532<\364\023\357\275\030Z\034\275\266*\026=\006\247\006\276\274\372(\275\234i\347=<\365n\275\351c\033\275\230\354\024\276=\334\337\275j\005Q\275\223\271\322\2750\374\025<\210\036p\275n4\214;\334\302\256\275Q\204\325\275\326h\t\276\242\206\017\276\231\000\024=\032\204\220\274C99\274\206\0244=\271<l\275%\321\274\275*\310+\275p\\\210\274\026\263\353\275(\027\362\275\206G\215\275<E\342;1\207\266\273\260yM\275\234\3475\275z\267\214\274\352\326v<@i\005<\371(\014\275l\336\256\275\004\230\247;\234*\007\275\371(\255\273\216\352\221<\367Q\336\275`\353N=V\213\351=9\2256\275\016\316\332\275Y\304`\275\330\337\344\275\357eK<\036\320X\275\320y|<\213\227\031<x\343q\275c\013\004<\205c\331\275\236\235S\276L\032\321<\tJ\275\275j\302N\275\013\026e\275\262\363\366\275w\242\243\274\222\256+\276+3\025<h\034\273\275s\310\317\275:N\226\274\345\334\016\276\2546f\275\0025\254\275\372\223\331\275\232\\\006\276\265\316K\276\234\267p\274\315.\316\275!\221\254<w\016\006\276\375\240R\274I8\240\275\271u\204\275\230\255\236\275\343X8;\356z\001\276\332\271u\275\232T+=Y\244\203<\034\310\241<\025a\353<\005\275\351=\236\313\001\276\024o\n\275P1h<\341\273\\\274\020\234\375\275\327:\034=~>\004\276Y5c;G>\231\275\206d\367\275\250\306D=\215 {\275\305\310\217\275>\000:\275\3353\270\274\017t\313=\005J\244\2752\033\207=\025s\014>/\253\253=j\032\362\274#\311\177\275 bv\275)\312\006\276\030\366\032\275\243\213a\272\211\333\377<D\214\262=N:\230<\005/\021\275\232\355p=>\351\001>\370%s\275\tV\347\274\230]\230\275\314XQ;\255\217\2379\227\266\203\274\037g\231\275\200\275\304\274\315E\207\274\305r\235\275/l\233\274\224J\235<_\014\213\275!yo\275\211\373\203\275=\207\367;\036\027\000\275\363\267\217\274\320~\315=i\371?\275\361F\334\275i\201B\275\372\007p\275Yh\354\2727L\313<\313\351\313\274M\273\214=P!\006=\004\375`\275\342\351\325\275\253r\235<\303c6\275\r\224\216;\006\231R\275\020\206\215;\266;\300\273z\266\004\275p\275\200\274\246\354\207\275b]\320:\210\367\310\275\251\370\":q\324\262\274\311\255\303\275\214>\005\276\253\357\205\275c\034\227<\266\013\343=^\314\304:\254\n\030=\037A\231=\235\372\210\274\364c\243;\364)\371\274\222\222\341\275+\215i\274\274\320\022=\006\246\001>\371zg=\226I^=F\222\212\273m\245\247\274\361\222\365<ni\262<%@\353\275k\366B\275\006\004x\275\215[]=\272\374w\275\002]q=Yl\327\275G\375\242<\0269\214:\211y\363\275\313\031J=:^\357\275\245F\203\275(\371\215=@\275\253\275/\\\026<s\310\301\273\221\177\024\274\020\275\004>\007\021\217\275\000\353\264\275\003\034\r\276\236\251\203\274b\350\273;\0009\001\2753\365\267<\267\326\205:[\301l\275G\017\027\275\032\375\215\274\322*\271\275T\357\224<\240\321s\275}\211h\275\306.\246\275\017\300\354\275\356\367\037\273\213l\320\2751\351\311\276Y\303\t\276\267\034\337\275\307\222b\275\341s-\276\2565\262\275\336f#<gW#\276L1\237\275\277\203\357\275B\372\224\275l\222:\275\221\232I\275\273\021\216\275\3650\332\275\353\263\363\27524%\275\330\n\227\275\324\177=\276j\261%\276\356V\233\275\265\205\235\275\206\345\206\275\252\356\214\275\020\020\235=\236\307\207=\314k\021\276\272\257\001\276\t<5\274&v\305\274G\322\266\273\344\304\265\275\235B\277\276K\243;\275\262\246\004\276\206\337\333\274\325\320\241\275\\\271\005\276v\232\303\274K\356Z\274\346Q\301\275\243\007>=k\267\023\275Y\276\004=\235 \241\275\243\277b\275\250\030\215\275;l\264\275\251\303\303\275\335\231g\275\306\276\210<\333/#=\376\014\311\274?\306\203<\316\2336=7\r\202\275g<\246\275u\305D=\303q\020\276\253J\004;\344\321/<\231\211\240\276\272\010\275\275k\215g;\034\2756\275L`,\275\013\nc\275\001\252\003\276\003L\247>Z\177\007\276\332\344\231\275\322\341I\275\211\234\315\275Z\025\023\275a\335\t\276\212\357\031\275b\250\001=x\177\300\274\253j$\274M\217\003\276n\256\211\275\320z\201\275s\013\212\273\367\204\220=?\257\273\275\017\273E\272W\300\274\275<\336\023<\340\263\245=\334X\342\274e*\220\275\272O\261\275v\241=\275\361t\037\275v\027n<\2404\023\276\223\345\262<\001\245K=\270\214t\275\202\005\r\2766\302\251=t\022\333\275\017\034\022\276\233\317\030\276\334\000\"\275l\354+\273l\366\372\275\216{\306\274\201\254\217\273\304\253\244\273o(\216\274(\t\021\276\033\243\334\275\365Y\327\275\367\016q\275\353\316\267\275\036\331\366\273\213\356\314;+\261\000\275\260\tW\275\341\311\246\274\034c\331;A/\353\275\232*w\275<\3367\275\034\030\274=\301\177L\275\216\306\326\274\020Z\274<\307G\331\274\246V\213\275\r\231\370\2757\252\205=\264\312\371\275\345RS\274\340\353|;fPR\275x)\227=\340\273\334\275\013\222\274\274\nn*\274m\014\034=h\016\223\275|$\323\275\203\331\034\2752j\327\275-\320l\275tc\250<\000Ob\274\256\r\206\273\346 7\2730\212\213\275\373\336\376\2734\211\000\276\300n\227\275\210\361\322\275\332Z\232\275\265o\222\274\355\236P\275#\354\241\275[wI:\233y+\275*E\017\276\200\207\307\275LE\031\274\004x\327\275\014\000\346\274\234X\322\275\335\300\226\274\346v\211\275A\354\010\276\224\312\250\273\315|\367=\324\026\261\275n\274\217\275\216\232\364\275\340\363U;&@n\275X\234f=@\005\035=\212\204\'=\236\027/\2763\257\211\274\034\223=\275\340\260\217\276\261\276\334\275\304n\206\274\374\\\311\275\353#\314\275\307\014\326\275\306\000\310\275!\277\014\276\000\271\273\275\014DQ\275\035\213\204\274\263J\003\276\326\177X\276i\235\235<\334\216\014\275\r\255`\275\014\324\201\274XUs\276\330O\001\276\303\212J\276xg)\275\343\260J\276:i\342\275\020>\210=\247\262\335\275\206\005:<k\300\231=\340\001:\276a\323*\276\005\223\266\275\360\366\364<)Rh\275\203b8<9#\'\274\214\302\311\275\300\211\003\276\302b\007\275k\013\006\276F\262\005\275\315\322\221\275\316[\033\275\305\037\220\275\351;\313\275\n\217\372\275\254}\375\2735\032\000\275\371A0\275\322\372\344\275\013\362\265\274\035I\212=k\353\027\274W\357\000=\'\313#=\'p\026\273\267\020^\275kk\270\275\251C\n\274_\335\353\275\006\260\345<\302\265\036\2755\026W\275\242\2267\275\371)\324\275Dve\275\215\313K\275\377\030e\272Sm\336\275\304\006\230\275c\035\222\274Z[\003\276\262|\313\275\351\375\311\275\205\314\270\275\007\tO=\345F\037\275}m\317\275\357!\211\273\254\203\321\275\330\253\262\275\243\020L\275\021\216\373\275UZ)\275l\261\307\274d\264\344=\006\224\271\275\344\037\302=%e|\275\272kw\275\321\335\315\275\352\0243\2721O)=\017-`=\322)\315=\377X\275=\253m\010=1\254=\274\005\214~=\356u\214\274\336l\304\275\330\214\240\274\036\314\341\275j\200\251<\242\226\246<\025\361\005<\221\326\334:\250i\205=\270\262h\274\310\336\315\274\006`\203=\033\236E\275\032\273\273\275\235+F\275\317\327\337\2757\300\360=\234\237*\275\003Z\263;\214A\321=EWB;\356\032\244;\304a\324\275jp\273\275\3633q\275\017aB=qE\211=I\354.=#fZ=\n\343\235\274\376V\311\275\360\250<=\302\200L=U\241\217\275\350\241Z\274\225O\260\275}\300x<\245O\203\275\313!\203<\243*\010\275\303\271_=\227J\326\275\210[[\275\211|\305;\330q\241\275\201\205\331\275(\003\222\275\252\371\014\276\306\021\321=/\326\301\274\216\000e=]\366\371=\237\320U=\004\316(<s\001\361\275d\253h<\207\2216\275\t\246\2739i\002\366\273J\254f=\007\363\242\274\033\225K\275\362x=<\361!\240=\266gz\275WE\357\274\274\341\341\275>\305\250\275\212\370\341<\377w\323\275\252i\215=\223a\343\274\027\200\324=|!\313\275J\271\005\275\306\356C=\010\247\264\275\\\325\274;l\003e\275\244\366\313\274\021\3242=]\315\306\275\302\345i\274lw\024>\205\311\201;\270\331\261\275DI\216\273\336\325W\275#]\306\275\242L\355<\276E\265\272$\372\314\273K\326\256=\266Q\2778\345:\020\276\3338$\275\327\267H=W~\304\275\3440\250\275y\016\246\275\270\316\225\274\347`\220\274\0217i<sd\302\275p\330\262;+ \341\274\266\304\214;q\032G=\252\301\304\275s\214\335\275\026\267\024=\325\304\221\275z\200\276={:\t\276L\3550\275\226_\275=\271\361\254=H`\241\275Z\000a\273\314K\350\274y\241\305\274\201\341\236\275{\n\310\272\313#R\275\320\307[\275&X\033\275\255>\260<\200w\272\275A\372\270=\207:\010\276\303\347\005\276&\t\241\274R|v=\271\342\222\275\200\353\232<IH\200\275\001&\234\275s\2324\275\365\274\014\276.\356\241\273\315v>\275\006\310\013\276\274\323.\274qM\210\275#Y\354\275\244\363\231\274\370jz<\265\324\236=\317\327A\274\242z\320;\303\305\263\275\314\275\253\275\317-\014\275\204\002J\275\306?\201=\301\014f\274K\231B\274x\277\330\275H\340\330\273yAO=n\003\313\274\240\360\277\275\255\005\371\275\233\347\354\274\352\211\270\274\025.\342\275\006\213L;\344\360\267\274\360<2=\263G\366\2757\031*<\021\372\360\2740\343\003\276\277\275\020\276\355C\331\273c\332\216\275\3662\265=\350\200\026\275DO\247=\365\007L=l\331Q=\263_\205\275\335I\235\275b\367\221<vX=\275Wq+\275\351\021[\275\007T\013=\355\255I\273c\340`\275-\224y\275\362_3\273\264\\\375\275\327\333\347\275Qm\364\275\274\313P\275\353\'q;\374\260\213\275\264P\035\275\005&N\275yt\330\275\262\273\321\275F\357E\275\036k\004\275\267-\202<w\022\234\2759\007K\274\347f\213\272Q\227\356\274h\032\254\275\341N{<\304\262\200=\017\275\332<\007\356\001\276-\t\360\275\356p\214\274\327CZ\27511-\275.]/=\025d\000<\214\327\223\275k\260\265\275I<\377\275\316\326\226\276\267W\243<\205\274\257\2751C\226\273gO\355\275\036\022\322\276\036\255\261\274\336\370\274\275\300\303o\275\277M\264\275\233\324g;u\377\252\275\225/\257=Dh\033\275y{\376\275A_\021\275bj\214\275\344C\000\276|\315]\275C\375\017\275\272\361\230\275k\347\227\275b\220s\275\375\226\265\274\2371\365:8V\366\275A\224\022\276K\214\256\275\367E\016\276\0340\001\276\330\220\277\274\373\201]:\025\2474\275\203T\207\275\227k\302\275\022F\377\274\316\2527\275\220T\372\275\377Bt\275\276\341\035\275\315H\302:\013k+:\177\347\302\275PS\232\275v!\321<\313\n\220\274\305q\026\275\276F\004\276\001\323\262\275\256\031\261=\374\355N\275\010\377\231<\211\263\201=\027\324\"\275t\003\231\275\001\005\317\275\203\326\013\276\277\245\225\275\210%.\274?\331\017= j\220<\363\325@\276\327\206\225\2762t\222\276V7\222\2763\353\221\276Jp\230\276 \333:\275\265S$\276\032\335\334\276]<3\276\004\362\324\275\034\317\263\276\005\262\006\276Ig\271\275\350\346\005\276\024\013X=\201t\370\275\255\221)\276\266N\020\276\277\035\200\276;\216\312\275\314#\203\276B\006\032\276\031\241\246\276TP\002\301\014\016\225\275^\337\263\275\370\304\265\276\316\302\310\276\t\025\306\276\363&~\276(\002\375\275\310\314\2609)\224\226\272\305&:\276\310\005Z\277@\327\017\276\322\347\314\275\024\177|;\317IB\274F\265\307\276&\311\004\276\034\350\241\275\263\251\266\275^w\024=\221\204\262\275\\$\351\273\241&b\276R\002\316\276\315?\232\275\343E%\274\362l\277\275\314\245\354<V\002\032\275\3629\270\275\213\033\337\275\213\373==\242\3663\274nQ\013\275\245\210*\275#x\316\275\327]\242=\311F\211\274\'\360\245\275z\210\005\275\277\363Z\275\357H\022\276\350\030\223=\320\034\315\275\230\301\332\275\006*\222\275\302\207\375\275t\332\263=r%\027\274\343\3738=\275\355\234<\244\327\023\275\317J\314\274;\266\000\275\3327\370\274,\364\302\274{\343\221\275y0\262=\301\205\204<\017\226\240=\374\026A\275\005\301\306=\3032v=\214\246\260\275\234\217\263<m\364#\274\355CM\274\304\265\346\275\252\300\377;\3030\335=\215\360)<\357\336x\275bE\033\275\3618\220\275\366\004h\276\202 \261\2759\320\324\274\3444\346\275\342\300\232\274\n\'\261\275\201\255\016\276\246I\322\275\313Y\242\275\355l\263\274\013\376\202\275*\352\001\276NRu=U\353\334\275x\347Y\275\254l\211\275#\031\270<\032\356<\276Uv\237\275\340\3531\276\252\302\370\275\215\034\017\275\224\335\315\274\352\251Q\275)\225J\275w\003\000\276\206._\276\356\n\200\276\2243\224\275\341L\r\276\204\323\346\2753-\004\2762\343\017\275\014D\317\275\247\332\266\275\223\346r\275\252C\346\274\315\273C\275\256\375\361\275LJ\024\276\202\\}\273\3729\367\275\231\320|\274\375\327d\275S6\317\274u:\t\276\367p\355\275m \021\276\252\303S\273\241@\377<\204mn<2\254g=\302\324\205\2759\362z=\337C\266\275y\263>\275\347\037\352\275\277\350\001\276\352\335u\275\334*i;\266tZ\275\315\340P\274\335\345k=\332_\364\275X\376\212=\323\003\001\276\021\352\255\275\273\260\234\275\370-_\275\032\004\315\273\202~\336\274\023&V\274\r\317S\275\373\014\372\273\025]G<\230\005\275\275h\3772\274;m\220\2755\336\354\274\344*!=\003\177\365\275\234\251\222=!~\272<\020\177\t=V\302\330=k\351>=&\'\377\275k\305P\275 \006\302\275\'\020\326\273\021k\023=\177\300\237=cMX=\277R\254\275\277\020\250\275\201K\017\276\202\312`=\363\225\326<\025\344\211\275\227m\246\274\331\033^\275\365]X\275\264\333\030\275\357z\315\275s\261\311;#\265S\275\373\335O\275\n\244\022\276\252\177\222\275z\367\003\276\262\234\203\275H:\230\2759;\275\275Tm\213=\210+\377:N3e\275\204\0148\275\227h$=P[\323\274\222\254\351\274\263\326\230\275\234\3141\275+.S\275\264\362g=\353^\035\275\206\325#=\242\314c\272bN\220\274(\3376=\'\313F=\322\026\371\274\257\340\210\275\307\306T\275g\204\010=\3524x\275\226u\017=\320(\240\273\265\001\'\2751\322\r\276\222(\241\275=g>=\035\214\247\274j\310\320\275`\362\3469\270E\222\274\027>\317<Zh\247\274\255\210\222=q!\201=\177\335\345\274\330\204\264<)\325\017\276\345s\254\275\261I\232\275sr,=\004\277\212=\244Z2\275^\346W;\261\363\301\274`\330\343\275\265\270\312\275\236OF\274\305``\275\256%K;\367\351\005<\263\310\214<\230\271T\275\352!\241\275\321?\224\275\375\352\336\275=\214\266\275:\330\265\275\352\255\221>C\005\254\275\252~\333;\'\362\275\274\001nW<\t\'Y\275\240\322)<\031\3146\275\355g\330=\026\025\336\275}\221\212\275\331\355\r\276\377\276\002\275\303d\r\275*\315\354;/-\207=\331B\316\275\033$\013\276\022.\310\275\263\230\000\276U\005\307=\276\026\351\273\335b\204;\353q\t\276\377\004\357\274q\355\257\275\373\315@\275Ud\033\276\"\352\267\275\'UX\275\024\377\234\275\2728\371\274\370Hl\276avi\275\250\272/<\222~7\275\240\273\331;>\263\321\275\367\373\\\275/~\036=i\266\271\275Y\003\230\274\365\017\016\276q\207\354;\241\207\377\274;>}\275\340\344\303<\350\305\324<\306\345\351<@\224\340=\027\276\220<\212\200\307\274D\240\311<?\304\276<{\315\236\273\365\025\"\275\374R\270\275\217\274\206<\262\255\020\276Q(\001<\"\264\360\275\214\372\004\275o\246\336\274\356\335\247\274\270\335\232\274\217;\272\275\247\027\204<\211p\236\275\362\253\352\275\363J\252=\034\306\010\274\256\nz=\261\356\003>\351-\201\275\213R\031\274c\2148\275\373\267\363\275W\364\361\275\255\037\211\275R\247\372\2742\311\226=B9\306\275\027z!<\\\213\006\276(\374\206;\\a\013\276E2\251\276\347\241\203\275\365\037)\275\356\n\327\275#Uz\275\031\263\371\275\346\300\216\276\273\337\344\275o\333\360\275\363\350\330\275\314\354\321\274\313F\342\275\026\275\217\276T\223\005\276\274;\024\275\223\261\272\275[\321@\275}]\351\274~NC=\355\r\322\275z\217\256\275\37038\274U\267\237\276(\372\205\275\317\000y\275\217v\327<P\335\037=\230D\377=\016\203\363<\370\007\261<\250\334==\325\223\254\274\303\370\247\275\221\313\257\275\257\327\310\275\217\321\350\273\334v\330\275\244\r\333=\007T\340;\206\037\356=\301\3063\275\256&\230\275\"\257\036=-\366\021\275\373\210\256\275\267\031S=\241\025\207\273\332\203z=\230\003\317\275\341\\\231<Is\014>6!\204\273~yp<\354\007\251\275Wo\202\275v\240\373\2756(h\275\270\347!\274\232\234,\275\310`\261\274f\323r\275O\214\276\275\322\013e\275\270\324F=\000\252\332\275\200b\353\273*U\233;\216\323\300;\241\346\002\276\227W\251<\267\232\366\275\277w\211\275Z\264\357\2757\224\037\273L\035\000\274\361j\327\275\017\226\016\275\302\232\310\274\377\367\274\275J&\347=fbQ\275N\2321\275\345\262b<\020\033\217\275m\205\347\274A\341A\275Yw\031:\364aw\275\2339\252=<\332\220<\215^\275=\016\361\034\275\222\3329=@5\325\274\314\025\203>\356\273:=\177f\241\275\317n\222\275\337\310\262\275IV\267\276\311s\227;\207\361\313\275\032\267\334\274\267\025\365\274\351@\246\275Q\027N\275\226~\004\276q\331\244\275\274\366P\275\021\256\232\275\245Vd\275\275q\211=\370\033\320\275,]\204\276\251\234U=7\267\231=\362\034\302\274gV\017\276h2M<Z\216\276\275\n\357A\275b,\037\275\331\321\002\275\2027/=v\302\235\273\234\027\004\276\321>\007=\360\316\245=\3420\034<>\0373\275>\305\207\275\352\350\013=;Nj\275<\363N=nJ\210\274\027\203\341=z\350$;S\344\311;\201\327\036=\257\347\006\273w\230\007<\216\360\t\2751\327\244\275\371\r19,M\224\275/\304\333=0F\n>/]\214=p\206\245\275\016\'\210\2752eb\275\316\243\271\273\301?\255<\203\255\002>\313\022\031\275\261\261\016=\302\266y\275\226P@\275\375\327\367=\250\'\245\274\241\351`\275\303\033\037\273\335$\251\275\313\272\364\274vY\354\275\0143\205\275\370\005\031\273\327$/\275\317d\007\276\247\320\317\275j\372B>\215q\240\275\326\001\340\273\333x\024=\306\267/\275\010\273V>\316+\032\273iE\201=\325\243N\275&\331)\275CYE\275\335\331p\274\321M9\275l\317\333\275\0074\370\275\225,\200\274k\025\233=\311\215\266;^J\300\275\303*\244\272\213\007\304\274R\372\r\276\257\035\024\275Q\230\026\275\264Je\275\\\326\210\273\022\2214;\307\"\366\274\223\225\360;\250&K=D\036\234\275\225Cf\275\313\311\r=\376\013\263<\207\033E\275\326S\022\275\035\305\326\275R\251\2139\373:\021\276\310\363\240=Q\240\253\275S\255r<\377k\336\275`|*\273\"\026\206<\261\252\226\275\t\177O\275\220\312G\275\240>n=ag\227=\r)\347\274$\\@<\221v\344\274d^\353\275\212 \030<\026\216\267<\335\036\264\275\326\364==\371be<\230\215K\274\365+\033<\361\374\337<\247\0147\275g\257\307\275Q\373\023=\303\250\355\275aQr\274\001:\341\274\230a\247<C\233Y\274IG\000\276\214&\037=a2\026>\227\310\236\275\\/\031<\205 \220=\225+\006\276\270\305\206\275\335\222\361:\227\340\266\274\357\237\027=\331G\004\274h(a\275\025\006r\275[\331m\275\251\3677\275\017`)\275eWi\274\311\337\223\274\332\022\005>\004\370\324\275\216.3=\306DO\275\250\232\327=\001[I\275\276\313\325;dw\031=\275\002\300\275\017\273\257\275!\032\177=\345K\327\275b|\341<\rS\345\275\236\027\254=\205\251A:\225(\314<\365\001a<\322\344\275<\013\2604\275\376\026\035\275\003P\335\275M\033\r\274\250j\225\275\243\270a\275\204O\020\276\037\331\201\274\315/\240\276\367\301\344\274\305\301\237\276\232A\032\275[\364;\275 \245<\275\315\036l;\022\377[\274M\262\311\276\376\202\206\275\325\253\250\275\010\340\202<r\353\023@\305@\032\275\025\273\326\276_\033\226\275\207S\341\275 \273F>:R\252\276L\352\235\275\260\223\256\275/T\253\277\302\261\300\275\360\231\034\274\217\375\301\276%\273\277\274\"\216\205\276c{\032\277\263\374\'\276\244\243n\275N\027\355\275I^\203<\232\000r\2768W\360\275\207Np\275\215\304\221\274\252\031\311\275\002l)>\024\027\025\275\010d\247\275\221\206\325;\273`\305\275\225\\n\275Z\210\252\274\005\277z\275\014\207\021\276\200#\317=\232\014\020\275\322\371w\276b\366>\275]b\250\276\'\353.\276\231\262\307\275\307\310\327\275\000\020\267\275v\346\316\275\210o\375\275]k\302\275\177\305\245\276\0172\204\2751\220f\274\036vi\275J\315\305\275\177\252\253\275R}\301\277B\2613\275;m\255\276\314]\244\275:\362\200\275\305\\\266\276\374\367\266\275\035T\341\275T\027\306\276\361\316`\275\033T\263\276\364\002\016\276\006\260>\277Rdc\276\033\n\233\276\0358s\275%\177\245\276\002\202y\274\273S\261\276\217q\240\275Q\331\006?\222R\212\277\"{G\274%\207]\274\334w\236\276>h\304\275\3457\200\276\346Y\364\275\246\355r>\341\371\373<\222\016x\275eg\206\275\n\252\225=##\004\276\025\t\351\275\374\357\r\276\"\264\375\275b`\341<\037\354\344\275\315y\275<\345\2414\275\244XK=\026\334\250\274b\212\277\275\256\\\001\276@\022\272\2753 S\2750v\245\275\270\023\273\275)}\370\274Gc\r\276\3168n\275\301\342\032\276~\316T\276\331s\004<<ha\2752\370{\273m\240\276\274\224\222\215\274\347\257\201=\233T\274<!\340\275\275\245\267\017\275\250\277\217\275\242\275\331=\211\261S\275\'\374\226\274<\210\254\275\247r\220\275Cb\364;\260p\205\275\255\200\r=\215C\033\275\364\374\377<BV\247\274\234\313\274\275\302\354\277=w)\202\275\222\277\000\276[\247F=\267b\276\275\202\206j=jF\252\274\353\270\t\275<\316G=\237\016\271\274ha\253<4\372\205\274K\357\351\2750N\255\275\211\005\305\275\023\245+\275\365\306\231<\022l+\276\305\254\213\276\356\250\264\276(g\252\276&\031\t\276\364\014\252\276\006!\316\275\034\342\233\275\004\313\026\276\267\016\300\275\016/m\275\"\244I\276\362w:\275\314\246\264\275\0042W\275\013\226\204=l\367a\276\366[\244\276l\237K\2761\274\215\274\024\334\321\275\270\254\003\2766\232\244\276\223\262\256\275e\033\366\276HA\031\276+\304\303\275\276\256\211\2760\353\265\275\020\036\240\276t\370T\274\014l\367\275\366\356\210\275\361v\263\273\014DC\275Z\r\204=\321\325\245<Jw\013\276bp\377\275\336\336\324\275\201\013\344\275\270\351\260\275\3467\003\275\2124\236;*B\000\275S\252}<\237<\002\276\352\264\253<\033\017\356\275\360q\323\273\337\240\222\275\033\304\342\275\322\263\257=\273\254\347\275\n:\315=\330\336\214<f~==jA\326\275\031p\201\275Ly\216\275\225\367\260\274\255\263\332\275`\207,<k\3717=\271\034\333=\036\273\021\275\270A\001\276/\n\223\276e\242\372\275\330\352\016\275\235\371\256\275\336\216\304;\313\320\377<\221\013\270<\203\243\255;\n\207 \275Zg\256<Dd\361\273z\314\003\276\305fC>\233\344#\275ay\301\275\332\243h6\035\324\202<^\362,=\347s\374\275\310\204\024\275\336\321\010\275\350\277k>(\331\247\273\365(O\275\237uM<\240C\217<\2360\t\275\341\236\310<O\264(;\tTj\275\371#\022\274\22619;x\341\370\274\335\2622\275W\3744<D\\T\275\212\r!\275\276\366f;!U\326\275\240k\243\275?\255\000\274\033\2112\274D\345p\275\360\025!\275\331\330U>\037\357\245:M\3611\275\'x5\275\"\013\342\275\371M\361<\036\227\226\275OG\002\276\\\216\000<(\242I<aB\023\275\010\212\245=8\031\354\275M\315Y\275\331%\203<\254\036\222<\303\031\214:k\233\347=\205\362#\275\354\253\362\274\307\006\205=\316\224\004\276\311 \314\275\374c\342\275py\213\274\2314\367=\370\215\305\275\215I\226<g\222\370\275\266\244\307=\031t\255\275\262lQ\275G;A\274v\211\212\275Mk\314\274>Z\266=\321\n\253;q\331\217=\203\353\225<$\305\234=*y\260<\322?\313;\304\301\303\274\2227\356;\210Y\002\275\337\315\213\2759\363\016\275\013P{=\340I==\001\255\365\273\006\234\340\275p\377\272\274\030\026\204>t\310e\275\3072%\275\257\333\235\275 \227\032\275\250\316};\205g>\275 \370\265\275\002\006\265\275\273\210\355\275\206.-\275\365V8\275\264\246\213\276\366\214\277\275|\212\205\275u\350\371:hT\242\275\231\302\013=.\271\222\275\245\216z<<\rR=\317+\250\276\"9\312\272,f\254\275\316\353i\275\256\207\303\275\350.c\275\253Y\340<\004\245\230;\037\246\357\274G\320\203\2750\033\261\276O\037\025\300\325\037\r\275\370\322/\2753\026\262\275\036\224\013<\301\344\016\277\225\007!\276%\224\013\276\n\322,\277k\020\342\275\003\r\337\276\355\232\233\275\367\266\201\274K\241\313\276\244 \233\276\2733$\276\316?\313\276ZZ\230\276,\360\305\276E1\031\276\026~\357\276\271\366c\276\232\230\347\275>-=\273\337\317\342\275\324\274\020\276]\3774\276\325\213[\277\025uP\276:\240\235\274<\252\000\276\306\336\202\275\006\013V=UGj\275C\000\215<^\306\311\275\004z\344\273a\215\227\275w\325\303\275\335\376\022\275z:d\275;\232\004\276\030z\016\275B\370\256\2756\366\007<Q\302\202\274\353u\245\275p+\000\276JF\377\275\253\036\037=\r3W\275\375%H\275\005&\276\274\177\2024=\213\014\307\275a\312\035=s\017\234\275\271\311\224\275\221\226A\275+\237\020=\232\304\005\275\004c\261\274[_@<\337\266\263\274\340\252C<\302a\242\275\3070\267\275F\013\016\276K \233\275:\037K<\3327\257\275\350\301\001<k\207\021\276>`B\274,nY\275TW\315;\007*\"=\314\206\323\275JT1<sl\334<\021\263\025<\035\262\203\27412\302\275\231\372\331<g\266\010>\377\211\205\275\3106<\272\212\033\n=\216\2434\275\307\\\207\275N\327u\275\356\274\242=0\310\302\273\212J\203;\367I\215\274}W%<8\000\2628\210g\273<]\253|\275\225@\001\276\277\310\274\275\236\340\262\273\325lk\275\007\313\005\275O\247\255\2751M\306=Y\332\004\276v\367>\275\205\205\246=\373\204\367;/X\331\273\334C\251=\264\210\363\274%Rs=\200:t\275\353l\335=\016}\300=n}\222;\010\260\030<3\331\004\275>3\241\275\001\033\276\273j\352\3678\351m\002\274b\237\260=?*%\275\006\036\200\275\332\235\t\274\303\r\225=\273u\351\275\022r\271\275\317\321/\275XO\021\276 \270\302\273n\311\273\275\210\217X\274\263\322\221\275\277\'\016<\217j\333\2759\215\334\275>t\360<\214\223\354\273\353\260\003\276\242\2510=\272\371\273<\031\335\216=F\266\265\275\026\007\007\275\241MH=\264\300\270\275\252E\367\274uF\033=b\036\257<\2179D;\013K\235\274\007\221\234=W\030\250\275\032\203\250=\240`\"\275\002\245w\274\305\310?\276q\325\331\275b\245\311\275\276\333\306\275\231\315-<\363u&=\226\313Y\275\351\254\020\275\263\004?\275h\326\312<Ji\024\275\013\326\213<E\023\036;Q\002\270\275\227\376c<\335Q\206<?O\021\276E\331\202\275\313\251\227<a\276X\275#)\177=\237)\023<^\372\200<\004\'\177\275\342%k\275\030<?\275~#\261\275\030\230\004\274,y\255\275g\231\362<\201^\211\275G\003\307\274x=\n\275\023t\034\274\345hz\275\256\261\222\275\262\232\335\275\035\177\275=\265\303\344\274\017#\216=\346\034\034;.\2622=\216\016\356\275o\\\314\275\324\223)=t\356\246\274h\247\333\275\315\355\215\275\350\r\016\276\2371\261=\377\373::\364\n,\275\237\327\030>\321\334\215\275\021j\203<\270 \347<\033\257\014\275\334\374\263\275\227\313\364\275\315\246\262\274&\242\233=\266\256\231;\255\244\360\275\362\034b\275\264\277\361<X\360\364\273\311\210\000\275uc\345\275\366Z1\275\230P\\\273$5\206\275\002S::\n?\r\276\342\214\356\275,P\252\275\354\'5\275\\\330(\275\366s\214;\205\303\013<\304[\330\275\0136X\275\375\2536\275\006\252e<\272]\224\275\303Y\305\275\225\371\235\274\325y\330\274\002\370\230\275\230\243\376\275\001\220s\275k\335\332\274J\337\242\275>\324\035;\000\272\017\275\315\037\277<(`\014\275\t\036k\275bc\252\275\033\202\230<5\255i\275Q\031I\275\341\216\317:;\211\273\275Qt\000\276,