node {
  name: "NCHW_output/perm"
  op: "Const"
  attr {
    key: "dtype"
    value {
      type: DT_INT32
    }
  }
  attr {
    key: "value"
    value {
      tensor {
        dtype: DT_INT32
        tensor_shape {
          dim {
            size: 4
          }
        }
        tensor_content: "\000\000\000\000\003\000\000\000\001\000\000\000\002\000\000\000"
      }
    }
  }
}
node {
  name: "b3"
  op: "Const"
  attr {
    key: "dtype"
    value {
      type: DT_FLOAT
    }
  }
  attr {
    key: "value"
    value {
      tensor {
        dtype: DT_FLOAT
        tensor_shape {
          dim {
            size: 9
          }
        }
        tensor_content: "\216\225\227<\232\340\202<\306B\214<\205\211A<\214\365\036<\232\215-<\2172~<y6^<\301JX<"
      }
    }
  }
}
node {
  name: "b2"
  op: "Const"
  attr {
    key: "dtype"
    value {
      type: DT_FLOAT
    }
  }
  attr {
    key: "value"
    value {
      tensor {
        dtype: DT_FLOAT
        tensor_shape {
          dim {
            size: 32
          }
        }
        tensor_content: "\240\237#=\234\'\256<\204\237#=0(\351<\340\236#=b\265$=\310\235#=\303\235#=\225M=\2745\243#=W\241#=\271\235#=\272\235#=\366[!=\316gf=#\027y=v\236#=\277tV>Y\247#=\3140G>\345\235#=@\016\207\277\306(\240\277\356:\027=\332\236#=.T\021\276\341\235#=`\014m\275/\236#=\266\331Y=\254\236#=v}w="
      }
    }
  }
}
node {
  name: "b1"
  op: "Const"
  attr {
    key: "dtype"
    value {
      type: DT_FLOAT
    }
  }
  attr {
    key: "value"
    value {
      tensor {
        dtype: DT_FLOAT
        tensor_shape {
          dim {
            size: 64
          }
        }
        tensor_content: "p\341\215\277\247\030K\271A\330\310\275\255\312\235\274\262%\302\274\245\220\374\274L\233\375\276}\372\003=\310\222\\\276s\311\342\275\206\007\333>\343\272\003\275\024;\214>\002\003\346\2744\347\016\275z\315\361\270ThF\275\232G$\277\325\347O\277\260\t\247>y\375\003\275\206\201\333\274\244\301\203\273/`\364>/h\310\274S\354\301\274X\377\311=\334\221Q\270\255\2045\274#\273\272\270{\"\342\274\305\247\210\276U5\263\274l\266\237\274S#\265\274\321\013~<;_\310\274\365\"\253\276\026\241k\2771\037\213\276\326\374\025\276@\216\177\274t\255W\276\317p\257\274\240\025\037>n8T\274\030\255\305\274\362\277t\272s\032\205\274\351\025V=\262\035\277\273%YL\274\357\3165\275\303\353\230\274q\270\333\274^\325\251=\024\036l\274}\317\255\273\007>r\274z\235\272\275\034\277\207\274\022\327=8\003K\242\273\372g\265>"
      }
    }
  }
}
node {
  name: "f3"
  op: "Const"
  attr {
    key: "dtype"
    value {
      type: DT_FLOAT
    }
  }
  attr {
    key: "value"
    value {
      tensor {
        dtype: DT_FLOAT
        tensor_shape {
          dim {
            size: 3
          }
          dim {
            size: 3
          }
          dim {
            size: 32
          }
          dim {
            size: 9
          }
        }
        tensor_content: "g\220>\275\223\375\341\275\205g\243=\226c\306=@!5>(s\342=\227\026\025\275\320\212\034\275=F2>\224\031,\275CU\032>\362b\264\274\225<\017>\0363\330=o\345!>\202\233\023>b]\023>\257!\320=<\255\024=\307\311\201\271\255\022:>\246\2143>\313\030h\275ez8\273^S\305\274\230\272\305<\3626\022>J\347\320=\277=+\275\3751R=5\216\276<\020\365\003>r\262\026>\347\350\024>\370\316\213\271\373\033\312=\346v\323=\003-4\275k`M\275p\r\370=\343Q\014>\001\306W=\342\225\232=\353\246\255<R\"\302=\325\336\203\275?-\020>\314\265\206\275|\300\">\263\'\020=\337B>>\321Am\275\350\200\366\274\326\2272\275\200\033\215<\255ne;#q\274<\262\274h\275^\2222>\225?\213=\241X\263=\2223\207;\035|\245<\243\224\231=z6\001=\336\210\030>U\250p=\"\213\262=\212:\033\2759\233\000\275\235\247\325=u\205T=\273\254\346=U\305\302\2736k\200\2753\225B\275\276<2\275\"\363\177\275\335t\336\2728\027+>\207\320\202\274\265G\205\274\317\245\276=/HK=\244\342\237\274\206\370\211=\037!\245\273Z~\351\274\030?\347=\233A\343<\316\362\264=\036\r\001\275\316\312\305=\276\327\177=\2405`\275N*:>\007\233u\275\000\033\333\273F&-\275r%\367\274\002r2>\256\255\024\274,\232\261\274.\252\000\2752%\267;\2017[\274;fn\275\276\307\370=.\277\204\275r\351;>\005\251J<OG:\274\033\323\240=5\342\367=\006\n\207\275\221\022,>Z\272/\275\005\273\314\2741\321!=\024\025\037>T\241\246=v\274m\273\256\251}=\252/\352=\363z\211\275\006\351\204\2754d\324=\237Ey\275j6\242\275o\223\030\276,a\357=fg\217=\254\326\021\276:\267\240\275$\274\205<\"\t{<O\007\215=\216d\350\275\255\210\346\274\003\003{=\333\327\372<\216J\337;\306Mv=\251\342\036\274\371:Y\274\322\221\342=\306\010};\007\t\221<\036\024\323=C\313\224=\007\002\212\275\274\227\035>;3\007>=\336\005>$$\024<\307\2056\275@jx=Mp\263<\177qv\274h5\333<<e\246<>&/\274\252\235\353\274\021]p\274r\\\235\273\303\267\306=\353Vb=E\266\272\274\353~\206\274C\360\"\274+\247\n<{\312\226\275\237\024\330\274\3478\232:\t\244\205\274\355t\000<\016\360\231;\246\372\004\274\202l\322\273U\273$\274\227\220`=\373K\356=\376\213\305=\276P_=+\224\017\275\002I\256\272>r\355=`X\010=\223\305:\274\205\300\371\274\313iX\275\243Kv\273r\365\374\274\240\237\001\275\351\253\001<\336\351\311\274y\036X;\177\332\005=\'\266\200\274\237\224\207\275\322\016\272\275\331\343\036\275\277\345\240\274\365\230\223\274\261\322.\275Z\rj;\335/h<8&B\275\000\017\321\274\326\326\034\276\317G\017\276\364\234\234\275\365\355O<G.y\275\0031\n\276\214\200\002=\020Y\372=`W\233=\023\245_=\007\276\005\275)==>\313?\250\274\277]\352=(\373->\265\201k=\031\362\030\275\335\335\361\272HvE<I\243\315\274\214)p\273xD\013<(\306<\275\324F\t\275t\346\346\274;\251\234<\214YN\273\366\322$=\244/M\275m\370\037\274\304\343\013>;I\004>\374\366\357:\326K\316<\226\372I\275j\001\331\273\253\353\354<YI&\275M\344\330\274/W\203<\274\343\246\274\006\205\250\274\233\201\275<3\363\001>\205\304q\275w\2574>F\2102\275\357\257:=\002\370K=\315\261\264=4\363L\275\257\367\036>)\034Y=\242\020\000\276\233\241\326=g\006\313=M\005\212=p\267>=\217\314\332<L\241\320=\203:\341=\n%\327=?\363\204\275wT\342=W\300m\275\313\346\031>Gv<>\004<\362=]a\200\275\354~$\273\223\026\345=\002s\300\271\2247\t\276+\302\306=+\265~=\364\352\034=2%\340=\364L\214=\253A\034=)\364\017\275\360\251`<\326:\200=\225R6=}Zj\275\312\375\301=zn3\276\357\360~=p\234<\275\277\005\235;\006\347\211\275-\020\336=X\313\240<\244\351\354=\213\2272\275Z\2543\274B>1>\017\361\024>K*\266;nLa=;;\020>\340\177\027>\263\"m=Q\260\217=m\007\021\276\360M.\275\2063\371\274j\332\331=8%\256=\350-\360=\315\335l\2752\205\024=\035\314v\275\246u\002>s\224+>\r\273b\275\333W\335=\332o4\275\3444\203\275\\\032\262\274\n\207M=\200gh=$K\030>\262\361\302;\301\215/=(_\033=\377\377\020>D\277\302=\351K{\275M\367\245=\254\327\254=\347\3500>\3310S\275\237:_=\022!7\275f\177\004\275\016f\t\275\206\nx\274B\226\210=\000\037!=\036\020\264=\242\257\256=^R\024>a\0068\275O\302\362=\353!\033=:\315\217=T{\256=\025p>>\227\360/>nB\326\271\277\234\372=\373u\257=\332\330\005=XH\332=\213\324\037=\230F >\355A4>&\314\023>*.\220\274h|J=q\017[\275\025!\222=\367\253\375=\205\006\036=\253\026\014>lX}<\261\305\327<\254`\370=6\224\356<\337\370\245=\265\304\341:\026\020\272=5\272\307=\243Q\322=\251\226+=0d\177\275\225\211\375=\202\226S\274p\317.\275\212\222\225<\271\210\217=T\317d\275\227,\370=.\220\265\274\217\0062>\360\277\302=\204&-=\222\203\246<\033\213X\275\351\372\341\274k\251\236<\212\\\242=\371\326K\274\233\206\257\274\256i\336=\001\343\376\274Mq*>\267\351\204\275\223k\007=}\347\t\275\3128\326=\367\017\205\275\366>+>U}\202=\331\007\036>\342\300\344\272\343\277\013\275;\2032\274\323\331\370;\253O\024<=\322`=\007 \236\275\026\2769\275<\364\272\275\230B<>\221\261)=u\033\216\275>S\375\275\r\005\304\275%\201\034<\314\"\350<\340*\374\273\264o==\307\240\">\016I\035>\233\224U\274\317\360\323<\024\216\025>\307\217\266=*\2356\275S*I\275\263\2421\275\364\026<=H\215\'>z(k>\007\274*\275Il\260\273\336\272\214=ll&\275\333\356\016\275\325\363\261<*\033\r=\025\320>=\354\220\312;\334\310$>I\311\216=\277X:=q\314\030>\254{\r>V\3223>\016\354\267\272\266:\033<\360\2221\275\"\221\310:\345\307\245;+:\322\273\037\302\033<T%<<\224\204<<_\206\037=\235\330$>E^\277=G\324\023=l\226\033=\025\355\271\272;\227.>\344\1775>\215\016\224\274t\377\004>\320\005N>X^\341=\325\306\304\273\320)=<\3456\351\274\363\343\327\274\210GL\275S(\227\275\263\303B>{\017\320>S\222\001>\372\275\226=fw6>\240\213\000<\n\311\217\273.u\207\274&-L\275\213\3236\276)G\344\275\214\244\236\275k\222\251\275~H\t\27614\303;\rG9\276)%H=\273\020X=\231\260\017>\002=\016>\007\366$>jj|\275\314m\022>\371\333\237=/\017\001>0\344\375=A\316\302<\032\210\264>}\314D=y\035\311\275\257\207\203>\275A\304<s\374\224\275\205\320k=\272\243\312\275\026\301\326\275\032L\'>\331\254\">v3)=\231\020j=3\237\233=z/\374=\337\035\250\274\006\031e=v0\306<f@>>\220\215\210\274;\270\354\275x\371\357=\227 !\274\034S\227\275 \373K=\274\313\275\273D\357;\275\207\013\374<\340\2712>\331\024\211\275\227\005\235=\264\217\032\275q\2772=wR\257=a\333\177=\031W\212=\272mZ\275\232\277\377=7\024n\275MtD=GE\301\275-)\232=\324\032\214=\017^\230\274\315\327m=\030^\362<\243;\356\274\002\177\207=\234A\374\273G\256\'>w\2470<\t\367\312\274\200\276.>4[\241=\220\025\020>*X\007>\240\000\256=\236>\007\274\271\356F=A\253\\\275\262\216\201=<4\254\275\016\231\356:{\006\332<\004\351\000>\324M.>\333\377n<\020\314!>\360\372\350=v?\202=\322I\360=W\032\337=\250\324\272=\365&7>2P\371\274\214i\014\275\311\n\001>\264\2474>\270z\030>m[\004\275\031\001 >\221\021\260\273,_\034\275]\256\306\274,x\223=\264\305+\274\240\253\216=6L\3078\334\312<\275\3353\205;\324w{\2750\273\272=\271\370\245=n4\330=\263EO<a\350\376<\n\203\243=_\035\031>\256\315\031>p\326\022>C\312\257=B\274\212<\270\030\">5\363\247=\217]\024>\254\216\211=\341X3>|\222\273=\033\235\334\274\237\030\312=\335\244E\275C\333\376=]\326e\275\334<\360\273\310\256\346\274\347]\256=\026\361\210=>r\377\274\023A\220<\342Q\352=`=\272=\210!\303\274\031\006\310=*\303\322<\273p0=|\323\370:\374\200\241=P\352K\275\342\376G=\242\301\014=\204\300&>\232\2656>f\r\330=\366wm\274\374#1\275]o1>\"7\030>\342-\304=\026\020\014\274\323\215\276<K\312\240=\212\240\002=\2325\343\274\244]9>|\372 >#/\230=\026\236\013>\314\341&\274\373\340\361\274\372\241n\275\2532\213\275\241bM\274\255\326/>\361\243\351=\337B\234\271B%6>\247\275\314=h+\321\274\242\334\363=\200\006\355\275\000\035\326<.[*>\353V\324=a\2039>\031{\n>\262\251\002<\300YZ=.C\263\2730`2>\200,\207\2757S\026\275t2\"=\307\323\002>\"\366+>p\232\204\275\374T\341=T\2656\275lhq:*\177Q\2753\023j<\371\016q\274v\264\367=zhq\275\346\230\335=\305\010\t>\277s\253\274\311\373%>\333\027\276\273v\036L\2758\323B;\347Y\344=O\211\213\275<?\277=\332\216\231\275\373$\000\276B\351d;U\'\233\275\014\032!<\351\241L<\206\3773\2759O\231\274\217\333\321\274N&\023>\231\254_=koB\275\210\276q\274\312^\n\275\212Iu=\n\341!>\357JI=9\n\005>(\261\236=\037\037\275=\375\010\035> \035\254\274\373\266\034>t\221\330;\322\222\n<\207\335\325\273AN\252;\254\264\213;\2563\n\275\250\275\025\273\006\026/\273uf\003\275\244\301\320\274\213\353f=tg\270=\\\3068\275\252\374\262=p\002\341\275S\243\201=B\030\311=,-\230\272\226\323\277\274\353\003<\2750\367m\275\316\307\240;\020\310\200;\231s\037\274\374\275\210<\207*\312<\352\254G<q\r\257=F\367\366<p\264K\274\211\225\'>e\261\221\2740\216!>\010\333\030=r\273\006\275\327\244z\275]\332\203\274~\t\005\275\255\222\322\274\225\034\\\274 \304_\274\200\372\360\274}>,\274$\245\220\274\301\255\315\274\\\351\231\275\355\247n\275\374\210\256=.9d<\277\237\220\274\261\256<==\033\223<\231\316\024\274\\g4<\322\252C<]~\021=\017@\002\276\373\200\017\276\203\001\004\276w\034~=\360q\223<\255?\010\276\360\0068=\016v\315=\256\256\273<\203\277\004\274\246_\371=\223HT\275\214+)=\351\013\345=\r|&\275\214\177\245\274\232\312\001;3\337 >\321Tp>t\273\017\275g\325\200=>@\006>\023\243\360\275X\377j\275\"\261\254\274\324%s\272zWI\275\222\240f\275\253\024\306<\244\031\031>Oh!=\322\220\254=\343\245\367=\363\324\005\275J<\202\275\022\027H\274\022\3244>\022\241\224\274\320\234=<9\306\000>.\250\22584*f<3\347\204=\267\031\365=&`\205\275}A\303=5\270y\274\260\324\246\274\240\263\007>\003\267\203=\256\257F=^_\264;\334Q\252<63\254\274\035?J\275+`X\275\201\232\335<\235\212F<5\214\370;\250\247\270:\247\316\221\275 +P=m0\267;_\325#>H\022\">\337l\017>\267y\355=d:\351;\216?\233=\004\206V\275\256\314\214=F\322\264=\242\340\223=\237\343K=\357Z\r=\237`\210\275\021 \356\274\317\000\362=b\247n=\310\372\"\275O:_=\345\224\\\275\300|\235<\373Y_=\211\3067>m\345\201\275\272\265\037>\351\021\205\275m\241\220=\274}\250=\333\037\036=\253\274\020\275\030w\"\275Z\350\351=n\370\215=\261\356\205\275<\346\026>\224\216\311\274z\025\000=M\273\275=\204\347P=[$79\334\227\375=\234/!>\003\232\204\275\214y\247<\255D!=W9m<\250\266\027<\030_*\275qZ\220<\361\036\224=4\001\027>)k;=\332\001\020>7\267\367:g\t\004=\200\361\033>\024\312\013>J\310+\274\314\331H\275~\243\266=j\320\004<\241\203B\275\364\025\'>\207M\325:\331\250\311<\273\273b\2739\276\302=\326B%>\243\346\035;\030i\020\275\357\365\024>\301Ln\2755\014\254<\366\260#>a=\267=\025;\315=LG\204\274\274\r\007\274\261q\004>\307\027\\\275\251m\002\274`\356\343=\377Q\251\274\371\333\251<\2337\002>\347\344F\275|\r\277=\247u\274<\256qz\275\271e\323\274h\325v=,\224\352:d\276\364=\336\227\354\274\354\323\212\275|,\326<\3232\032=D\330\343\274\306Y\265=\377A\027=\364Uf\275y\231 =\237\267\300=\2360\311;A\322\002=\324i\022\275\251\204H<\322\371\004=/\014\364=\312\343\030\274\013\247\030=8v4>(\276\020>\367[\244=\322\177Y\275\023Z\010=\273t6>\3063\323\274,\212\020\275\005t\335=\304\010\364=$z6>Va\335\271He\020>\270\213\027\273\035cn\275\264\366\201\275\205\244\357\273u\177\367=~X\002>\\\302\272=!\335\033=\026l\257=\2425\270=\322\352\363=\356Q\356\274s(\205<#\307\263=\314\363\230=L\271\303=\373\203Y<\"\335\356\274\377\230\355=\277\t\366\274\262\213\305=\2124;\276\222\253\004\276\3435}\274\352`\005>\346\210\276:\211\255\346=\214y\317\275\325\276\017>\203\030\263=\362\030\003>\\\027\224\275\2137\266\273T\301\013>r\000y\275\375\307\236\275T\244\r>\301\2170>\316\321\337;\260\315\010>0oJ=n\226\'\275\337\340\001=o\225\007>u5\342=\356\232\234=zs3>h\236\007\274\330\022\206\275\013\335\207>\303\254Q<~\260g\275{\213k>Y\016\227<\362\275\035\275\331\211\362\274t\327&=Q\031\224\274\360\250\243=\235\305;=\225T>\275\032\314\n>\032Wp\275\324\3454>?Hq\2755G\r<\035\331\361=%\005\036\276\370\266\243\275)\205O=\301\327\000\2769\337\207\275:\364\027=:3E=\360\355\206=\273\034}=*\234M\273L/\022>\202\025#>*=\035<\274\317\211\275\274\211\357=\256\336\257=\331\235\363<\035\336c<\037\003\216=\254o\304;\354\241\367:\tb\343<\033\010r\275g\362C\275\233\320\272>\302[\236=J`w\2755Q\220>\211\365\222<\334T\353\275\237pI>\330\000\343:c)\266\275oB\220\274\224C\204\275\322j\010\276\311\315\331\275\315\000\376\275\206\217 \2753\204E\276*i\030=\340\2332=\221\247\215=\374\314G\272\341\331\017<\342\227+=\262\021\331\274E\375&\274\020\375\371\274|8.>\016C&<\225\303\337\274|r\243;\223\330\357\274\323\036\r\275r\3613<\022k!\274\207\026\027\274\200\216\232<\363\350\004=\217=\332=\346[O\275\3062\215=\330\256\t=%\204\032\2758\220\357=\306\307\021=lf\t>\376\020\021\275\205p\005\275\371\201\222<\214X\232<\306D\207\275\2754\024<Ca$<\246\013\235\275\313\212\264\272 \215\342;\335GQ=/\014R\275\to\007=b\027k\275*b;>\270u\302\273I^\354<\242\273l\275\0142G\274\265)\010\275\037\204\261<K\235\221=a\341\203=6x\357\274\000\262\212\275D=\227=D\223\301=\310\310\241=ov\000\275)\003\017>\003{7>E(\365\2743Z\362:\330O}\275\007x\316\274\027\212\261=n2?>\325 }=\002N\317<2\247Z<\177\221\004\276@#\016\2752%\'>\004o\207<\2256\214\275\376\266\274=\273\000\216\274\3509`=l.\252\2731>0=5\247\206=\305\201\206=\242\213S\275G;\252=b\007\021>\035\354\207\275\031>.>8\305\034=\220\006+<\354\231\364<\2473\227=L)\323<\313\267\346=\376\371\035>\344\236>>1\356\323\274%l9\274c\001%<\024\206e\275\355\311\336\273\".\024\275F\213+:{\301L<]-\r\273\230\210\'>\0359\272=\202\230\242=\031\\\242;\034\"\034\275\2471\331\274b&\000>\254\366\343<\353\225\377=\373\324\362=R\271\336\274\255\365{\275P\2659>7\276c=f&\013\275jJ\007>X\222\315=Y\207\313<:p3>\250\352.>\305\353\346\274\203\254\216\274\203\337i<\013\001!>\254\3461>\374\372\037\275Kt3>\305\2150=O\014\257=0\337\336<t\274y;u\217\315=\213?\270=\311\t\033\275\0215\026>h\231\375=R\244\023\274M\202\273=e\215t\275\372?\345\2749\347\024\275=y\252=\006\227t=\244e\t\275P\265\300=\311+V\275M\230\027=O\350\305\273\266\211\337=\301\341\212=*\333\225<\356\t\005>;\351\037>.\303\315\2746(\030\273\036\020\027>\r\2345>\204\372\025\275r\307\025\275\240\347F=Q[\245=\024\331\261=\277\324\351=D\274S\275H\252\225=\353uc\275\210\005i<\n\006\222=\\n\337=\'\273\305=\007\030\334<+FE<\026B\213=\266\013\002>\235\204\033>\260\220\010\274.\r+\275\266[l=\'\277\306;\344\326\341=\000\261@\2759f\303=\0160&\275\2032;\275A&^\275\177\2341>\235\234\305=;\253\360=\356\277\322=V\246$<^\355\252\274\316\241F=M\373\343=\225\241\204\274\037\253\210\273\033\237\020>\241Lt=u\254\021=\037\020W\275V\325>=\300\253\332\274\020\024\025\276\272<\300\275Y\1772\274\303nj\2756\243i=\235r\301<\013\222y=\233z\373<\204c\261=N\271y\274\277N$\274\205\322\303=jTI=\r \260=\315\004J=qD\352\273\010\340!\275_\234\256\274\304O\357=\001\277\212\274i#\342<IB\332=\362\232\225=\305\007{=2\312\276=^\237\216>l\247\263>\323\327`>cX\357>o\200\001?}\346>>\224\201\310>w\253\335>\310r\313=~\002B<\256\345,=#\227\217=\003T\220\273u\322\010\273\333\374D;#\373\006>/\257S\275\277\267\316>\227\272\307>m\323\372=X}^>\251Bu>\346Ar\273\263\344s=\335\214\273=\360\222\212\275\357\313\213\271\223+\022\275\347|\245=\024\322\263\274\306\373\207=\350>\207\275,\361\304<\377\235\373=\372\027\210\275\027\274\004?\362\275+?\375\305\021?\353\014\013?\374\254:?C\244\016?G\217\314>\0235\026?!d\325>\226\253)?\334\330\027?\246i\031?\217^\003?L\311\376>\007o\375>;\301\356>\202\363)?\237\345\365>H;\345\275~}9=H\213\014\273\274I\256\275\326\253\214\275qo;\273\374%\234\275E\202\346\275\3340\347\275\355\0201>\276V\370=~\223\007\274\313T\243=i\252\017>\3362\261=\n\016\245=\351/3\274\321)\277=\235\002(=\341K\320\275\034\312\340\275I\363F>N\250\246\273\200\311\236\275\357\036\322>\005\326L>&Z\365<\022\350(>;\tm;=\302\205\275\022\326\020<\006\315\322=7\237\007=\226L\344\274;z6>\243\020\030=\347\003P>\225\256\202=\3009\212\275\370Ny>\000r\335<\371>\356\2759\257_>\245\024\275\2748H\023\276\022?\022>M\332\207=\3464Z\274\224a\304\274\302\035\t>\226\235\033>\237\\\007\275b\303\364\274D\274\031>=hh=\240\204\201=\004\022\023>~\024\005\276\233\304i\275x\312s\275q[\312=\251\016(\275A\271\330=E8+>\270\232\n=\221<\357=\256\237\243<I\205\027<~IP\275T\331\351=\270e\203\275U\340\">\010 \302\274c&\216\275\363qP=\032\334D=;\020\315<\255\220R=\001\211\270\275\251\216\310=\232\266c\275\t\376\233\274!\024\215=\202Tl=)\214\266=-h\240=5`\222<q\001\023\276\360&T=\351&\024>\243\031\225=\241\230\n>\264E\037\275\214p\">\003\267\016>\253a\026>zPP=\311T\034\274\215\307(>u+\n>\3678\321<`\177\220<\022\365\'=\317:\342;\267\265\360=\246\336\357<\211\203\006>\215(l=\262\301\223\275\350s\031\275\245J)>32\211\275m\000!\274\312\234\305<\031\376\317=\2138\273=\np\332<\255\246<>Ae&>\311\231w<:x\021>\r\031S\275\372@C\274\330+\203\275\302vq\275\372.\240=\371\240\007\275z\315\325\273\330\306\">\221\346\\<}\317\221=\255\ru=(\310W<\370\241\327=L\235\330=\204\274L\275\214\310/\275Wl\330=\270\370e=\246\313]=\342\000\014=\265~\206=\'\234\351<\300r\003>1\345=>\010\253{=Dp\205\275H\346;>\215\337\031\274;\2253\275\023\002\023=\341}\355=s{\001=\215\276\322=\344\232\366\274B\r\220<\007\354\250=_?\323=.\303\313=\023\204\262=\314<\037>4\217\220;M\035\316;Q\345\355=\2307\024>\225\377R=:]\001>\000$\210=j\250f\275\020\323\277\274W&F\275\230)\000>i\374s=\223\\f\275\323\017C<`0\035>\260\021\020>\017\252;\276\247\325\346=F\177W=f\315K\273\356.->\216\327V<\272\3330>\322r\203\275\370D<=ru\'=\276\250\205\275/\223;>W\2322>$\272f=\354\222\005>\375.\342=\275c\211\275\273\025\036>M\333\027>\223Y$>(\370\004=a(\247=\032\3114>\'(\264=%\333\017>\006\0313\275o\323\323;3\301\252=\374E\250=\317\373G=\016\263\363=\356\350c\271\270=D\275\252\3350=\332\314U\275\362\370\220\275R^\222<\313\202.<\230\364\307\274Se\032>\016=\231\273\302\365\317\275\3500P=\003\364\342<\214\014\223=\200\017\212\274\261\010\260\275\225\354p<\375\225\010>4%\374<\202\tJ\275nV!=\257\350\260=\276O\205<\345\373\024>{\322}\275_e\300=o!\275;\024aH\273\234\035\033;\005\261G<\245cN<k\343s=\034\337\241<$\024\257<\374\366a=\364A\276=\363\036]=b\\\342=zH\016>6t1>U\210R</vp\273\323\334;>qT5\275\352\213\250=]\230\217=\305\027D>\356&\244:\177Z<\275\313,\005=K\263\t\275\327_\260\275\247\216t\275d2\241\274\364(*>\335\253C\275\202NI\275\300#\266\274^\225a=!\327\034>\022b >IL\003>5\334~<D\201p\273\245c\270=di\212<\320\036\244\273\321\312\245=\022w\320\274q\334U\275\364\231\266<\231[\347\275\017\212\025>v\203\354>\000CL\276avd=\373\031\306>\035:\034\276\202\'\'<\t\243\222>\244*\250\275\331\256>\275Fq\024\276\223\257\211=\267\253\350\275\270\272\366\275K\243U=\265Jv=\031Gb<if\372=)\253\016\275EZ.>\271\211\204;\350\010\030>\357\214\347\274BH\033>\340\376\206\275+p\302=1+\034\276R9\256\275a\300\340\274\3408\222\275\236\312\010=\366\204\027>Y\313\301=%@\200>\247\306\334>#\217y<\251#\270;\230aY=d\317\030>%>\213<\036\227\">\246/\">\352\000\376\274\027\345{\275\364\\\334\274\363\320\235<{\377)>\265\366w\275T\340t9b\320N>\234\250\270\275TC\331\274oG?>y\227.>Q\037*\275\364\374\277\274\361=\034>\177\357n\275p@\032>(\251\014>\313\272(<\371\017\200=\226\n\232=2\'\335:!\277m\274/\340\211;Jm\376=\313\022G\275t\202\224<\240U\206=\0303\250<\003\265\355=\0316S=;\"/\275?\362#>\351>.>-\340\r\274yK=>\250FV=\327\302\350<L/\n:\t)\035>\3150\220\275\233\321\335\275\2678\225<g\377\314<\327:\375=\000v\343=#\261C\274\314\362\361=\271e\327=+\362\016\275\030r\3739O\267\224=\265\004\203=\230\360\032\275\272\216\030>Tv\327=\266w\220=f\025\363<\262o8>\343eI\275M/\272=#HA\275\273?\021<\220\270\004>\220\000`=\024\263\265=\205$,\274\312\206]\273\346h\026>$\372f=E\232\t=(.!>\025\200H\275\314\007)>=\217\034<\377\236\t\275:\237\303=\234\342\362=\237*\357=E\311\036=5\357:\2750)\304=\371\211\212\275\336v\037\275<^<>\371\027\310\273w\200>>\027T8>N88>\376\211x=\225\017l\274\360\242\013>p.Q=\227\356I=\245t\243=\346\370X\275\"\271\270=\273\221\217=\2507\022>\356\321\260<\331\264L=~\261\300<=\205\'>\334\234;>o\317X\275\275\273S\275\262\3619=v\243\275=\036\000x\275\0206\016=@\022\360\272#5\r>\307F<\275Ra\213<\025n\005\275`\357\004>$\2267>\211\260\354:.u\255<x\335\350<\335\020:=\'V\014>c\304A=\226q\202=\177\010\304=\025F\325\273\336\256\266=\376\3004>0jK\275\232\366p=\344\302\036>H\376=>\341}1=\003\324\324=S\225(=\017\214\326<F\226\320=\t\030k<\323L\022=I\263\\<ZE\017=\250\202\201<<[\n\274\212\035\017\276\271\343\016>2\252\273=NL\250\274\003V^\275\370\032R\274\206u\025>j\026a\275%B3=\274\"\010>G\351\265=\264\320\204=\314\206\346\273{g\372=vu\261<\313\353\374=\300V\347=F\036\222<\223\317\031<\215\007\313:\271z\341\273&\270\004=\243\331\377=Mc\371\274Uk\217=m\026E\274\240\234\033>\354\364\002\275\023|\016>A{\234=Z\366\266=\253\214\221\275&\'\211\275\261\214\332\274sl\230\274\035w<=W\0059\275\354\243F=\211\312\354<\241\361K\274\312\376\260=\373h\307=\257\"H\276s\016\305<\306\020,<<\246\214=\304\275\274\274\263#:\274\354\221\013\275{\345\224=xoK\274\206\236:>\247X\262=D%\321=\363\235)>\006\244w=\301\361\255=.v\016=\246\313\247<\241j <M97=\377j*<\200\355\344\273^u\317=\3059%\273\266\334\022\275voN=k\316\242=@\027\371<\3620:\275*[W\274\354\0306>\201 \271\272G\302/>\232%c=\356?w\2754\003O\274\034\016\203\274{VE\275\006\376\271<\006\020\326<\273E\216\275\275\330\375<\306\324}=\345\2604\274\367\330\033>\'u\244=\241\033\014>_\014\351\274p\223G\275\332{H=\310P\305=Z\003%>\333\177\005\275\202f\203\273\020t\225<f|v\275\370\260\357\274\343\213\014<\324\322(\272\230\216\273<!\237I=\0000!\276\355\225\265\275\353{\177\274\014\215\333<\362\177\242\274`m\214<\343\373\346=:&N\2756\265\234\2750O4<\313iW=\206yd\274*l\020\276\214\2547=v\231\255\275\200q\246;\236\016\260:\214i\006\275\321\022\t>\241\336/>\321^\027\275\310\307\367\274\037\204q=\221\312\016=v\214\t\273\321\211\200\275\377\250^<\033V\232<\246\217\005\274,\336\263;k\226\271<g\374\301\272\002\177\211:\020\321>;&Y\000;\013\273g\274\026\313i=\352a\004>\266\261\220\274!x\362=\377\300\233=\035\007_\275\234\037\244=z\276\207\275\330Rj<\257\017\006\275\363W\205\274\317\334\003<\201\312\345\274k\373)\273~\355\270<\2556\351\274\261\204\014<i\354\360<>\212\021>}\222&\274\2771\226=\257\250\206\275?\214\022>\021\270\340\274\035\317\202\274,s\">I\0235\275\373\310s\275\370\001\302\274\305\034\263=\331\227\200=\212\213\005>>\361\022=\3777\223=\024\370\237=\212\321\032>\020\343\024\275\254\314\\\275\351\t\216=]\206\002=\354\376\255=/\276K\275\323w\024\276R\3712>\273CZ\275\233\364\005\275:\355\013\275\313\256c=M\326\223=\244u\344=|\226\203\275\r\300\250=S\275M;no\244<\360\036<\275T,\233=\326i\257=\215\301\007>\311\200\375=5\373\r=\222R\024=5\362(>\317\t\030>\265\234#>\3575\301=\307\265\311=<P\037\275\202\211~\275\002M\204\275\276t\317=T\034D\274\225I\006>Rfl=\224\364%>\260\247a=_\000\217=\217\343$>\323<\025>e\311\026>\313Y\243=U\222\366=\337\3351>o\245\372:+ec=?\325\215\275\272{\010\2744\024\'>\033\327\016>\340\026\300\272\353\364%\275\236\302\036\275\"T\000\275\326\202I=sW\265\274A+\327\274\035z\264=\325\235\246=\001\361\350=A\373\316=)O\321=e\004)>\216:\202\274\262i\024>\34736>\321\242,>?\271\031=\030F\t>^\310\340=\027r;>/\027\342=\255\274\301=%\t\332=*\336\261\274\252\210\002\275K\353\313\274k\222\334=\023b\017>\210\351\211\2747){\275\361\256\220=\221\321(>\301\347$=\342\352\341=0/A=J\315/>\"Dg\275\030\327\211=Z\020\363=E\200\260=\341\222\030>\353~\026\275\215\245\347=\311jc<\3206a\275\204B[=\343*;\275J\352d\275\023&+>U\273O\275O\t\266=C\t\014>s\263\363=\035%\377<\2019\017=I\243w\275.\346\332=\213\373:>\034\373\333=!\223\026\275\226\244\004>\273Y\026=\327tM=rC\001\275\332lK=\366Sy\275\0044C\275\246\200k<\007\324\030>\035)!>\037\376\322<t\241\024>\310N\006\274\323\270&\275\366\350\344\274\344\363\213=J.\203=i\300\252=B\215\312=\223\327\016=\206J\201=\301U\034>2\275P;h\371i\275\270^\235<\271\343\205=Y\256\037>\2404\273=\302\371\'>U\017\225=\236\273\264=\346\3511=\341\215X\275\035-j<%H\245=&\\\301<\255z\362=d\036\013;\236\226\341\274O\246\334=0\342\010\2735\237\n\275\336\373P=\341J\347<\231\225\035>\263E\333=\003<#>\254\000\213;\245\306i\275\303!\324\274\273\2236\275\343\315\235=\346\311(>\316Zs=\324\357y=5\313\025=\027\215\007=\317L\220<\023\353\234\273\276\260\365;\301\t[=._\r\275\002v\030\272\014x\224=\366\216N\274\253(\265=\034U7>\315\265)9\244\247+>?\377*>\350\317\235\274~\377\271=\200Y\256=\36533>\345\201,>\\h\231=wi\263\274\'\307\226\275b\355\357\275s\253\352=\033\3224=\213\010x\275\231K\226>GJi>\370\2451<o\263k\275\217\322Q\275x\257\003>\220#/=\"a\004>\317\r\032\275\2556\367\2743\363\207=\305\341\203=|\354\331;}\340K\274\371.|\2752\333\223:\021C\302\273\312\275}\275\036\310,>;\325R>p=\003>u\200\n\276S\2034\276\361\336&\276\372\303\027>\350o%>\377\243\016>2\353\210>QN/>S\365B>\2517\325\273\273\305\304\275.6k\275\025\005\345\275\315\350{= \260\023\276\306\344\327\275v\363\000\276\010\r\013\276Dnc=\364\344\310\274\217\024\237=Fjb=\321X]=\3354\231<\275\335\351=\\QZ\275+]I\275\261J\002=)#\024=\356\363I=(5\233;\231+\214\273\304\032\270<\361\345s\274\370K\270\275\352\354`\275\320M\014>\267/\'=\346n\302=\314\224\255\273a\2632>\034S\'>\024\343\273\274\306S.>\223\002\311=*\3772\274N\003\203\273\"]\030\275j\200\330<\264e\236<\244\233\025\275\267\204\343=#Pg=@\324.\275\273j\033>\215n\007>\233\2755\275W\023\224=\032q\000>j\320\377=\\U:\275\267\346\201=\0313Y=\027\250z<\3656\224=C\346\360=\264t\312\274\241\362\342\275\036I\201\274y!3=\214\311\027;\017\353\307=\341\266\227;D\363u\275B\304\241\274R\216!\275\035d\327\2748\345\314=,\310{\275\201\007\377\274Gh\314<\001\205\200=M\210}\2753\367\205=\210\321\211=s\027\344=\223$c=w\263[\275_W\020\273C\361\\\275=0,=G\274\341\274\0009W=\\\367\254\273\330h\337=:\337\260=t\241Y\275-\213\234\274\240\274\035<\232X]=\341\272/>\322f\361\2734Cn=\271w\346=\263\343%\275\236\276\007\275\373\000\221=\224\231^\274\037l8>V\234H;\353\352\211\275\'x\277=wb\325=\202u\177\275;\271\204\275<+\037=!\312\217\274\252;Z=[\216\326<\340\3010>\204\251\t> \323\357=t\313\371=\321H\361\274\037\r\316\274\336*\010\275\006\221\005=\325P\315=\375@\332;a\263\356<_~\307<\324\272\257=~Y\010>\263\317\020>\362\366|\275\217V\223=,\327\315\274\200\013\256=\"U\261=\n:#>\201\223\177\275r\310=>\2611\356=K]?>1\254\202\275\313\215X=\304:\225;zM<=\367\"\272=\230\203\261=G\037\207=\326\352\300=\224\224\211\275\351J\204<}a\256=7\002\021=Av\205\274\021\351\322=\020\372\260\274\005E\010<#\276\025=:Z\000>\\\034\312=\034}\331\274\364\231-=Dq\014>R\251\250<[\366\202=)\\\316=[!\000=z\203\215\275p,\325<\373\271\n=\300\2031=\266tP=\352\362\354=\036\351c=\363\317\201=\246W;\275dRA\275L\321!\275R0\305\274\214a\020>B\262\232=\237\3137>\224\016M=\016$\241\273\271SI\275\234# <\364\230\367<\220{f=\234\224\266=m\331\273=\376w\013=\201Y\036\273C\234@\275\207\210]<\373\3201\275\333g\n>\272\336\021=\036+\211\275\320\332\003\275\017p\024>\333\202,;z\2722>\200\344\236=\364-u\275+w\250=VT\034>\306\007\260\2743\321\204:\255\314Q=R+*=0\322\271=\247\3666>\204\235(>\360\232\251\275\225-\035=\017\366\200\275\215\226\274\275Q\367\000\274\353\001\271<P\333!=\tH\337=\266\276\323\273?u\033>!n\354=+\336G\273\332ew<\021\243\274=\323\351\356=-W\267<\214\200\020>\254\235@=\277\335\300=\2521\237=E\003\002>\262\230G\275(\355\234=\0315\317<1\3135\275\001\215\257=MPT\274\202\324K<\016.\271;C\332s\274\352\tO<\352\313\t\272\006\332\033\275\3343\273;\316\213&\274\026;.\275\0220\004>|\215\002\275,%\025>\327\242e\274p\300\317\272t\232\214<\317S\305\274\217\272\202\2754\247\\\275\206\322D\275\344\316\'\275\316g\002\275^\377X\274\351\234\265; [a=\233\275\267<\325\3165=\364\235\016>[c6>\0160\276=\004\210\214=M\3501>\016\341\210\275\212\236O\274n\003\203=R\240\027>Ch\307=\344nZ<\234A[\274pih<\226\345\241:\002\232\006\275\242\374v\273w\325\274<{\314\r\274z\234N=\234k\216\275\304\200\356\2759\033B\276\227Dg\274\315\263b\273\275\004\256<\302\017\177\275\005eH=\257%4>\0250\240\272\031\336\t<DnU<@\231\023<\376\325\"\276\305\273\300\275\260j\354\274\347c*\273)^\355\275\244S\357=Nz\001\275\355\365\037>\261\213k<0\271@\274\237)\017> \250\326\274c\2755=\363K\362=ZI\216:\023_\315<\327\343\207<\267T\r\275R\316\210\273\272\331h\274I\222\276\275\376\332\026\275,w\212\274\340K]=\262\n\370\273\240>\215\274\310\200\210=\314\306,\275\000\206\345;\003\301\201=\353\373\263=\217\031F\275[\274\215\274\200\353\307\272\032\342l\2733\004\261\274\343\262\222\2720\355\253<\347\231V\274\353Q\257</C\304=\362\345\206=\307\234\024>\036\363u\274\326V{\274\201?c=\374\241\277=\237\307d==\301\336=\346|*>\t\307>\275\010\013\t>\355\233\237\275\354\325O=)5-=Q\202\302=\240\367\025>o\"\312=F\"\303=/\323\202=i\257\317\274\353\351!>\237\323$>+\260o=\035*8=\330T\344\275\352+\333=\316\005O=5\210\245=M9\304\275\001\355X=\333(\232=\235\255\326<M\306\037>C\005\007=\310O\207\275\204\343L\275"
      }
    }
  }
}
node {
  name: "f2"
  op: "Const"
  attr {
    key: "dtype"
    value {
      type: DT_FLOAT
    }
  }
  attr {
    key: "value"
    value {
      tensor {
        dtype: DT_FLOAT
        tensor_shape {
          dim {
            size: 3
          }
          dim {
            size: 3
          }
          dim {
            size: 64
          }
          dim {
            size: 32
          }
        }
        tensor_content: "\200\030\002\276W\246y\275\277\322\346\275\315\201y\273\177\021;\274\361\340\311\2748\371\210\275-\276\342\275\326\363\372\275\324n\365\275\233:\321\275p}\364\2748W\366\275jw\250=3w?\275\235\027\003\276t>;\275\031B\214\275\025\267\212\275\024\367*\274\022\243\340\275\351\236W\276\2518%>_\331G\275u\002\230\275\004x\351=\320R\210\275\234}\373<\3718\027\275\254\025\255<4G\247\275\224\366\306;73\246\273\226\204\366\275JT\301\275\353\211\306\275\237{\202\275^Cd:\261\352\016\2758J\315\275\t\037\245\2742\246\236<XO\014\276\021\273\213\2742\310\261\275:\215e\2737\351\367\275\303<\211\274S\243\274;\201A\027<\004N\002\276O\234;=4\370\235<\315\2472\274|\335\306=<aQ<^\265\222:\234\251M=s\210\210\2754\016\205<\322\274;\273\243\025\221=\201;\213\274/5v=)\203\006\276J[b<\010OG\275\257&U\274\275\271M\275\007\022\025\275\264\310\222<1\252\337\275\302Q\327\273\341O=\275g\356\003\276\227q\004\276\007\257\221\274\\*\006>\357+\010\275\302\324;\275\213{\337\275\260\350\025\275p\311\260\275Oku=\364\330\266\275\347\002\221\275\342,\265<\264B\t\275\337\367/;h\363&;\362\245\317\274\333\240\366<\344\036y\273\271t\343\275\211X\n\276\237\032d\274e5k\275N\317\253\275\010]\307\2752\221\t\276\177\303\027\275R+d\275j*\260;\014[\320\274\260\034\237<\'\212\333\275r\t\371\275\262)\033\275\225;\005\276J8\243<\024\306\347=\007\343\005>r\017\217\275\262\307\265\273S\n\303\275zW0=\0059\313\274\307\025\217\274\314\246{=\205\006\\=\232E\243\275s\244\216=\274\223\220\275\232\024\215=\234J\020\275\272\347\330\274p\264\274<D\256\343=\rs\000\276\217>\002\276\202\227H\275QU\025\276\210Z(\275&\377\017\274\0131\370\274\363s7\275\324\313\334\275~\362\335\2751\243\220\2750!\274<V\335\374\275\023\357\304\274\3704\254\275\343\350\316=\022\215\265\2752\364\014<\315\314\241\272m\340\213=\211\256h\274?+\014\275\350l\302<\201NB\273\311H\336\275\376\233\356=\274\324\010\276\241Z\237<\215\342\031\275H|\023\275\332\005\271\275!k\271<b1\320\275`\202\373\275\341:3\2742\203\210\275)\210C<\213\220X\274Z\014\212\275\026d\314\275\344|\227=\2150\305\275\017\223\004\276\244\3769\273H\355\340\275\002\341\004>\301\334\367<N\\\337\274u[\250\274W\262\201\274n\205\036\275\304\021j=Mk\212\274\345,\372<I\'\226<\035\321\'\275/F\003\274r\036\006>\"F\235\275\2730\007=\221\375\355\275\263\373\217\275\"\207F\275\377\342g=\033\355N\273\026\324\375\275\032\273\376\274\014\233\316\275\227\314\000\275[!\310\275yB\354\275f\264\263\275o\024\234\274\004!\235\275\331\340\275<\357]>\275\277\367\233\275\263\327\222<\333\343\006<\303\342*\275\361\361\252;R\223\235\275\235[Z:Sy)>\320\300\207\275\020I\010\277}\233\326>R\304\250\274c6q\275\'\311k=\307\n7<\377\261\375\276!\262\024\2759\307\260\274\353\236\t\276\233]\275\275&\002\007\276w\022\216\275r|\326\275hk\306\274:\276\017\276_j\021\276\223E\323\275\360\257\036\275N\377\017\275W\001\021\276%\202\203\275(\256y\274\177\240D\275\375\263\025\275\345x\273\274\257{b\275\307~\271\274\217\'\265;\361T\342\274\ta#=[}\367\275\201L\221\275\226\000\220\274A)\274\275\254\264\344\275\027\217\322\273\003\347\271\275\373*=\275\032\211\020\276\266\254;=\037G%\275\223f\225\274\206\005\277\274\370bK\274\222\252\214<\334\305\016\274\260c\362\275\342\026\230<\205\360:\275e\200\017\276/\253+\276\2727\003\275\303_{\275m\035\305\275\364\177\272\275\212\203\025=J\366\344\274\321\331S\275\030B\016\276\341!\355\275\265\021\351\275\316b\223\275y\037\355\275\301\277\350\275\303|\253\276s1\210<n\374\010\276h<\352\275*\tY\275|M\272\275\020\007\010\274U\317_<}I5\275\230]\263<\236\'\307\275\333o\311\275\376*\222\274\300\257k\275\034s\270<q|\017\2752[%\275X\260\266<\342\353\200\275\225\213\210\275Z\276\300\275\202\020\230;\000\266\210<g\240\213=:b7< \304\205\275\023&\t\276\311c\251\275\035\033\226<t\266i\275\316\266S<\240\005;\275=S\236<\234\312\346\2751(\274\274\245\035R\275\346\336\004\276\236!\321\2752\371\3009\"]\273\275PK~\275\2124\211\275\347\257\016\276\240\377`=l\346N<\232\235\226\275g\261=\274\022\035\206\274\214f\360\274\242U\r\275I\003\223=\023\364r<&}\266\273$7\t\276\337;\035\275\034\367 =\n\300\375<\372\025\201\275\351\025F\273\360\341u\275|\271\'\275\320\227\317<\351C\357\274&\225g?\014\304s?\335\333\257\275\342\261\n\274\256}\017=\003)\346\275\225\013\273\276\277t\026\275\3047%\275\264\362\342\275\r>\315\275\0174\345\275\216D0\275Z,\025<\275`\246\275v\315\204<>\360\240\274\330\271\272;~\003\361\275\246\032\220;\335\"O\274\020\303\360\275\267\372\361\274p\266\222\274\270LM=\034>\236<,k6=\207\306h\275\024\340\323=\3162\347\275\316\316G\275\363\264\244<\301\241\230=S\005R<\372\nX\275{7\304\275W\345\324=g\251\221\275Fq\265=\032\275\242\275;\374\203=\330\326\000\276g\236o=\306\025\274\275o\t\\\275\353S\\\275+I\275\274\264\003\314\274~&\345\275\200\240\251\275\t_\236\275\362\023\014\274\2550\371\275\337g\371\274\357\0340<>t\017\276\362\r\237=\234\002\256\275\220\022]=\355\023r\275Z\026\217<\272#\r\276\234\370/>kZ\260\275\317\312G\275K\216\316\2724\375\323\275\223\256\247\275~\304X\274\263Rm<\231\375%\276L\206|\275m\260\027<\177\271#<\346\216\372\274o\021\261<Up,\275j\277\220\275\336\274\311\275%\273\010\275\357\023)\274\243\336a<%J\253\275\342\256\354<)\263\316\275R\372\331\275F\334z<\335\245\327\275\302F\265=-\033\256\2756=\305\275\031\267K\274~\300\364\274;}\371\275\343\261-=\244\301\274\2759&\211<\274\254)<^q\023\276z@\004\276\036\0237<\323\216%\274\237l\365\274y\323T\275>\362n=M\361\313\274\300\036\361\275,\204h\275.\275\203\275T+G<\314\223\036\274\023T\211\275\377\034\001\276\npJ\275e\361\352\273\331&\007\276\020*\320\272hu,\275R\253\242\275b,\035\275\3429\363=$;\023\274\341T\231=\340\357w\274\265\265\002>*\204\336\275\200W\331<-\350\010\276p\306\333\274\013\005\346=\320\036\004:\021\271=\275\035x\364=\232m\014\276\000\273\t=t\220\263\275\360%\214=\264\256\n\276\203O\370=\330\365\305\275\225\255\342\275\000*|\275_\021\225\275\003\275\241\275\363\257\236\275\362U=\273\277\361\321\275\2041 \276\251\256\007\276\362[F<\022\374\267\271I\363\227\274\2753\212\273i\205\371\275U\274\005\275\226@\336\2752\033_=\021\221\004\274\330)\332<\022\330\373\275`S+=\340\031\214\275\344$\334\275\344\372F\275\304\367\252\275A\257\306\275\3773\030\275\224H\367\275\200\023\240<UC\260\275S\363\376\274\235\n\021\276\225\336\241\275O\r\343\273Q\n\001\276?\354\346\274Dq\305\275\271\"\221\275\353\331\272\275\216M\016>\370\366l\275\001\367\010\275\224q\345\275oh\000\276\013\375\361=\234D\237<L\373\252\2749t\020\276\007}9\275\203\'\262\273m\017Q\273\325Ll\274\247w\347=I\006\217=\310|\t=\202\224\031\275&,\023=\217\240\022\276\273\360\261=\2064^\275\006\207\220\27484\210\274\344\350\0308\\\320\356\275S!\254\274\236\214o\275\376\026\010\275B8\335\275\206\021\305\274\363\317\205\275\340\264\243\2757\0207\273=\'\306\275>\t\003\276&\256\275\275\013n\035\275X\353\000\274<\274\341;l8\263<\340\r\324\275\"[U\275\020\220\323<^\326(>\250\205\021\276\365\245;>\\\007\t>\027o!<9\216\006\276Jb5=\201]\306\275\2609\254\276+\373(\275pi\254<\327\331\364\275\234\'\260;\3655\023<\355\250\034\275\346Pj\274\326\255S\275\205\306\350\275\244\\\372\2751\025W\275\227\005\t\276\304k\244\275\327\362\215\275\375\201\311\275b\245\271\275\301\304\026\275\317\2326\275#\005\013\276\274\347\004\276\245>\237\274T\001\002>\016<\031<\030s\201\275\024#\301\275\232\377>\276\233)_\276!\275R:vg8\275\314\321H>\363\317\216\275\023\'\217\275F\005\311;\332\341?\275#\026\336\2755\354\207<\275\351\343\275[\265#\275\270x\006\276\356\374\026\276\222\242\324\275\233\224\311;\004`\341\275B\373H\275\364\211\225\275\177\262\311\275\\\032\343\274\344\020\345\274\275W\003\276W\021l=@\251\272\275\216U|\275\"2\340\275v6\301=C[6\273\240\000r\276e\205\270\274\025\t]\276Ij\032\275\337\205\364\275\255V\241;\266Mg\276p\337\203\275\230&\314\275\220\023\020\276L}}\275\256\t\004\276\253>\020\276b\353\360\274X\207\312\275d\231E\275\016\373\341\275\233\242\014\276\233\244\355\275\001\322\243\275Q^\221\275\017\377\310\274D\223\225\274\006\032I\275\324\334\276\275\0053_<O?\322=\025\336\270=\035:\210\274\252}\021\276\023\217\363=\217c\321\274I\350\367<\365\010d\274\216\214g=\242\226\305<^>\331\275\307\273\n\276\365-\222=\"\352\245\275\214\261\210=\010\273J\2754\001\222<qsH\275%1\363=\022P\016<\323{\236\275\350\204\000\276\010\'\026\275\022+\236\275b\207\264\274J\024?\274\357v\342\275\202x\261\274\262\027t\275\315\245\210< }\320\275\201\315\177<\2317\233\274\363\302\262\275\331A\342=\036\331\302\273\226\0275=\313\273\014\275W\267\321\274\357B\312\275{J\316=\024\366\364<K~\266\275!\237\215\274\374q\341<\035\250\261\275\340W\351=y\006O\273d\277u\273@[\334\275\213\026\255\274\024\271=\275\027\357\207\275\325\347\347\275\216<\364\275\336\306\307\275\200H\352\275!^{;@\016\251\275\354\267\025\276\005\3075\275\211\247\260<]u\016\276\377\376\205<\247W\024\274\013J\240;X\346\301\274\3709\233\274G\314.=\t\264\317\275?z\t=g\257P<\313\323\231\274\335\372\002\274\274\323\207;\352\361\004\276\271\235\250\274\211\202\341\275\260I\376<\223\217\207\274~\221\303<V\005\303\275H \004>\246]\275\275\3050\210\275\030\257\350\275\033\250\037\276\221\004\021\276w2\347\275\002\224\204\275\316\036\255\274C0\214\275\200\325#<\222\345+\275S\344M\275@qy\275#\367a\275\"k\241;\202 \016\276\204\314^;\363|\201\276qb\227\272\20606\276IxM\273\213\327\337\276\224\250\277\276\032\264\337\275u\016\200\275\\\275%>)lt\274wm\024=ie$\275\030\323g\275I\331l<\035J\324\275i\237\373\275\006\226\004\276\326\262\245\275<r\010<\014z\266<\2712\000\276\306]\301\275{\000&\275\024\234\201\275\346\214\351\273\310\362\312\274\267\371\017\275\372\333\017\2750\247\244<\354\251/=\366]Z=\210|\311:\307\t\246=\233B\331\275\367\236\322=\005o\006\276\"_\020\275\263\347\360=\274\312\334\275\204@X<y~$;\235\344\005\275}\332\005>_\245\270\275\234+\344\272\333\257\221\275\320n\330=I7\374\275t\374z:m\037,<}%\354\275o\2116\275z7\n\276\302\260\304\275\356\014\304\275\037\202\345\274\215\300\234<\331l\n\276\356\314h\274\037\327\014\275\234\272\237:\3144\261\274j\360\337\273A$B\275\226\340\270=\306j\356\275O\316\260=\217\354\017\276\330\330\t=\362V\203\275\276e%\275\216\036\r\276\263\264\271\275r\276\n\276\032U\310\275\244\177\n\276\335\376\242\275\026S\277\275\335IG<\2214\363\275\337\007\325\275j\343\236\275Fr\215\274\250;\024\275T<\262\274\350\345\002\276f\032\332\275}\242j<e\271\245\275\362d\016\276\016:\237\275:M\250\275/\363\233=\016@\031\275>\371\342;\223]\374\275\177\376\000\276\265\'\311\275S\342\322\274D\300\r\276\255\014\005\276\\o\273\276KE,\275\376!a;/\010P=\2060g\273G+\261\271\345V\352\275\373@\023\275\210\307\371\275\204\214\362\274g\n\276<j\346\021\276\220\240\332\275\202\277z\275\225\033\304\274D?\004\276L\347\204\273{\357g\274\013\026d\275n\221\312\2753\257\205\275H\"#<k&p\273\004#\001=\307\353\320<\303TK<J\r\316\275\222\306a=\316\357\312\274k#\250=\031\242\033\275\370\356\313=w/\200=\022\350\304\275\0130\260\273\210\316X=\301\276]\2745\331\n=&-j\275\257\231\303<p\325w;\267ED\274\243\031\356\275\237\263\215\275:^\351\275[qx\274\0002\214\275\t\037\347\275\021\300\222\274R>k\275\'l|<\253[\266\275\237\017\341\274\237\251,\274[\315\301\275\333-\322<y(\362\274\031\005\311=u\214\234<\246>\253<\233\312\021\275>\317\343\274\t!\251\274\330\235\212=\341\031\006\273\203\301\260\275\366\030\206\275\305\016\257<_\262\275\275\027\313,\275{\270\223\275\003\261\\\275Y\326\213<\333\375l=P\232\330\275yjc\274\217\307\304\274\330\r\261\275\354\037\211\275\0216\217\274\352\325\263<\273>\317\275\324\243\314\275\235\024\277\275U\213\377\275\tP\\<\263\027\245\275\226\217x=\372*\211<Rf\224=_\220\307\274pg]<\343\273>\273\353\223\340\272\004\346\253\275\215\337\'\275`\200\266<|Vf\275\213\261\323\275A\031O=\221\003>\275\377\304\345<1\347\227\275\241^\304<\022\006(\275\363}\235=\362i\315\275\370\320\312\274\203z\177\274hK\351\275]\020\376\275X\261\304\2749\242\250\2759\205\373\275\334\252\232=r\375\314\275\332\320\252\275\241\224\340;\244&G\275\035\270\243=\314r\302=Z\n\272<\021\364\255\275\246\356\256\274;8\231\274\267\264E=\347j7\273\326]X=\267\246\241\274\335\"\345\274\363\307\250\275M\316\335<zgU\275?\t1=\316\316\373\275S\3654<k\317\236\275\014y\017;\344\313\357\275/*f\275Go\346\275\235\230\303\275\001\250\237\275\374\242\257\275\2756\241<\265X\375\275eO\037\275\350v\237\275\260\010\237\275\262}\374\275f\021\201\275\214q\224=\332U\310<[\355\337\275\225<\240\275L\347\001\276\305\357\316\275\367Z\217>\231i\341\275\222\226_>\037^\244\276\035\010\343\273\360\020\204\274\344\266\367>\376YV\275:\'h>\225Z\206\275\245\314\300\275\346\001\270\275B\273\210\275A\223\022\275N\316t\272\256\335\313\275A\007\346\275\027E\006\276\001>*\275{\353\021\276\210\237;<\212\304\320\275\204]\316\275\217\323R\274\\/\250\275C\017\034\275q*c=\353M\352=\220\302\243\274\365\342I\275\332\035\311=\301|\274\273\325Zl=\007\377\315\275Ub\006>!bL=\310\240\323\272 \000\263\275H{\n\274\3622\267\2743y\223=C8\265\275\226\274$=l>\270\275\273A\330=\2132\225\275i\371g<\370\306=\274\263\260m\275\277\206\031\274\324\035\251\274\253\347\256\274]{\002\275G\'\210\273d2\234\275>\365\304\2748\325>\275B\277\230\275\312\025\355=\342\206\017>W9\237;\005_\006\276\375\335]\274\371\017\201\274\314R\276\2748\217\211\274\270\017+<v7\223\274\3400=\275\276E\271\275.\202\276=7\014D\275k\004\317\274\021\177\241\275|\242\246=\215X\260\275\256\242\226=\274A\237<\265\254\004\275\256\220\254\275\205\'\324<\221A\202<\027\350{\274\225\321\016\275q\221\005\2767\254\216\275\315\342\235\275\001\036\005\276\234]\251<\217}\205\274c\246d=\274-\254\275\221\215\311\274\224n\003\276\371<\005\274\254e\343\275~D\270=\312\251\304\275\0162w<\246\362M=\341\3216=\024a\242\275\241\210E=)\001\207<\025\3158=\237\276\327\273\177\306\310=\000[\r\276\240i\372=K\321\016\276\001\247#\275\275\273\345\274\270\2770\274\265\033\302\275\304\343\373\274\257\362\002\275U\004J\275\203\326\217=\230\275\365\275\361z\370\274c\305\257\275A\256\376\275*_\214=\245+\265\275\305\224\320\275G\206#\275\343\266u\275X\350\247\275?+\333=NZ\222\274\034\3379\275\364\302\020<\262@\017\276c\341\252\2744\246\212\274!\014\256\275\373;\202\275S\320\263\275\271\333\221\275E\371\351\273\240F\301\275\307\3074\275Q4\320\275\222\217\r\276\260\244O;\326P\013\276:<\376\273\232\303J\275J\347\311\275h\260\370<\232E\234\274\346a\002\276\226e_\275\022a\006\276{-h=3\177p\275\257=A\275\355\003t\275A\233\243\274\215g\324\275\000\364\302=\210<\321\275gH5\275B\230\243=\211\271C\275|\217u\275\013\201%=\222\200+\275\210\340\333\274\264\000\233\275\230\312\260\275\270H\256\274\002R\013\276iu\256\275\310\220k\275w\346\013\276\2451\340\275*\305\367\275}\357]\275\201\327\331\275\340\377\010\2760\2152\276\004-\347\275--M\275Z{\017\276Sa\312\272\375\202\270\272i4\334\275\235\223\242<\232\256l\275E6\235\275\350\264\305\275\276}\200\275R\316\007\275uG(\275\3248\352=I\027\n\276E\241\236\272N\3070>\327\247\260\274N\273g\275\334\261\301\275\322\251\224<+z\331\275\013\033\010=,:\021\276\016\305\200\275W\203i;\372\0024\275k\020m<\233&\214\275\354Q\322\274\251\365\204\275q\264f\275\254u\004\276\372\355\023\273<i\273\2757\243\274\275\261^\253\273\264\364\370\275\372\342\314\274V\341\273\275\255\2118\275\363\024[\275\204\357\027;e\030\\\275\341<\004=\034\320\013\276\265WX\275\360\233\223\275\365)\032\276\365\2535\274\206h\240\2747\330z\275\343\246\256\275tqu\275\345\360\257\275}\032\317\273\371lo\275I\213\333\275\2368\231\275hm\241\275Te\002\276m\355\034<E\207\026<\002\320\213\275:\373\n\276\332u\215\275U\021f\275\233\n\023\275\344\230\324=\022\364\003\275\233\260\034\275\325\317R\275\363\337\237<\243\330\006\276I\301\333<\371\014`\273f\244\026>\2629)\275\0103\027\275?\212T\275\240L\317\275\000)\235\275)\253\236=\275\300n\275\376j\301<%5\337\275\344mQ=M\216\010\276\252\373S<V\315F<3|T\274\313rr\273\203\0369\275\336\323\375\275c{\361\275G\310\315\274\242\334\005\276F\361\214\274D\364\326\275\272\333\261\275\225\246\320<qe5\275#N\371<R\032\003\276\260 8\275j\331\003;I\317z=\363\217,\274\361sr\276Z\266\274>\307\272\t\276\355+\300\275/\251\301>\275q\004\2764\272\222>\243\001\377\275\322\256\273\2751\025\372\275\360!E\2751\001\016<\254\207y\275\205\222\263<\023Y\244\275\370\257\271\275\245&\305\275\213\353\366\275\272\035<\275\301\206\363\274\340\235\223<\341S\026\273.\352\005\276i\347\224\275\215\250\032:q\027\350:\240\333\000>=w\210\272\240tX\274a=\314\275\271\324\304\274\344\022\211\275\256\030\222\273\212\221\306=\354\261\022\275c\300\303\275\304\306\343=\310\306 \274\371\352\212\275\021\301P<\203\224/\275\247\006\002\2769,\241<\260G\027<\021\241f\274\257\216\247\275\037\212\000\276\016\237\206\275\246\004\326;<\177\306\275\223\326\017<\030\354\263=\210x\345\273\255\277\322\275\273\204 \275\366\350\272<\217<\340\273\316\220.\275\027\255\035\275\316\333\016\276\374qQ=\310\253\n\276BhR=\261\332\241\275G\304\233=\256\342B>\341.\000\276\304I\316\275\317\345\227;r}\205\274))\315>\2537\014\276\357\232\344\2750\022\252\275\034x\225\275\210\212\253\275\345tY<C\031\304\274L\177\211\274]\005\326\274\223\277\007\275\306\005\243\274\230\037*:\360~\020=o\325\177\275mv\271\275(\236\347\275\210\303\251\275\"\372}<\204\203\256=\356\331\321=#08<\202X\203=\230\316\346;\301\275\342<\337,\365\275Y\353\254<W\025p=e.\203\275h\266V;v\203\247;\016\342\304\2758.\210=\313r\002\276\360\323\234<\325\304\303\275\031\340\361\274h\251\325\275\010\225\017\274a\\\243\272\317\274\006\276\234>\006\276g\226\3509\307t\257\275[\224\245\275$\010_\274\376v)\275\304\t\013\275\216V\020\276\277\025\372\274`sL=\264j\372<\325\266;<v:\022\276\0244\036=\304\334\223\274>A\344=\361\236\334\274\236}\241\274n\235\232\275\023\ra\275T\373\207\275\330\306\000\276\017\227\357\274\274\372&\276\236\275\235\274:f\t\2761\000\273<i\255\335\275\252\332\001\276\273\250\273<\254\177\212\274J\260\005\276\271\207\254\275o\230\344\275AH\224<N\254*\275\370\034\247\275\\\'\020\276\203\326\336\275g\037\200<OM\324\275}\274\205\274M\\l\275x\316s=iL\376\275d\032!<\033\373\206\275[n\323=\354X\213\275\001\256\236\274dR\026\275\020}%=\243G\305\2757\307\204=M}\000\276\000\275\261=\234\256w\275\361\247\361\274\362\317\337\274\031e\013\274\200\026@<]\342\036\275\370\273t\275v\202t\274\275\r\311\275\376\277\360\2750\013\330\275\303@1\275\234\004\261;F\352\352;\r\023\253;\006\325{\275$J\213\275\227\014\216\274\224\3359=\007\020\254=\351\217\204<\n\000\003<\013V\232\2743\235\216=\325\347\023;\013\256\016=\346\037\347=\204k\010\275c\325]<\264V\365<(\334n\274\304\203\037;Z-\245\275n@3\274O\r\r\276\273,\202=\350\306~\274\330\027\211<\3430\263\274\315\004\251\275\257\006\211\274\252\343\307\275q9\374\275\363\203\260\275\325\027\370\275\371i\331\274{A\240\272\275\234\r\276\002\202\356\275\213\215\013>jh\230=\361&\247\274j\363\r\276\332a\244=\222\\\005\276\t\321\271;\360\010\202\274H\325D=i\016\235=\237\324\023=\344\213\232\275u\353-\274\255\234 <IN\255<C\373\231\275R\203J=\216\226\265\275\t\317\266=\314\221\213;\177l\235<\360\'\201;-\257\\\2735\266\301\275\306\216\360\275\207\014\213;U\241\266</t\271\275\022\372\306\274W\335L\274\316\237z\275|\357\007\276Lg\316\274\303~\251\275\000P\361\274\276(u<\234R,\275{\014\n\276`\342\006;\267\310\013\276ke\233=\321RT=\334\343\361;\240\0142\275\031\206\010>e\324Y\2741\226\274<\343\014?\275D\207\036\274VB{\274o\242\374<\363-d<\271\322!\275\272\325\244\275\370\006\212\275\367\211F\275\032_\274\275\020\302\177\275i\232\003\275\325\241\304\2744\345\204\275\324/\300\274B<\374\275\267\256B\275\025\264\006=\330\240\341\275\330\366\\<*\215y\275\360L\231<U\257\265<%G\233\2726s\213\275\2037\010\274AlA=\0310\235\275\202\354\003\276&\235j=\272\n%<%M\230\275\020@D<\215S\216\275D\013\234\275c\r5=V\"\253\275QP\346\275XM\203\275\001\305\347;\024\226\220\275O\352\025\275\360\200s\275\311I\303\275\201\017+\275\262\242\232\275\332\177-<\265A\335\275\237\320^\275\340\"o=E\350\323<lwc\275Q\212C\275%\221\221\275\034\272\226\275\365\256F\275\022\201\007\276C\rA=\023h\245<\006)\003\276\376g\360\275\2464\242\272\213\371\027\275\205\t5\276V\212\345\274\246\000\027\275\013\337\240\275$\315\260\275t1\256\275W\021\234\275\367\264\013\276\247\330V\271\033\323\n\276\350\223\341\275\3142\210\274jR\006\276K\226\020\2756\n\301\275\345\316\340\271\350\335\017\276~\261L<\002\215g=1\335\315<\364bT=\263\364\230\273\237\316\347\274\024\273%\275\007c\254=\210\235\303\275\215\320\223\273\255\350H<\003\275{=\020\021\356\275\323f\n>\272n\244\274\275\021q\275+\n\263;Y\024\325=\006\370\022\275=3\226\273Of\204\272\2504\\\274(\350\035\275\331p\234;\271\256E\275/;\315\275;\314\324\275\334R\242\275x\030\240=\300\001\342\275\002\272y\275\030\313\312\275\270\340\306\275a0\343=\205\217\022= \373\314\273\017e\355\274\373UH\274\302.\243\275\222=\005\275h]\010\274i\233V\275\266^-\274\020\"l<\222\324\006\276\016\323v\276\210\373\253\275\000\215\223\276\177\212\367\273%A\275\275V\005\307\2747i\224\275U\347\236<\364\373#\275\260\020\222\275f\322\001\276\277\370\325\274\034\377\013\275\276\305\364\274m\364\312\275Si\016\276\215\265\316\275\237?\263<\267\306\233\275u\276\t\275\321\221\001>\352\033\303\275\305\223-=u^\346\275\1772$=iz\341\275\242\362\207\274\203\025j\275h\247\301=l.o=\230\000\337\275q\261s\275\201\341]=P\274\311\275\004\001\t\274;\301\203\273\330\242\204=Nr\266\275\017\310\310=\025\356*\275y\314~\275\336\271\322\273\354\014\005\273m\360\244\275MZ\022\276\226\355\272<QM\224\273n[\006>)\264\355\275\340\367\003\276j\350f\275\367#q<#\331\246;L\223\275\274\250\331\261=%\324\262\275\026\017\003>\246w\203\275\263\252\277=\300+M\275\2142\325<\361\217\360=\250\020j\275xz\"\275\016\021+\274\205\021\203\275}v\036=x=\250\275l\322]=\t\014t\275\346\200\233<6L\344\275\220fK\275\353\025\355\275>9d\275\027b&\275\352\346\306\273>\036\307\275\212\032\305\274\253\016\306\275\331\330\226\275\375\033\261\275\024\275\'\275\036\337\252\275\230\027?\275\002\036&<\2135\202<\005\235\002\276L\276\206=G\021y\274\376[N\2769\000\031\274\240E\203<\201\330\032=\366+W\274\335\315P\275\256\001\237\276ht\036<\236P\034>K\352\r\276;\231\360<\337}U\275m\273\035\275\000]$<\022\371m\274\001(#;*\363\265\275\017&\356\275\357\212\274\275\245@\222\275\312E\033\275\355\210\246\275,\363\230<\345ur<\210l\256\275\337D\274\275F\345\212\274\014\\\363\274\247\'-=\250\365\260\274\273\257h<\026\275g\275\021`P=O\357\247:\316\255\266=n\223y<\336\217*=\017$\'\275\'\257\332<\334\202r\275\010\234\242=O\246\274\275\363\023\277=Ei\221\275\213n\337=X\201\373\274~a\022\276>V\025\274\276c$\275\232\t\001\276\007;\337\275o\270\032\275_!\264\275Iz\200=Lc\274<Y\317\273\275\267\366\001\276Zq\221;u\311\001>\342\320\217=\276|\336=\315\221\274<\202\0078=\030\263\302\275\2763\310=\311\366\254<n\276\200=\230~\336=\270\342\035\274P\376\003\2761\350N<\341\\\225\275t\273N=m4\377\275\377\323_=K2\007\276\364;\257=\347\216\255<4\364\017\275:\024\336\275EB\013\276VP\004\276\\\340\254\275\212\343\270\275X\001\326\275\210-\203<\362\207\211\274V\314\022\276\314\364\344;\343\036\001\274\205\227\006>\277Np\275\254\001I<\335\231\222\2737\356\312=\265\345P\273\261bN\275\225\346\022<\000\316\345\273\305\310\025\275\215\377\005=\217/\302\271\361a\317\273\336\2346\275\333\311\310\274\005[\315\274\330WI=\335\001\216\275\033;\222=\005m\343\275\355|\020\276\277\372\205\275\2017f;\354\033R\275 R\266\275\020\205\017<\376\270\005\276\000S\212\275>\324=< -\353\275B\210\003\275\310\025\007\276\230x?=\024\255!=]\214\322;\315\014\213;aG\025\277\006\213\326\275\251\220\234>\316P\035\275\226\262\236=T\272\240\274\321\rc\274a\242\207\274\207\003\254=\224\336\242\275\365 \317>S8=\275-2\215=)z\033\275\362\347\262;\036e\247\275{\226F\275\346\273\212<\313\237\230\275T\006\342\275\356\306\n\276f\274\356\275\233/\220;\274;4\274\244?\304\274\007\354\007\275\206\026\241\275\027\365y\275\001\337\224<\272\342\212=\246g\003>\346\342\006\276\312\325K=\344(\227\275\337\234\252;\226k\017\276\265\244y=\002\031i<\031\003\332<\307\367\206\274\324d\233\273\316\250(\275zri=I\223\245\273&i\373=\353\026X\274\t\262\t\273\252w\344\275\333\322\271\275\271v\371\275or~;c\021\314\275\300\332m\274\225\256u\275\'\007`\275/6\025\275\257(\010\276\002\332\036;\214\313\005\275cJ\022<\271h\360<\341\001\006;\210\303\035\275nb\375\275(bd\275\373\270\003\276\307\275?=\337>\263\275p!|=i\241\233\274\024\0109\275\233\300\367\2743S\337\272\343\007\r\276lh\227\275\362Pr\275\253\235\252\271a\325\375\275\221\206Y<\252\315\340;p\\\227\275H\205\021\276\372\274\014\276g\034\005\274f23\275\243\205Y\275Y\366\311\275\376o@\275\002\271\245\275\321x\020\276f\344\177\275\375*\225\274\004x\263=\353\320\t\275\301\010\\=\031\2338<\036>\271<|v\263<\036\377\373<\0372\303\274\335\331\233=\246\313\035\275\016\t/\275%\364\030\275z\366\004\273jk\275\274\257>\335\274\235\304\226<\347\200\334=\002\311\021\276\'X\003>;i`\275\026\275\t=m\320`\275\246,\034<\215\213\210\275\365(\276\275d\257\270\275_f=\275\256\253J\274;^\325\275\223L\300\274T:[\275s\236\230\275\"\370?=\323\027\001\274\323\272\253\275\357t\375\270\346V\207>\367]y<\320lo\276\275g\270<\035\250\006>\255K\254\275\355`\330\275\327\032|\275\212\344\236\276VY\300\275\014\273\257=\260\300\232\275\317M\021\275\354\275\206;\220\260\325\275_E\010\276\320SO\275\213\314\004\275\353\311\177\274<\225G\275\356g\347\2741\247\264\275\317V\201\273\315#<\276\253\\\353\275B\210\314\274\r\224*\273\364\270\352\275\345\221\303\274\233\224\200\275\325\344\244\275\352\034l\274h\334\016<\317\344\373\275]\273F>\244\320\265\273\261Rm>\022Y\344>\370\213\336\275\236\301~\275\302n5\276\373w\014\276\215\215\006>\240\367\332\275M\204\264\275\374\017*<\344\331\234\275\276\335\335\275\'9\215;\364.U\275\261\025)\274\027\177\202\275\323\317\327\275\210u\007\2768\370\375\274\032\244_\275|\223\365\275fG\344\275F\227\347\2751NB\273\204\305A\275\324\302\021\275\'6L=2`\n\276\326\251\021\275<\313\'\275\327+\260=&w4\274k\016!=\326\223\250\273\340\325\215\275\033\362\001\276,a\233=\362\255\202\275}\370X\274 \304\303\275\326p\316<\016R\335\274\344k\225\274u\370\237\275Q\010\243\275\257\347\314\274\031\237\324\275Y\270\016\276\225\211\325\274\220M\234\275$H\003\275\257\205\234=x\005\321\275\357\352\237\2754\n\236\275\272\224\303\275\321\372\313\275`\361\010=\206Tt\275\037\311\205\274\326Y\272=\332\036\036\275i+\350=\'\371!<\004\263\301<n\017\342<\222\272\013\274\237\273\254\275\257\t \275\334\037\302\275\366\037\376\275\264\264\020\275\376\352\203<D\372\262\275D\247\243<60K\2721\311\330\275md\241\275;L\314\275N\353q\275\363\246\r\276s\250\211\275\347\231\361\275\014H\352\274\215\201\277\275\265\246\324\275\002\020=\2745\336\242\274G\226h\275}\273S<A\376\001>\037\241\370\274td\215\273\342e\034\275\304\274\366=\223\260\030\274\354\2236=\367\264)<\021g\347\274\223|\370\275\373\273\223=y\231K\275g\312b=R!\277\275a\250\304<\311P\337\2750)\362=j\000+\275U\346\004\276\360O\r\276\323\304\336\275\221\227\013\276\336]\261<\211\211\233\274\223\266\305\275\237\370\247\273\335\333\226\275\242f\202\275\203L\016\276\200\275\n\276\341\307\222\272\201\237h\275W\266\350=\352Z\274\275@\225j=x\307\265\275\222\036\024\275E\306\275\275\365m\377\274=2\353\273t\034\257\2754\\\307\273\014a\276<h(j\2753\037\244=\267\300k\275p\332\000>\025\215\035;<G\010\275\272\000\217\273\303J\276\275Ky\373\274~\262\223\275\033\025\r\275.\305)\275J\344\021\276b\247+\275>\244\021=\231\314.\275\177B\322\275]K\242\275\316\022\001\276\247o\304\275\326_;=\200l\366=\340\010a<\"AS=\2431\201\275\323~\013=d+\361;p\352a=\273\256\016\273e\241[\275\221W\260;lrh\274e?\246\272\003\266\010=\313\270\373\274_\355==\366\237\037\274oC\005\275}\302\003\276\273\344\357\275\212*\260<\243<I\274\365\343\263\2751C\311\275\350\022\365\275\215\323*\275\234\255\221\275\345\341K<\376\215\006\276\3668\271\275\233\316C\275\354\226(\275^\247\240\273\nQR<SM\372\274\244\322G=13\370\275\335W\026\275\320[\227\2750\035\027\277\\\\\346\275\251cM\274\026\322\350\275[\326\240\276b\305\322\274\354\375t>>}\266\275\nm\332\273\3033\007\276\363\336\006\275jj\324\275\032!\252\2752?;\274\301\210\\\274\266F\337\275\236Ag\275>i\315\275\377\341\312\275\346\2410\276\374\373\205\275Z\016\006\276\013)\224\275{\311\366\274\371\311\370\275\323\366\325<X3g\275\244#\232\275\214\265\263=/hQ;\000\002\300=\245\036+\274\302\276\014<\306\264\317\274>\224\017\276\227\021\205\275\003\270\002\276r\340\007\276\"\372\261\275;}\357;#\244\203=)g\240<\374\344\375\274M{*\275\350\021\305\275\245i\322\273\246Y\256\275`\227\010\275y\237\266\275E\246\240\275O\244\345\275b\244\313\275\230\334\353\275\334\224\320\275\254\310\375\275R\307\374\275v\225W\275nE)\274f\007\001\276\200u\265\275\205v\200>M\347\306\273|\336\032\276\204\035\366\273\244B\317\275\237\332\317\275z\"\373\2754\316\324;\363\212\223>\2075\315\275\221\006\245=\274W\000\276-\211\323\274\236\216\344\274H\035\017=\306g\372\275\203\225)\274Q\323\247\274>;\346\274\006}\376\275FEn\275YQ\224\275\245\362\206;\335\204(\276Y\021\201\275\335\361\325\275`\222\272\2756\204Z\275\037\307i\2752K\024\275\336\201\013\276\274\327\\\275\324\354\326\275\010\364\311\275/\036Y\274n\t@\274\327\3327\272\202\321\016\275\367s\032<\347\013\t\276\2618F\275\026\266\336\275\021\333\025\2764\245\336\275b\205y<i\203\364\275\305\262\362\273d\310\200\2744\301V=l\225\026\275\341!\022\276\231\204\273;\245\024\030\275\341H\346;US\223\274\321\010\214\275\276N\222\275\033\311\263;r.\353\275\022m\275\27595\034\275\327^\002=RL\303\273,\265\301\275\320\301\003>:\177\262\275\261X\272\275\304\307c\275/\014,\277\213\353\032\276C\214\317\275&sJ\2758\266\260\275\013\217h\275\212\342 \276\335\031D\275\\\2673=\370\220\341\275\200a\372\274\345\262\366\274\022\336\216\275\236\342\321\275.\237\266\275\224\362\226\275\304\314\320\274I\302/\275X<\212\275\320\000&=|\262\274\275\310\2118\275\267ZI\275 \344\207\275\263^\207\2754M\207\275\013\377\262=\207U\221\275\313\234\273=\242\026\r\276\331&\230\274*\250\373\274\351\312z\275\036\324\020\274\255\256\251\275\320&\372\275\014\326\275=\302:y\275z+-=\257H\300\275uQ\007=\266\006\273\274q\210\"=p\277\256\273\224\366\210\275`(\240\275o\014(\273\023\253\250\275i\357\257;\235\275\007\275\\f\261\275\006\360\321\275\373\036\010\276\337\235\004\276\356\r\247\275\213\260\340\274\020=\374\275!\0052\2722\002\212<\231\231y\274~T\250\275\021 \341\275%L\331\274\367\221Z\275\034A\212\275T\253\021;\251P\337\275uo\363\275\314jc\2766\236\366\275\000\t\220?i\354\t\275\351\272H\275\334\342h\275\n\345\307\273;\253\254\275\177a\321\275\235\322\244\275\313\033\017\276\257\246\010\276U\036\247\274:\300\376\275+\367\337\275\325NZ=\223\t\004\274\364\337\212\275\344R\363\275c\207\220\2735\224\376\275\357B0\275\352\206\035;\376\027\355\275]\243\030\275\331\2138\275\207\366}=\247\364\310\275\230,\271\275\\\240\234\2749\313\024<\315?\207\275l6\2669\363\331t\273\274\3066\275\343\305\340\274\2473\264\273zw\210\275\310y\344\275\371s\342\275p\356G<\250\354\211\274\256\3245\274\346\237\016\276\034\305\327\274\244\277\246\275\tS\243\275\344\031\216\275N\263\327\275\362\220\376\274G\360\\;\r\030\233<,U\225\275\017\024\373\274\032Y\264;\024[\345\275\270\233\004>z\374\323\274!\355\370==z\277\275\351\336\026\274\223\344\271={R\275\274y\355\260<b\207\226=C\237\301\275\001\266#=[%\t\276N\346\036=?\256O\275\312\316\003\2749\375\313\275\016\020\263<\"\377\r\276\0221\326\275\260\330\n<rp0\274\212\203\221\275\220\025\327\275\034S\036\276}\240\331\275\357t\213\275\367d\251\275\314B\374\275\2338\225<C_\237< \277?<\'\371\354\274C\347]=`\227\257\275;`\217\274\005\016\276<\212\374\014=(\253R\275\302U\234\275=\2715\275\272\335\314\275\323=T<55I\275F\374\215\275]*\250\275S0\266\275]\337\202\275\235\005\253\274ot\235\273l\301\001\276\375\\|\275\353\373^\2751Z\276\275\264\351\201\274_{\230\275b\234\007=\363\275\324\274^9\362\275{\334\265\274\202\336\335\275\022\0026\275\225\363\212<\245}\214\274\213\266\241\273e\333/=\245o\325\275<\207\217:{Ns;\304\271M=\035\362a<\245}\035<\227J\345\275\240Fk=V\266\222\275\244\205\205=\351\357f\275\233\372\357\274\340y\330\275\025P\021=\250\301g\275\200j\376\275\360\236\304\2758z\273;32\233\275\363o\356\275\364\370.\273F\354%\275\213u\215=\207\334\3419\005L\020\275\345`\211\275m\r\224\274\342\\1<\235\272\276\274\'\304P<\026\236\313\274]\2318\275\222\345\005\276 yt=@\265|\275\310s\327\276lL=\275\264\222\231\275o\272\022\276J\347\033\276p\017\326\275:B\212\277\223\266X\274`\217+=@\302\201\273\347\261w\275\333\234\232<}.\336\275\214\364\200\274$\203\260\275\010VT\275\273\266\241\2753\325\360\275L\2219\275\003\024\312\274\246r\351\274\027s\007\2754\337\371\275\322\332\272\275^%\301\275\025\035\337<\274\250u\273f%\207\275\265\352Z\27607e\275\317\\\366<\273\010_\2753\267\220>\334\004\212>:\n\275\275\t\004\017\276\247\236\215\274\226\366\006\276/\336\032>\223F{\274\273\005\230\274\211\255\205<\026\370\220\275\036\246\000\276\317m\336\275\215\374\000\276\3232\034\276\037wc\275\354\024\270\275\377pC\274H\007\315\275J\273\224=\255\365\270;b\367\202<\375x\344\275\342\233\322\275\313G\201\275\001J\316\275u\001j\274Kn\301\275\022\003\321\2766\242\372\275r~:\276\'\360\321\275\251P\370\275~\240\267\275|6a<wX\215\275\344xC\276\366\305\302\274[\221H\277jB\264<\267\323s\274\304\360\275\275\003\3121\275c\331\353\275^r*\275\362\310\206\274h\002\377\275\014nS\275\342K\264<QK\346\275\352\240\224;\342s\222\272P\314\264\274\177\353\242\274\337\326\244<\270e\000\276\371\027W\275{^\264=T\274C=_W\005\276}\243\306=_\254\244\274l\313\313=\325\265F\275\001&\264=\356\354\221=4Q\252\275e\341\346\275\260$\216;\353@\260\274;\377\022=9n:\275\327\230\033=\t\212A\274\270bx=\024\345z\2753\230\342\275\247\251{\2751\026\363\275CK\016<\317(\001\276\363d\333\274l\353\354\275\332\251+\274\025sl\275t\205\261<\231\312\027\275;\313\300\275Q\310l\275\225\364]<\227|\216;\001\323\230\274\003\227\225=qp\014\276\364\227\306=\214\026\033<~\022o=tt\237\274&\202,\275iO\022<h\351\304=\263,o\275\242\330\336\274\222`\303\275\314\347\375=\253\211\344\275\241\267\230=\232\024\266\274\013\327><\032\312\247\275\335U\276\275\'\016?\275S\245\223;\375fe:o\375\006\276p\270\360\273\316\354\310\274\230,\027\275\245b\260<\367?$\275\253%\210\275\337}\355<4\212\024\270=<\250\275@\237\234\274<\000\031\275;\245\005\275\036N\350\274\207tH=\001w\252=\352\360D\273f\210z\275Tgs=,$L\275-\226\333\274\021\000a\2753Q\333=\256\356U\274\273V\266\272\303A{\275\266\033e\274K\267z\274\331h\366\275oy\244\275W\001\007\276\024u\314\275\026N\234\275\023\014\201=\027!\270<m\336E\275\t\034\242\275\327\316\323\275?\237\336\275\333t\241\275v\332M\276\322\377\005\276\'9\210\275\364\213\247;\0279\207\276\024@\223\275m\265|\277\246)\016\277F\233\324\2750\250\350\274\332\320\224=\355KT<\231\267\217\275k\224\027\275 kL\275+R\246\275\001\236\031\276K\346\226\275\237\t\333\275\365\312\321\275\313\177\260\275g\234\254\275\\\253\230\275,\261\025\274\003\267\301\275\316\260:\2757l\313\275\253\340\307\275\213\030\233;*n\270\274*;\331\275)\205\005\276\372\304\235=5\242 \275k@h\274\350\032\237\2736T\301=\333x\352\275\203\267Z=\220\237\264=\225\310\241\275\267\236\006\276\032\013\261<\242\242\205\273\321D\025=\305i\306\275\272:\001=\366e\224\275\362\267\004=u1\345\275\306\024,=\241\235X\275\333\321\274\275|h\233\273(\357\013\276\353\324\321\275\232\337\261\275\3257#\276b\353R\275>\246\301\273\244j\373\275!\217\"\275\370\350U\274\001\255\342\275\236\317\240\274a\303\216\275\206\270\241\275=?x<\205\274\223=\277k \275\264d\024=w\263\027\275\023d\n\276Oh\001\275\241`\362;\302n[\273\311\304\354=\243\300\002\273i\2766;\254r%\275u\310\177<\320\344\234\275m\337\377\275m\305\215\275Q\377\254\274Q\212\316\275\377\267\000\275lj\310\274D3(\275\207\332\330\274\264]\312;\271\310%\275\310\346\326\275\207\032j\275\362\277K\275\327\025\362;\243\027\235\275A\376\340\275\300\010O\276\3420\257\275\037\361\006\276\363\2709\275\225\006-\276\025\2529\275\271t\202\275\343\242\362\275\3218\340\275!<\276\275\377gD\276\177\031\t\276\277q\353\275\226\n\017\2760c\253\275\361q\276\275\037\332L\274\356A\204;\375\223\010\276y\257\356\275)\335v\275\255\327\215\275l\177\217<k\345\300\274\200\276\227\275B>\000\276\201\301\010\276XS\334;\333\000\301\274\351\324]=\334\334\374=&\321\327:\327\357d\274\326c\275\274m\021\233\2748\316\251\275M\030w<\r#\233={6}\275h\\\017\275\273*<=\014H\342;\366\240\336=\326t0\275\312\212\013\273\364\020\020\276\302\317\267\274\274!\352\275C\037\375\274\373\330\376\275\331\346\357\273\254\300\310\275\336e\031\275\373T\366\275\322\034\270\275}\2335\274P\005X\275|\351\354\275\033M\031\275\301\224\230\274`\267\356\275\376\301\277\275\375.v=o\221\210\275\331\000\213=\331\214F\275cx\350<\031\233\265;\350\025I<a\227\245\275\340\340\214\275h\004\233<\274/\225==\216\223\275\'\365+=\200\354\250\275|\356\251=\375\305\010\276\357\234P=\270\341\317\275\031C\300\275\216d\322\275\030XF\275\3231f\275`\0058\275\306\005\263\275\221q\212\274l\003Z\275\315\340\213\275\0221\017\275m\270\351\275\241;\005\275\220k\352\275\310l0\273\317#\361=\350<\257\275\262t\314=n\344\245\275L\r\252\271\225R\021\273\242\272*\274\371K\314=42\351\275X\233\261\275\034\334\370;u\232=;W\036\277\274o\325\221\274\322\010\322=\363\t\035<\252F\323=\023+\215\2751]\246\275!\3705\275\016p\337\275\005\230\017\276Z\267\n\276\345SN\275\252\233N;\211,\211=\372c\241\275N\344\223<\370\025\221\275\033\343x\275\026?\206\274\302\327\244=s\302\205=?u\3259N\260\313\275\204\352\014\276\253\3662<\375\237.\275&\357,\275\r;g=\031_?=cM\220;[\277\246=r\264};\317\225\357\275B\304}\275^\267O\275\345p\275\274A7F\275\023\000\360\274\240\337\363\275-\363\317\275\026\210\022\276N\032\335\275;\033J\273\0325\013\275`1\334\275\224\313\327\274\323\371\n\276\034\321\240\275\247&\313\275@\032\274\275;G\006\276\357\263\364\275\301\276:\275%;\371\275e\335\257>A\333\225\275\t\261\210\276(\230\300\275e\231\r>\251\035\257>}\212T<q\200]\275\245\352\007\276\275k\345\275=\244\177\275W;\265<\230\204\017\276\024\305T;E\264\221\275\275&\034\274 \254\320\275T:\360\275\003.\376\275\370\330\006\2769\236\206\275x\372}\275\013\n\323\275\333x\305\275X\330\261\275>z%\274\324\036\224\274\354t\241\275\363,j\275f\331&\274d.\320=\036\002p<\003M\352\274\254\t/\274nC\260=\016\033\222\275\306.\325=\265\245_=\014\000M\274\345\304\264\275\310\\\226=\2359\212\275\267\265\265\274H1\240\275\016\376\023\274\231\325\020\275J\203W=3\270f\274\337\324\016>\224\t\314\275\320\250\222<\371\242\r\275\303\377\217\274\013\251<\275\213.\r\275Uu\037\273\251\304\270\275\226B`\275\014\223\013\276,\344\232\275\266\227\237\275\235Q\022>\371\235\004\275\177;\300\2757\357\014\274\331\215\306\275\2732i\274-\372\014\276\342pz=\213\240x=%\331\340\274\315N\277\2750\037{=>)\250\275\234i\212=r\007\244<\334)\366\274\300w\242\275\315]r=\333Z\355\275u\323\352\275>~\346\275\335\262\241<\014\230\220\274\025\300\251\275v\024\316\275i\036p\273*\357s\275Z\354B<d\213\255\274\021\211\204\275\323\314\241\2758R\241\275\2407:=B\032\304=\013\247\300\275:\320\207=\333\210R\275_Y\376=\033\352&\275\347\200\205=`\247E<\307\363\262\275\202\020q\273Y\024\005>[\265\004\276\347h\277=\204m\260<3\013?=\247\270i\274\317\257\263=\372x\002\276\240}\200\275\r\274\026\275y\304$\273tK\001\276\227lY\275\3307h\275\030E\306\275\031\370\013\275\023\210\365\275\343\373\372\274\365\r\027\275F\006b\275\001\257\'\275\257\312\330;\020\000\233<\3548\022\276\373\325d\275\344\233\276\275E\213\3529\316\217\202<\'\215\311<\334aX\274Z\266&\275\']\331\275\334\233\363\275\302\036\265\275\320g\265\275l\355\014\276\205PA\274#M\232<\t\375\'<\020\024\223\275\001\000\256\275{\373\244\275\334\244w\275@1}\275\245\322k\274r \204\275\005r&:\22428=K<\020\276<\350\323\275S\207(\275\201FR\275\233\037\017\276+;\30492\331J\275w\203p\275\244\247\374\272\337O\376\275\033)\301\274uJ\374\275\305\323\366\274d\305{\275\354\262\233\275\206=\344\275u;\207\274\023w\234\274\321\352\006\274x\300\003\276\327/\032\274\021\264\277\275>\226\344\274\270\327\017\276\0148\254\275\356\214V\275\332\0173\275\351\216\005\276\201\203\305\275D\265\035\275\316>\003\276\333;\345\275\314t\306\275\353\270\343\275\317\231\300\275\023\217w<_\370\205\273s\177\224\275t\013\355\275\360\307\217\274o\221\211>\200[\205\275\374o9\275\002\024F\274\350I\207=7:\246<\357\233\013\276\232\014\n\275\017Jg\276\013\355\327\275\302x\245;J\363\\\275\234\326\330<:5\301\275^\333\230\275\230\372\340\275\037\007V\274\177\330\343\275\243\027\316\275\266(l:\333\303\222\275\227\373N\273\211\265\017\276\325~\014\276\000\262%\275\3050\304\275\r\263\250\274\313\025\033\274v/\241\273\242+\257\275\030\343\250\275\005O\001\276\233L\003\2763\346\024<p\301\356\275\371,\361\275e\250=\276z\200\020>\305/c\275\033\203o\275\002\237a\275\2361K<\030\351n\275\244\237\334\274\334\347\206\274\367\256\010\274A4\311\272ia\303\275D\302\001\276\276\375\356\275\320D\225\275\331\021\244\274\205<D\275\207o\353\275\223\364\334\275\323\331j\275\014\371\376\275\355\245\001\276\243\021\020\276\335\206F\274\277\364\n\276\306\317\273\2754K\211=\200d\022\274X\005\031=I!l\275\211\332\262\275J\234\\\275\005~J=\312z\257\275u\023W\275\254\270\222\275\024\361\264=\tS\013\276w\241j\276\2702\022\276u\220\214<\242\236\t\276\220\303C<\375\351\023\273\023\"\305\274D\324\352\274\307\272\374\274\023\224\322\274\023J\350\274\327\311m\274\300\242\216<\276\001\236\2755\245%\275zn\372\274\264D\370\275L\3261\273c-\234\274\377\370\301\275\245lm\275d[\324\275\017\001U\275\005\2026<t\354\375=<\305\363\275\377f\372\276K[0\276\352%\303\273X9R\275\274\013\311=r\222i;\214\253\000\277\272\202\251\274\310\205\346\275\241\021Z\275\214\355\234\275\225\220\003\275\235/\210\274\242\203J\275\023\231*\275\244\271j;i\'\t\276\014Wl\275*o\352\275\025\021\236\274w\362\267\275Iq\235\275\202\256\220<\363\235\005\276\255\037?\275\253ru\273\203\352\206\274\342\037\252\275\245\000+\275\007\t\373\275\261\273\310\273\200\237\037\275\027T\206\275\013\022\'=5;\252;\t\005\016\275\305\356\222<\305a\327\274\023Z\341:\344\221\305\275p\022\270\274\2675\177;\206\013\316=\367\352x<\022\005\"\274Cg\202\274\007\312\205\275x\225\224\274f\251_\274\331\244l\275\204\213\007\276x\221\t\276\323\217\227<\323\330\237\275\030u\343\274\264\223K<\332#\260\274X\244\210\275I\346\356\275c|O;+NJ>\244\377N\2750\006\266=.C\266<g8\232=\200\225\374;3\376P\275\305\263S\271\211\355\215\275\ru\334\275^\0211>H\020\366\275\272>\004\276N\217\353\275\001\245\367\274\351\246)<*\3734=\373a\240<\374\225\t\276\344\250\001\276X\030I\275\313\302\210\2757K\337;&\\-<\324\211\217\274+\261<\275\344\227\226\274b\001\276\275\016lq<\233S\314=\353\013\332=\224\354\334\275\375@\022=k\330\372\274\362\332\231\274:k\233\274\324(f=r(g\275\373\237\270<2Z\017<\353\006\213\274aM\324\275\365\\\004\274\267d\r\275\271\230\023\275\341\245\002\276t\337B=\241K\246\2755\017\202\275o\223\272\275\356\3416\275\242\036\371;n\235\022\276r\027\243\275\'-\236\275\376C\025\274s\251\003\276\010\025\366\275\362xE<\013\nn<\025\001}\275\002O^\275\305\302\205\275N>\345\2754C\031>Q@\222\275\206\321 >\033dr\275j6\223;\235\340\327\274\370\035?\275*\251\343\274[z\r\277\200a\177\275\334\260\323\274$\273\242<\2717\013\276\261=\275\274M|\200\274u\367[<\214\375\306\275^\361\257<HT}\274\277\221\337\275w92<c\350\326\274\266?\305\275\317\235N\275\t\\~\275\307\277[\275\020a\351\275w\253\027\275?u\275\275\032\177g\2752|>\274\231\275\n\275\200\306a=fs\275<\007\002\346=\221\217\004\274\336\215\221=]\000);\3476\213;\275\037\237<\354\325V;Q\303-<y\345\317<\033zl\275+\352\323=<\013\223\275\201\353\335\274Hx~\275;$\227\275\363\211\205\274\r0\325\275f\364\007\276\026\356A\2743\344\017\275h.\330\273\002J#=2\224\224\275%^\362\275\215\321|\274y4\217\274\222\302)\2751\254\306<\206\324\316=Y%\274\274\316\375\n=\323\265\341\274F\313\264\274\272\341_\275\033\016,=rz\370=\262\363\207=e\257\345\275\254\341N=\341\324W\2756\304\231<\233\207\216\275\"b\244=\t\364\023\275ZT)=\251\205Z<\220)z\275=\222\250\275\311#\372\275\253\255\270:\373`m\275tp\357\275R\225\345\273\316\004\002\276o\301\201\275V\257\212;q\226\004\274!\224\340\275\017\367\366\275\016\373n;>.\270=>M\334\275tn\333=\027\343\315\275\300\257\234=\266\260W\275[r\364;\363\222\217<\370\336\233\275\270\034\320\275\352\317\316\274D\264\364\275a^\360=M\227\226\275\233X8<\227\246\270\275\315\236\362=\311\307\010;c>\340\275\276\230T\275\\ \226<\365\234\336\274\033\276\266\275\370\261G\274\001\230f\275h:\273\274\366|\251\275\346rY\275lX\376\274\026[\007\275\230\335\331\275q8}\2724\321\311=\365\376\376\275\004l\321=*/\215\272\215\312\271=\345\377\326\275|\322\026=5\014\320=\0359x\275v\177C\275\343o\234=-\033\226\275\241B\345=\377{2\275\027\000\315=\335pJ\27482\212=\327\351\372:\240{\331\2748\031\177\275c\223\016\275\330\360\304\2754\270\226\275\014=\023\275\271\265\350\275~\005$\276\227~\225\275\311\235\351\275\033\255\303\275:\251\260<\3564\261<*\250\246\275\332U\276=\t6\017\276\333\334\223=\315\214\263\275\006t-=\020\034\266\275n&R<r=\032;\360\334\347\275\242l\000\276\007\006h\275[\257f\274\263\277.=\02230;\024l\021\274b\327N\274D&\222\275\307\0326\275\223c\201\275CC\351;\326[k\275a\205[\275\303\037m\275F\311+\275\330\200\177\275BbO\275`\316\355\274P\227F\275\020\371\360\275&Z=\275\3738\307\275\223\332j\273\016\365\207=\031\000\367\274\020\003$\276\027dX\275#\205\270\275\314\345\206\275\271FU\274\026\034\207\275\371\371\025\276\026\n\251<\254]\220\274./\014\276-\\\260\274\265\212\321\275\247\264o\275\330`F;/\332\035\273j\322\267\275\344\r\237<q\034H\275\021\2431\275Q\374\322\275^m\247\274\244\010r\275\320D\317\275\266\030\025\274\263\341t<zi\n\276\210@\002\276\340\243u\275\363t\263\275B<T=\212\265\206=Mr\315\274\255\270\013\275\350\256\254\274\316\006<\274\337\216\356\275\206\0167=d\'\'\274\201\316\223\275\323\376K\275\217)\002>1\227\273\275r\023Q\275\261\"\254\275\212b\370\272\201pX\275\317\332\235<w\240\335\275\233\273Z\275\351\001,\274\226r\302\275-\211\010\276\007\010\222\275\252\336\007\275\024\r\277\275\354\365\210\275\353\326\256\275I\023D\275\307\005\334\275\262\326j\274\233\362\266\275\360\334\340\274y\307\357\275\\\303\222<,\301-\275^\2300\275u\006\206=\320\261\006\276-w\007\2761\233(>\363\213J;\354\rT\275`\013:\276k\000\020\276\367L\216=\333&\214\275\027\213\212\275\244p\245\275hqs\274\203\271+\275a\220\307\275\027\362\005\276\311\214W\275\344\211\000\276+\222|\275K_E\2743Pr\275\372|\3157\231\234\021\276\250\340\236<\010\207i\275_\364\306;8\270\242\273\330\027\004=\345H\315\274W \204\275\372\232\274=<\244\201\275n\206\263=\207?\212<\345l\374\274m\037\222=\"\261\343<\353To<e\327\024=\204*\335\275\334\001\275<\323\357\224<\312\003\301<\024f\t\276L\355\230=\314Z\301\275P\264\273\275\205\333\233\275\301-\271\275\033\233\'\274\026\202\017\276\351\027\355\275\260\321\245\2759;\333<\022\336\005\276\364\333\260<f\220D\275\377}\205\275\037\204\277<A\244\370=dn\352=h\273\005\276,\203\365=\030D\210\275s\227\321=\355\033\017\276\223\327\345=\316\251P<@&\003\275v\274\001\276\316Z\327=L\345\006\2760\242*=E\354\022\275\357\205\270<\252\342z\275\370\207u=\016\357y\275\352\221\322\275\345\262\036\275\034\350V\275\252e\020\274zA\t\2760\330@\275\242)\276<%\031\274\274\220\246\372\274\353\257\t\276\r\021\336\275~\2707\2720K\247\275\355[\333\275\314\343\004\276\233\220\";\t^\244\276\203,\276\275\"\357e\276\370\231n<\002\315~\276k\372\022\277=\\\025\276\323\023\376\275^\364\005>\376\000\335;Qg\217\276\215\357#\275\340\270\351\273\343K\326\275\n\217\275\275\005)\004\276Kh4\275{!\210<\323+\246\275b\323\245<M\232\317\2759\335\330\275^0\202\275\214\030a\27561\252\275\202f\340\275$\2503\275\326\246\307\2751\213b\275\246\013?=\014i\361\274\377\3778<\241\020\227=G\231\200\275R\321z<>\375u\275\373\301\334=\200C\242=IZ\341\275\016\350?\275\345\322q=\321\254\016\276@a\353;\200*\233;\262\376\262\274\003u\t\276\0263\331=\\j\341\275%sV\274\270\327\217\275\343\256\033\276\303B6\274R6\037=m\273c\275\004\260\362\275K\363\035\275\356[Y\275\317\203\255::m*<\330\263{\275f\244\203\275:4@=\311ki=fF\235\274\304\250p=\352\220\213\2752\204\n=\201\017\212<\2360\302<n\201-=\313\'\204=3\307\036\275^C\316\274\243L\363\275m\037\316\274\336\303\303\275\254\251\263=E\354\006\276[\033\213:[\021\221\275L\200\001\275\310\241\352\275-\344\330\274\304\215\000\275\256\247\265\275\235\266r\275+\360\255<\177\372E\275\253)\325\275-\345\243\275\274S\276\275\007\"\001\276\364\330\340\275],\222\275\313\202\366<\3646\315\275\216\2227;\277r\341\274\275\250;=\"\016\266\275U\025z=\r2\252<y\370\224\275\205\232i\275\301NW<\307\330t\275\350 ,=\272W$\270\355\026d\275\237{\r\276P\344 \275a\351\341\275?K\001\274YK\t\276\003\342\005<\005\215\303\275\016Y\234\275\204\377\021\276 \303~\275Zq\333\275\230O\376\274\241\246\361\274\237,\300\275\022\366\204<7\322\337\27552\351\274+-\t=\341\222\363\275\323\363v>+\030\245;\273\310\336=\222\311n\275\344Di\274\273\004J\2758\023h\275\312\014\305\275\253b\276\275\2666\357\275b\247\r\2760>z<\031\376p=\242\323\206<\324\347\353=\261\260\016\275\035\251\312\273\3741\213\275\246m\373\275\351\333\200\275\375S\265\275,]\243\275\253N\311\275\372H\226=\035\305\260\274\330\224\343\275\217\\\222\270\017\225\267\275sUk\275e\316\007>\0208\336=\362\024\227<c\020\026\274f\347[\275\237TE=\276\215\335\274h$\211\274w\365\245\273\336%\232<\320@\305\2754;?\274\203\036\236\275.\322\237= \373\372\274\217\251\365=<*\332\275\322\"\264;{\017\002\276\246\350\301\274\366\203\006\276\246\016\217\275\245\213\232<)T\003\276k\204\016\275\370\307\243\275\322/\250\275\t\352\005\275\366=\020\276z_\307\275O\355`\274B\372\021\276,\"T<\271\243\242<\233b\321\275\360n\237\274%3\376\275\270\355\312=\031]\337\275\205\356\230\275\316\340\227\275\351\242g\275\3263\033\275\036\332Q=,J\006\276\314\252\271\275G]\013\276A\340\r=\267\251\026\275H\367\357\275\362\300\320\275\346\302\210\274;\207\260<P\006`;B\244\260\275j\330\366\274\304\323M\275\276\337\335\273\214\032O\275r\214i\275V\335\343\275%\347a\275f\206^\275\013\"\026\275\022\0350=\346\020y\272\372?\253\275\027?\376=\201\334\r\276\337K\201;\025[\275\275C\007\276=\251P\024\274i\252\323\274\'<\266<Z+\324\274\017nC\275\341\227\372=7k:\274*\363\221\274\022\216\250\274D36=_y\236\275\'S\317;c\254\342;X\310\001\274\345uM\275wS\370\275\302m\343\274\332\3268\275[\234#\276\222\327\010\276\223\207\310\275\364\354\367\275g\n\237\2758B\374\274\016f\333<\245%p;\362\267\361\275\214*\023>\224\027\314\275\034\326\303\276\211\035\020\276f\275\301\276\t\2618\277z\231\204\273\t\323\203\274\031\260\346>\\\362\337\275\021\t\365\275#n\177\274n\252\377\275\037\353i\275\253\017\036\274\352\350\n\276\252\223\r\276\354\275\223\275]\325\'\275L\205\332\275 m\244;\034|\372\275\375\254\n\275\335\355\315\274;\177\355:\366\260\327\274\022\336\267\274\350\007\020\276\254{\364\275\316\367Y\275\375\005\243\274\347p\321\274\317\020\'<:\310^<8k\005\275\244\360\257\275\234\234\257\275\231c\">9\242\230\275E\0259\275\271\013J=\3548\306\275\312\226\273\275\353f\234<f\222\262\275-\226\325\275Z\311\334\275\332\360\260<.F\370\275J\373\377\272\210C\376;+\231\357\274\350%u\275:R\270\275z+_\274{X\235\273\346-\017\276yv\000\274y\262\312\275\'B\232\275\256\365\001\276\244\271\346\274\004\233\330\274\315,\212<\004\031\353=\325z\207\274\315\375\3319\313\346/;\277Q\202=\354[\314=)M$<\"c\330\274\210<\212=?\314\241\274\017\n#\273\354\262\010\275\236\013\273=\014\323\371\275\273Z\'=\241W\356\275h\245$\275\014\'s\275\271}\307\275\027\313<<\370\341\241\275\330\023;\275R8\334\275\352\336\037\275\030\352\371\275\2660\305\275\265B\270<,\374\037\275\211_\006\275\037\025\263\275\247\214\315\275Y\026\366\273!Y\347=P3\232\275{2\354\274\204\265\023\275\n\377\t\276o\004\326\275\247;\t\276\001\231\204\275\202B&\274\337\302\243\275\311\243\031<\t\314\310\275\202\030\027\275<\367\227:\340\3106\274\'\321\013\275\r\311\363\275\271\325\204\275~?\314\275&d-<\327\004\324\274I\214\274\275\r\344\n\276\036&\r\275\361}\213\275K\024\r\276\315>\205\275\032\231\245;\204$*\274\225\031\355=\241~\341;%w&\274\335\254\344\274\354\361\006\276\031\343\251=j\t\340\275\031C\037=\032\324\345=xf\207=\004\033\277;\367$\211=\210\273\215:\302\214\230\274W\332?<Bz\260\273\221\343\314;\230d7=\367\364\337\275$r\n\275\321\206\3529\344K\336\274ih\374\275\312\334\333\275\300#E\275\253\223\345\275\367\213J\273\026N\236<f\354)\275\264!\002\2762N\203\274\240%P\275\236j\257\275\277\307Q=y\356\374\275\361rk\271.\253\320\274\010l\372\274\006\260\357\275OM\304=\263}\233=/\262\020=\210\233\301\275G,{=\016E\207\275|:\010=9B$\275\320/\210<]u\333\275\315\306\002=\277\342\203\275\374E\263\275d\374\251\275r\3760\275\247\337\005\272\203\232\344\275\242\200\020\276R$\373\273:\223\201=P\034\322\275T~X\274\242Bg\2742`\305\275\277\002\021\276\006\246\330=\261\331\214=t\214\022\272}\253\250=\327\341\005\276q\377\242\274p\014O\275\352r\340=\n\274\026\273\3368g\275>\240%<?\031J\274<B\'\274g\350\212=\341x\035\275\023\215\305<\273C\307\275y{\221=\334N\276\275\335\375\177\275\014.\250\275:C\016\275\203\374\225\275\030\270\257\275\311\240\t\276\350\311\312\275^(\255\275\334\226\305;\276\022\000\275%2\'\275\322f\205\275P;\371\275F\212`\275[a\212\275\265\2621<\260<\227\274\021J\300\275\025*~=\025\342\252\274F\317\271\276\225\360\256>\361\211\240\275\245\226\377\275\260p+>n\347\253\275\322\024\245\276,c\006<\331\276\001\276\315\n\325\275\021\001\310\275y\224\273\275@p\342\275\007H\007<F\345\377\275\223\375>\2745\326.\275a\350\237\2757E\321\275G\307\000\2765\300\353\275\331\205\326\275\301~@\275\225\232\213\275\356E\347\275\303\303\204\275\263\371;\275\244r_\275\206\315S=i\275\314\275bP\245=\377W\322\275\"\340\235\275\203\352\254\275k\271\303\275x\247\374\275\233_\337<\245\347P\275\303j\014=\370\266q\274\327@\211=\351\361\014;\324/\033\275\267J\r\276\006\221\333\275\032\242\360\275V\371\271\274\212\256\253<\260\375\250\275\020\315?\273\325\316\357\274\376\320\r\276\020\365\314\275\256\350\271\275\033B\017\276\323\260\007\276\226\245\316\275E\r\316\275\315\344\026:\204\337\252\274\020\007m=*\276\300\275\310-\006\276\271V\330\275R\315\n<o\272\271\275\004\024$\275dC\272<s\303\223\275aP\274\273\276a/\275\256e\256<\235\234\240\275\264\356{<\332\315\213\275\000\266\003\276\226CD\275\3076\205\275\2027\351\2751\366\322\275\014\242\n\276\227\260\257\275\337it\275\203\030\217\275\026\307~;:\370\236<\207w\000\2769\326\344\275\360kN\275h\307\340\275\234\255\315;\356\357\353\274\352\n\210\276\377c\302\275Kq\227\2746\333\355\275\224:\214\275Y\360\035\275\332E\207<\371\255\306\275\345\277v\275B\345\252\275\3620\257\273\361\302\013\274\361\\\361\275-c \2746\200\246\275\235\177\007\276\320\206\311=\274/\272\275\0145\333\274\310\204k\275\232\n\005\276.X\204\275\346O\334\275\365\355_=\323;K<\357\242\027<\351\274\007\276\362\205\326\275D\243\340\275\223f\330<\203<r\274\'\033 \275\233\233\230\275\303L^\275\323\346\347=u\317\212<vr\340\276\210\312\200>=\272\347\275\0075V<\020\016\031>\373\301\243\274\023\301\227\275\366\231|\275F\206n=A\351\027\275\377\325\251;N&\305\274\3474V\274\347\323\276\270\327\361\265\275\245\304\217\273!\207\036\275B\272N\275\237\236\014\276\27799=\340\272\223\275\220\213\232\274d\330\242\274\330Z\225\275\330\202\214\275Pn\320<\177\355\330=4\223\231\274\230\310\326=?\211\r\276\330\334n=\036z\313\274np\244=\235\332\234=\333e\004=WJ\230\275\231^\307<\325>)\275\311=\261=j\017\001\276\345Je\275\207r\344\275\373\003\360\274v\220L\275e\2367\273\333\351\210\275\3461\022\276\034\3346\274\277\354\324\2757\367\256<\2215U\274\260\013\323\275]-S\275D9\312\275\261\002\t\276\271\257\016\276*{!\275\306\205\313\275^\237\231\275\334\302\363\2722\271M<\234\3656<Y\335d<\332\215\021\276\353\342c<71\221\274\250\372e\275\007<\013\275h?^\275a\347\005\276\037\023\353>\016 1\275\232\351\261\275\344\t\376\275\350r\177\275\3144\204<\374\004B\275\2065\306\275\t\202\223\275\363\030\315\275\223S\227\275\346\307\331\275\377\246s\275\243\257e\275\224m\r\275\200v\300\275{\251\265\274Z\301\367\275\2526\264\2756U\353\275\330\274O<\351\306\315\275\005\021\300\275{\340\270\275\327y\032\275\036+\325\275\007\r\237\273X\031\001\275\\\303\372\275_\035\313\273\355\270\t<-\013\327;\243\304\356\274x$\372\274\004/\205<\022\377:\275\257TZ\275SPO<\003\266!\275\270\365\013\276\321\315\253\275\005\245\235\275\345j\314\275\375\273\307;+\370\371;Qm\002\276Y~t\274\220\347\r\276f\237\t\275\260;\017\276\261*\332\275\274\010\314=\326y\211=\212\016\003\275 \"[\274ZvK\275\331\303\344=\305\021\004\276J\'2<\230i\344={\000\010<\375\321\252\275ot\204=K.\271;\332\250\273=\365\252)\273r\377\201=\227W\002\276\034 \227<]\250\257<lz>\275\013\026\350\275>S\027\276:\370\344\275\306u\243\275\241\320\361\2749\031*\275G\274\356\2757S\t\2741?<\275^\020\354\2751\262\005\276\273\251J\275A\204\033\275\251\374\000\274\366\250\266\275;\276i\274\025Z\335\275\257v\016\274\222\256\020\275\027\231\272<jR7\275Ue[\275\3056\334\275Z+]\274c(\362\275\376\2657\275\003\035a\275K\003\0037|\241\007\276\277/\227\274H\321\252\275W^)\275\314$\247\275\237\2770;\240&\343\275S\350\246\275z\355\200;WW\325\275\326\007\271=l\216\312\275-o\347\273\225\341X\275Z\311\274\275\372S\237:\024\260\002>\307\252\347=\302\253\306\275\3072\005\275;\253\247\275\224\303/==\"\r\276\230\241\331=\003!\024=\370\254\014\274\332\374\216\274\374\021\310=\332\200\242\274\026.Z<\325\356\003\276:\363\212=\270\001\006\275\236^\'=n\216\203\275\350s\327\275r|\347\274\334\023\233\275R6\362\274;\211\013\276\371X\336\274\230\203\236\275{\273/\276#n\322\275\020 \375\275\201g\347\274z2\371\275\3424\304\274/\334\264<\201\030z;\215D\021\276O\344\364=\272\342\201\275\376$\n\276\032qY\275\216P\273=\243}4>\237\201\217\275DG\362\275\020W\371=\026\256\341\275G\343g\276\010\310\002\276yIB\274^X\020\275>p\010\275\276,7\275v\323\013\276\210/\352\275)\263\031\275\017I\241\275\247:$<=A\343\274i\344\255\275\021\271\002\275\270\313\247\275-;\207\275\315\006|\273\213\264%;\226:\237\274\251\346\010\275pD\246\275\302\271K\275\220\332M<ej\260\275\2346\017<\023\241\240<v_S\276\342\230\234=\371\202~<&>\232\274\312\266\220\275\r5\273\275q\220\007\276\016u5\275\223\003\276<\315u\274\274a\017\030=\276\347\257\275P\250E\275eE{<l\310\344\275\257\236\306\274\216\021E\275[\'\357\273fe\212\275\003\312\260<\351U\\\275X\342\344\275\032\316\340\273\243z\3669$\230\234\275P\020\337\275bvj\275\017\272\010\276\364\215\340\274\375\254\243\275W\355\254;\272E\215\275\214\2251\276\277Dn\275\267)L\274n\344\322\275\365FL\276\256\261H\2749*%?\001\264\270<\347\376e\275,\361N<\302\235;\275tl\355\274ig\224\275L\037\362\275\323q\007\276&H\326\275O\250\n\276\355\347\n\276P+\255\275\225\242\347\275\366\341\241\275\350\202\017\27665\335\275\r\360\005\276j:\r\276\210\025\271=\235k\203=\2629\327\275@2$<5\251\363\275\225\300P=\372\021\026<\016\317B<2\"\206=S\314\231\275ql\322\275B\334\362;\204\214%<\021\246\224=E\333\342\275s\226\203<\2423\021\276\333\256\220=\321\014\204\275\221\200\206<o\226\274\275/\353\341\275\364T[\274b\272\335\273\357\321\355;p\243X<hT\234\273t\323\014\276\225\266\022\2760R\265<r\177\300\275yq\222<\025\302\242\274\361\337\010<,\253R\273\311\217\345=\227\345p\275g\316\302=\304:\236\275\307V\242=\346,\373\273\314?\360\275\377\241\315\275,\014\037<I0h;9\2202=(\023\270\275}$\267=\326\2529\274k\330\336=\317\261\025\275\"p~\274\243I\002\273&\023=\275\315\3026<z\327F\275\023x\252\275\352\261\363\275!\036\354\275\373\021e\275k\006\t\276\274D\260\274\236\227\024\275\263\334\250<`b2\275&{\037=\331\317\306\275\177\330,\274@\306\017\275\330>p=8t\331\272\361\304\200\27306l\275;\347\023\2759\373\262\275o\331\034<\305\212V\275\346\212\377=\335\205\005\276\236H\351\274@p\313\2751\255\373=N\202\361\275\352\325-\275\330\347\020\276\031A\006\276\314I\332\275\322/\307\275Jc\"<\243\370\340\275Q\366\001\274\327Z\330\273wt\335\275\334\201w\2745$\233\275U\217\006\276\025\020\355\275\276+C\2752p\226<!\023j<6\364\377;A\264`\275\037\016\r\276\'\306\220\276\022*G\277\001\271\304\275\215B\377\273?\364\301\275(f\016\276A\227\367\275v\274Q\274\345\311j\275VBx<\022V}\274\3430J\275y\024F\275\366Iq\274S\2135\274r\347 \274\371\200\370\275*\023\345\275E\022\t\274\227t\007\275\340\265\004\276)\213\t\274#Y\317\275\324\246\326\271\030c\213\275\203\020\373\2743\234S\274\323\021a\275\236\333\177\274\302\306>\275fk\363=\331\325\251\275\363\327\321=A\321e\274\312\324\324\274\022;\007\276\202/\t>4\206\326\275g\317\342<\017|\023\274e\346\330;\032<\260<\236\211\033\273{\245s\275\270\035\365=\247x\325\2733:\227\275sq\221\275\365!\204\275*\335q\272\347\241\236\275\234\'\000\276G\242\327\275\227 \344\275\205\251\027<\330\273\037<Y[\202\274\027\370U\2756\246\001\276\357rn\2754\244\037>\207\254\242\275$\265\013>\231\t\003<\310m\240\275\236\240\243\275\260\251\325\275yT\247\275\033iB\275\021J\344\275\242h\005\276\245\304\324\274\277\234\r\275\342k\236\275\303\014\001\276*\013\307\2754Y5<\352>/\275\346\036\255\275\321\374\016\276*\017y\274\315\n\266\275\241\211\026\275:S\211\275\334n\240\275YN\347\274\336\020\224\275\031\221\372\275\3056\200\2747\235\272\274M\307\215\273\306\254\201<\223\245\354\275\265?\016\276\210\250\r\276\'\344\356\275\021\237e>4{\252=\212\327\340\274E\235{\275\224\207\240\275p\022\352\274kc\203\275\020\350\230\275\031\243w\274\371\341\324\275\315t\360\273\304N\320\275\201H\014\276\0274\347\273\313\n?<\370\\\234\275I\302G<\373\235\340\275\034\026|\275\260\251\247=h\341\237\275M\201\304\275\2535\201\275\001\030\205\275uA\006\276\274\035\336=F\245s=\353}\303\275\343\372\236\274~\305\345\275\331>a<.\271\303\275o-\361=\021\371\222\274j\337t=L\t\236;j^\273\274\256k\210\275h\207\366<:\300\323\275\"\006p=0&\307\275\363$\313\273\222\253K\274\277p\277\275\347\033\265\274\203\207\203:+\257\005\275\336\000\334\275\340\204\342\275\225\264\230\275\222\'G\275\231\002\214<X\263\313\273\322U\226<)t\321\275\221Ca\275n\366g=\334\253\030<\005\262\017\275\203\213|\275a\317\006\275\025\357]<\232\360\235\274\032nc=\270\3441\274\345L\020\276)\3474\274\034\214[=Q[\215\274x\227A=\254W\247\275\0251:<\010\030\377\275\311\332\273=\014?\343\275\315\275\000\276q}\324\275Y\346j\275\253\271\236\275\212\036b<>_\321\275\033\346\256\2750\356/\275\313\177\343\275\2608?<\021CB<\245\375\362\275\237\334_\275\205\344A=\034\007\271=\210\001\205\275qe\206<\312D\204\275\252\275\201;\202`\314\275\025\213\326<!%d=\255\260>\275\212\217\362\275\200\3761=\013\004\037\275;\377\326=tMI\275\001\311\273=\242=\373\275\177\250\247:\014\224\022\274\312\365\374\275\324\300l\275\022Z\031\275MQ\030\275)\317\221\274\354\336\270\274\320\022r\274v\033\360<m(\025\275\334\237^\274\212\212:\275\214>;\275\010\321\021\275H:\237;\222m\214<w\002\016\275\212\321\255\274\313\377\276<\314\270\356\274\030\337\203<Pj\306<\n\324\267=\351\263><\037^\001\276\336\373\351<a\352\030\274\331\t%\276Z\005f;\260\203r\275\000Y\254\275\363\035\265=\020\214<\275\263\022\316\275\237\232\265\2758\007\010\275\266\277;\275\345\240\326;n\321e\275\t\014@9\316N)\276zv\353\273\266\020\262\274wf\202\274\2444\374\275\366\303\274\275DT\231\274~~#\276\377\025\251\275\215\3726\2757\002\207\275\231\254\262<B\2225\274\335\243\320;\363\2374>\013\273\007\275t\371\240\275\262\227\372=\016\326\317\275\251\231\251=.\353\310\275\000\335V\275\372\306\236\275\364W&\275<\256\215;\345\347\241\275\t\232n\275\244\'\035\276\254\352\205\275\210G{\275W\236g\275\230\324\335\275e\014\350\275O\270R;\224\240\017\276\332\022\301\275\022_\310\275E\227J\275:\2332\274\252\336\205=\312\326\257\275H\347\007>\221\266A\275\345kD=\373Q\356\275M\036c=\010\006\375=\261\307$=:\036\307\275\345QA=\244\255\255<w\211\305=\220e\004\275\373O\272=\261\016\320\275\335\240\242=GV*\274\265\'\010>\340\354\207\275\301\207k\275\010\350\215\275\201G!\275\323\263\353\275\025\360t\271\246\356\231\273\306z\363\274x$\232\275\220 \366\274&\222\023\275\220\375J\273\224\351X=\221v\234\273\020\271\304\275%P\247=x\327\265<#2\034\275\275\217\333\274\326b\255=\353\032\247=\244\001?\275\362\315\357\274\024\nH=ma!\273\313\213\003=\236cu;\2507\254=\230\347\263\275C\366\307=\254\343\300;\303J\244\274\233\214\200<\342\342A<\252&\252<L\217\005;\317\316\217\275\275\204\010<\037\264\222\274\007\234\002\276\030\264\354\275\324\271Y;\212\220\205\275\277_s\275\200\221\207\275f\331\255<\251\027\366\275\323,\375=$\215\n\276\014\374\215:\225\374\000\275\347J\377<\364w\274=\2403Z<A|\220\274o9\013=\350\006\305\275-,d=\213\001\333\274\232\276\336=?{\020\276\370[\334=D\352\336\275\364\276\232\275\304i\253\275\271\266\370\274bp\020\276.S\354\275Q6\202;\315:c<\326\230\221<\317\316\000\276\030\376?;[x\242\2754\363\376\275\245\255\333\274\203\271~<\361\231\332:\364\224\333\275~K@\275\034,I\275VbH=\220\247\026\275\272\376\206\273<\262l=\266\221\202\275\215c\226<\265pT\275q\331\263\2747\035E\2751\246\235\275\3752\t\275\333bj\275H\010\234\275\362\362\357\275\346\234\263\275\\J\267\275\"~\350\275[\317\273<\314\262@:\232,\257\274\312\027|\273\334\203\332\274\214\310y\275oW\324\275\3514\305\275\3352@\274\242\364\004<\247u\322<\365\3617\275W&\206<\003\235\035\274.\227\326\275s\367n=\240a\037\275\005\300\275\275w\233\330<\355\020b<e\003\363\275\007\020\243\275p\263\\\275cd\252\275lK\354\275*b\222=\370\033\206\2757\035\345\2756\326\301\274\313\316\016\276\006\320d\275`\216\367\275<q\023\274\227{<\275\357\375%\273(\267\022\274Zr\033\2762{/\275\317;\263<h\212t<\321KJ\275\244\352\001\275\357\300\367\274\373R\250\275\325\263_</\366F\276(*\000\275\371nR>\336q\337\275\2142\310\271\324\271\2639\021\300\305\275\217.\010<\254\2641\274%T\216\275\241\036\327\275\027v\233\275\335G\027=\024T\354\274a\032\031\275\334B\241\275_)|\275Jo\261<\275\032\370\273\002\231\312\275\344\353\360\275\330\024\027\275\320B=\275\n\354\'\276\230\330\n\276\354\016\246\275\327\277\212\275\246\'7\275\213\302\374\275HM\357<|\260J<z\361C\275(\232\036\275\343>E\275\235\tb>\245\371[\275\027W\356\276\376\277\215\2759\261\020\275\210\357]\275\360\256\032>\332\352\244\275\241p\371\276\362\n\243\273WG\223\274&\370\327\275\377\356\034\275\246&\017\276xL\302\275\277\003\347\275\354\207\321;p\337\240\273i\252\006\273\207\022\005<&N9\275BU\241\275l\372\224\275#\272\347\275\266\323\302\274d\nY<\375\022\377\273\220\302\265\275\333\026Z\274\336M\324\275\247\274!\276\262\215\224<B\255(\273\375\256\014\275\223\243\024\277\"\307.\276\240\343v\273\262\022\360;\222{r=\252[\215\275\256\016\005\276\317\236\007\276E\300\003=\355;\376\275\372\3301\275\236\024\235\275\211R\240<\214\371\211\274\242\3732\275\210\357K\275\370\027\216\272\375\344{\275B\364\253<rEu=ou\014\276\320\307\365\273\266\341I\274\252c\276<P\347\017\276\316\\\177\274 C\300\275\244\371\010\276K\014\306<\025\016\t\276V\317\027\275\354\207\300\275*\'.\275\273\241\251>\265\220\272\275\371\260\223\273\305\341\">\344\224\033\275\344.\355>q\315d;\366\360\202\275\376\023\274\274q\377\240\275e3u\274\210T\377\274\206O\354\275N\273\024\275\035r^\275\350 \335\275\307\330J\274\221[\305\274\223\204>\275\273g\254\275\236c\321\275\005\023\254\274\352\322\367\275\\~\355\274=\340\001>\226\346\324<\206\273]\275_\302\243=\n\352\214\275\342\215\t\275+\252\271\275s\254\231\274\316\210\304;\021\037\234=\200\262\327\275\230\355\342:\366\005\373\275Ap\324=#\303\010\276\271\225/\275\006=&\275C.\223=\032\002D<\352\230?<\374l\206\275\243\221F\275}51\275m\377\264\274\000\313)\275\256\374\251\275\274)\321\275\311\314\205\2756\275\376\275wH\350\275A\212,;\251.\023\275`\271i\275\323|\335<\214h\366\275\022\0303>\255\300\277\275/i\216:\216\264\n\275\220\234,\275\212-\202<\220\336\232\275Q\253(\275\271#t\276\021C\273\275dE\376\275\243\032\200<5\313\237;\210\236A\275\031\030\253\275\225\330\217\275Nd\263=\003E\031\275\346\342\244\275\353\000\246\275K\305\222\275\036GW\275!\370\243\2730g\226=9\365\272\275\257Q\353;\252\333)<\242\026(<\300\272\371\275\377\371\233=ebG\275\323O\364\274\220\366y\2752\000\200\275\001|>\275\367\244>\275cOJ=\376\225\035\273\353<H\274K\242d\275\244B\222=\037\344\222\275\355\014\313=\240\225I\275\205\257.\273\361\261,\275\215\261\003=\340z-\274i\205\004\276\016\315\326\274i\360\034\276\375\301\022<\372\270\220\275_T\316\275\266\352q\275\006\270\204=\3124>\275\337fy\275O\t\245\272!\366\330;{<\247\275\372\3703=\273\267\304\275\257\215\244\274\317\364\307>\333\323\350;(\t^<\230L\225<\313\312\010\276H\272w\275\341\033\361\275\260\203;<q\307\241\276S#\341\275\324Z\037\275yD\225<\235\225\202\275\271f\275<\267\257v\275\230\025\214;|e\177\275\223\342\026\275\254,K<\256\241\235:@u\026\275\236\230\324\275:\014\311\275\034\242\020\276\020\345\020;\237\204\017\276\341vT<\026\222\022\276&}.\274\245\341\253=\351\206\370=u\232\035\275\330\347==W\024\216\274\246\213\271=S\351\214\275\320\357\031\274X\372\207\272\003\002\020\2731\371\324\275\207\177\360=\266\351\206\275\314\243\322\2738\201\216\275\340S\327=^\212\010\2762\303\345<q\262A<\301\010t\275\033\205\323\275\263\360\361\275\362+~\275UM\222\275;\232\r\276\206u\206<\210\301\243=\351\215\177\273\213T\234\275L\222i\275\341\257\270\275X)5\274\017\201\342=6j\357<O;\236<\2470\003\275\270m-\275\200/\025=(u\372\275\"\214\300<0\244:=%I`=\256N\376\275\324\215.=\327<\033\275\275U\346<\257\353\277\275,>H=\031M\326\275\257\256 \273\"\006\006\276An\014\2765\316s\275\376A\230\274l\363\025;\013\254\373;/\230\235<?\321\250\275T_\027\276\244\364)\275B<\274\274>\003\212<)\274\016\276\245\3277\275\337\006B\275\201g\'\274\347\366\334\275\271\371\226=\207y\321\273.\211\316=\345\202\314\275Ej\000=V\317\177=Z;\217\275\327\315\372\2758\256\340=`\010];\344~$=\"\211\265\275\037~\334<.[\n\276\342\346\364:,\030(<\364\035\000\275\373\030\313\275\240P\003\274\\\201\347\275\260\233\274\275\230\343~\275z\302f\275I\013r\275\tF\226<\267]\346\274V\247\005\276G\223N\275P,\261\275\035\357\355<\251\335\334\274aTW:_\314~=*\026\027\2751\031:\272\264\177\r\276\363P\270:UQ\354<\273\277L\274\365+\235\274\275B =\342\214\243\274\261\300\261=\\y\000\276!\362\343=@\363\237\2754\033<\2747\240\007\276gK{<\026\266\333\2733\213D\275\017t\370\275\352$\321;\240_\316\273\027B,