node {
  name: "b3"
  op: "Const"
  attr {
    key: "dtype"
    value {
      type: DT_FLOAT
    }
  }
  attr {
    key: "value"
    value {
      tensor {
        dtype: DT_FLOAT
        tensor_shape {
          dim {
            size: 16
          }
        }
        tensor_content: "\314\016\237<\017\300\224<:F\226<\270\325\261<\372\317\224<\342\230\213<j\373\214<~6\251<\237\020\233<f\344\221<\264\330\223<c\262\260<a?\246<\351<\235<\2048\240<\340\205\276<"
      }
    }
  }
}
node {
  name: "b2"
  op: "Const"
  attr {
    key: "dtype"
    value {
      type: DT_FLOAT
    }
  }
  attr {
    key: "value"
    value {
      tensor {
        dtype: DT_FLOAT
        tensor_shape {
          dim {
            size: 32
          }
        }
        tensor_content: "a\273\225\276I\331g\276\262\031\205\276\202\252\371\276\352\344\272\277j\205\231\276\206-\001\276\014@\237\276*\363[\275\344%\331\274&\3462\2766xY\276\367G\r\276\031\342\376\275A\030\305\2756\311]\276\035\243\211\276?/3\276k\312\317\273\250\265^\276\226t\031\275C\243\323\274#F4\276\332\003\204\276\216\007\376>\343~\246\274\t\277~\276\003\267\237\2763\360\371\276&\365\331\274\204\303\211\275\201\371U\276"
      }
    }
  }
}
node {
  name: "b1"
  op: "Const"
  attr {
    key: "dtype"
    value {
      type: DT_FLOAT
    }
  }
  attr {
    key: "value"
    value {
      tensor {
        dtype: DT_FLOAT
        tensor_shape {
          dim {
            size: 64
          }
        }
        tensor_content: "@4&\275\301\206X\275\266\345l?\312\030\302\2756\314\241\277\236\275\244\276\036E\220\273\317=\201\275\204\345\222\275\240\315\336\274vv\222\275\377\032\n?\344\3662\276\211(\372\276\326^\326\275D\020\214\277##\241\274\034\023\264\277z\246\354\273\004\244\013\275\245. \300=\354x?\241\311$\275\205\332\r\274B\343\023\277\327\2457\276#[\326\277T\257\366\276\373Q\354\276:\256\020\276\361\221\007\277\304\271\225\277\"5\370\275\245\027d\277+S\"\2772\307+\274Fd\331\273o\217\251\275\333\326\317\277\355W\227\277\205Y\217\274\245o\207\277\304\372\273\275D\"_\277\200\3463\274\026U\017\272\333**\274\321\035:>\r\332\357\272h\360D\277\355\372F\276v\023\244\275\223[\204\275\334\353\351\273\331\212\232\276)\270\321\276\270\013\000\277%v\014\274\365\017Z\275\357T\004\275\321\314x\300\035b\'\276\307)=?\253}\324\275"
      }
    }
  }
}
node {
  name: "f3"
  op: "Const"
  attr {
    key: "dtype"
    value {
      type: DT_FLOAT
    }
  }
  attr {
    key: "value"
    value {
      tensor {
        dtype: DT_FLOAT
        tensor_shape {
          dim {
            size: 3
          }
          dim {
            size: 3
          }
          dim {
            size: 32
          }
          dim {
            size: 16
          }
        }
        tensor_content: "\322p\324=\rk\270\275\267\215\205=\335\311W=&$\033\275\374|\372=m\3272\2738\232)=&RO=;\356\255=\341x]=\211b\n\276\223\033\374<Uu\215\275\342\214$\276K6m\276g\253(=%\260\006\276\335!\025\276nE~\275\376\221\354\275<f\353\275\t\020\217\274\225/\272\276\333\017\347\274\246-\217\276>\260_\275\345\357B\276\236&~\276:}1\276)\201\017\276\370\345\270\275\245-\025\275\245\334\302<\225\017\262=vJ\206:\004\205\006=:\257\020>\031[\265=\225.\036<\351\027\242=\324\320\312<$\264U\274.\326\252\273\025/\335\273c\224\313<Og\007>\202\233<=\301\013V\275j\300\263\274>\373\304<\226\2338=\026\037?\275\310\205\240\274\240h\273<\334J#=\313\240[\2757\357\376\2742\003\365;\3507\264<\3218\233\275\221\252Y\275\317\314\223\274\204\\\241\273\346%f\276\r\253\210\276b\3405\276\202\343\036\276>+\251\276\346\244\235\276\251jt\276\366\266\021\276q4\250\276\363`\216\276\276w6\276\301\350\226\275\353H\232\276\025\200r\276\003\000\365\275f\2129\275\016\026\221\275\210\013_\275\351\376F\276D(\337\275\257\024 \272\010p~\275aC\270\274\021d\351<\367)\204\275\247\343\245\275<\310\345\274\027\205\006\276\261c\355\274\013\335\210=\0334\244\274\240\236\233\275KmW\274k\214r\275\254\253\273\275\325\217\247\275\233\366$<%\216\214\275\356\225\364\275\240\0236\276\357l\262\275\346\255\016\276\224\366)\275\002\363N\274\316\305\221\274y\017h\275(`\003\276\034\256\272=\035\210\261\275\304\027\266<\276\305\324=hb\337=\220\217\212\275\254\276\302=+\214H=LIm=\037b\261=\340\251\025\275\312\227\202=\0035\002>\030\362\010>\324\3010=\334\225\253=\302\351#>\241p\016>\324\215\"\275_*\275=HW)>\t\360\355=\0263\322=\345\376*>/\225\027>\266\366\206<G\376\023\275\274\343\223=$\362\310=\007\231\021>\320\335\036>e\264\r>\021\273h\274\377(\023\276q\n\334\275\022\314\332\275`\303!\276\341\\\017\276l\243\255\275\347\357(\274\023\245N\2754\030\226=\372cO\275\226\021\224=\244d\\=\027\256a=\205\n\270\275\3339\257\275\327.M<.\344A\273\215\242\206<\343\202\316\2742\325\376<3i\246\275P\033\321\275\306@\034\275\267$\243=\205\320\251=\207\352\272\275\310y\243\275\025l\016\275\242S\361<\344G\244<\365\365\302\275\302\331\322\275\210\242\212\273LY\032=}\272G\274=.\255=\371x\022>\021\260t=N\363\365:(\373\270\2748\t\034\275\347\256\036>\010D\022>\246gm=\001U\">\223U\260=[\367H=\321\241S=\016\272c\276\3632\375\275i:\236\276Y\300s\276\307\207h\276\r)\221\276\200he\2766\tj\276\276R5\276fO`\276)\222=\276c\025\242\276z\355r\276k9\\\276\211\301.\276\004v\247\276~\225\263\274\245\253\225\275&\322&=\361\355-=\231z\236\275\204\371I=\004:\321\275\211\261D\275(\252v\275\034p\230\275\230\310D\274\214.\355\275<N\222\275|\244\356<v[V\275\273\214^\275\027\351-\2768b8\276\036\024\212\276\347\327\002\276\215\220\363\275?:2\276\263]]\276[\257\036\276\214\342\341\275\333z\326\275\220SM\276#-+\276\255]Q\276\035)\022\276\332\"\000\276{82\276\231s\323=\316\372\271<\264\337\345\274fr(\275\\\330 >\267\240c\275w2*=\364!\247\274N+\303=\236\231?;\351\016\036\274\320\370\210=b\014.>\307\316\331=\307@\373<N\200\n=\013\037G\2743\222\255\274\340\033\237\274z{\242<\230^\267<\324\270\002\275tg*=Cn$>\240\216\376=@%\334\274\n\207P=\010d!>\273\263\371=\000\213\034>\305)\001\275h\327L=]\003v=xj;\274\220s\231=?]\003>c\017\002\273\243\206\377=\356\325\204=fk\310=\202Q\266=\277\355\356=\343*\264<J\237b\275\027\353\204\274\347\3524>\343\216\032>\311-d\275S\217\017=\325\243\351<\370\023X<\304\255\200\274\2704;=)\320\014=\265]\204<q\271>\274\271\232)=s|\341<\205\252.<\311\200f\274\022N\350<lN\200<\3473!;\316b\200\274\217q\010\276\220\301m\276\212\352\202\276\232\274\201\276\277\347\231\276\030\352\026\276\037!\213\276\372\211\220>&\262\227\276\2038\216\276\202\357\030\276+\020;\276\267\325\203\276~d\234\276JwI\276\027O3\276\311\022\2539\341\027&>O\341\325<X\255a=\304.\360\274\223\037\024>\007\240\262=\355\252D>\200#\257;4\026\322<\262\251\267\274\323\267\216<\035_\327\275\357\037\216\275\231\276\253\273\372\3611=\330\3243<\001P\002=\205\304E\275\321z\336=GT~=\t\337|\273C\3051\275\026\310\n=\032\205\374=\203\376\303=\314\215?=\351K_\275\266\237\202=)-\033>7\332\245=\331\353\243=\343\0322\274\225\265\233\274\206\004\262:\357\276\255=\250b\224<X\253;\275\233D\010\275I\311\255\275\343\'P\274GVP=\335\304G<Z]\326\274_w\020>\245/\245<\"\300\001=\3358\244=\020.h<s]\306\275x|\304\276\003t\226\276\272\333w\276.\270\004\276\224\205\317\275\212M\013\275\264\245\211\274\256G;\276\267.\001\275\327\324M<\t\202\225\276\\@u\276\020\003\317\276sAm=\320\323\371=\203\335\221=\001\244\002=\205J\225;\262\212\221=B\310`=\261 \005=2\303\361;iS(=.\t,=\373\367\363<\300\200\001<Y\355\300<\314\005\343<\024 \244<e\200W;W4\010=\310\205\326\274E\024\235=\033\276L=\006N\207=\212\371t\274\206F\r>\337\233\233=Z\362/>\035\276\250:\202\265\236<|\323\255\274\024\210\221\272W\254\034>1\326\222=\252\215\267=\204[\323<\005,P\274W\017\001\276c\363~\275\355\323w=\351\262\241\275\277\301\327\274oS\363\275<q\221=\321~\021\276o?d\275\372\266\364=\226\314+\276\275\271.\276\036\303\364=\032\356\320\274\274\303\316<\267\261\200\2757I\234\275\366%\267=\221\330\232\275nv\241<\020\366\362=%4C=\245\225\250=}\233G=\303\250\361<\005F\275<C7\370=2\224\307;\022\033Q=KX\367\275\326D\027</\265A=\256\0037\275&\232q\275\005B5=\313Q\216=h\204X\275<\236\212\275\341h\235=\247/ \275\342\210\374<\303\304\003\275C+\263\274\261\003\264\2743\377\267=\\\330\022=\005\351\311\274!\233\202<\202\261\246=Q\n\357=\354{\252\272\330A4\275\r\272X\275-\351+>\032 \033>\362.g=P\211\223=\230 \310=\020\\\220=\005\n\241=,x\334=&6<=\241\250\242=\250\377\031=\220\032\347=\323*\224\274If\246\275\373\207\305\275\230\027\020>\375l^\276\024\267\341\274\374K\361<\207\365(=L\300@\275\245s\004=\032!\341\275o\322\210\275\220!\305<\225\371$\274S\244S\275\247\247\t\275\335:\216\275\244$\235<\365\346\225<\261#\215;&\036g\276\254\222p=l\261L\275T\243\252\273Kq\025\275b\277=\276\276\016\270\275Lf\246\275<\205@={\370\243\275\370\212H\276\243\371\250=H\210\014>\302\335\r\276\022\332\243=\022F\001>\221d\230<\311\232Y<\222R\320\273\232l3=y\330\247=)3\371\275\355\365\253\274p\257\375<\204\213\221=\260\246\025\274;en\275\235\316#\276\251Jr\275\036\241\343\274\2628\205\275=h\253\275\236=\363\275\031\023D\276\"\tt\276\323,6\276\177\250A\276\022ef\276\243\375V\276\026L\010\276wS\020\276\024\024\032>\225\332\021>\375>\252<\234D\204\274\260\3030=\233\273v\275n\376\"<\351\260\226;\036\247\334<\\\266\"\275i#\217=\323\201\315<Oc\t>\326\2662\275\352<S=\322\n\325\274\361\352\000?\234\177o>\205\373d=\254\303\227\275\266\013\353>\022\334W>\340\2566=\317\331\236\275h\231\273>\2229\014>&\177\307\273\225d\324\275\321WV>)w\230<\277I\251\275\330\356\022\276\311\320\316<\215b\">\263\223M>\034\206\263=3\241\t\276\306H\3129\273\033!<\007[\253\275\227\2656\276_\371z\275\361Le\275\177\271 \276\217\201=\276\334\n\333\275\034q\320\275(|N\276]\226\247\273vG\260\275\237CC\276\367\340\245\274\361C\353<Z\222+\276AN\036\275I\003\312\275\311\244\341\275\337\352\004\276\375w\032\276\266\213\331\274\365\023\001\276L\302\032\275\216mV=\354\342\216\274\002\234\326\275_|\004<\372\2368:D\2625=\276\255\372\275V\345E=\037j\241\275\306s\243\275\035L\215\274$\257\\\273G.\201\274\241\236*\274k\0179\276\313\305\031\274\347\376\330\275V\265\224\274\352\301\210;\002\\\035\275\210o\022\275\007@\370=ng\302<\037\254\205\275I\375\374\274\343\216(>iT\273<\330\n6=\260d\007>\275\343\020>B\036\246=\\\033\201=\001kI>\373ZP>\315\007P\275q\014&=?.\037\275\366\242\273;\331\356\017=\346\233U\274)h\317=\243\320\035>J\rs<NT\255=<^1>q\330\327=\2640\"=\307o\362=\265\031,>\322\263(>$i\376<?\355\200\274k\351*=n\270(\274\305\332\203=\222\223\304\275D\214\226\275\020&6=n5\t=\276t$\276\344Iz\275_\340\000\276\210S\301\274rz\021\276\315\341\250\275\370\212\300\275\207-\342<q\330S\276t\320n\274NQ\031>\363G\314\274\337R\245\275\016\032\222\275\330\014\270=\006\316\243=\003\256\315\275\"\"\266=\3563+>^\326\203\275\331\020\215\275\'\273\263\275[6O>}\0248=\257]\266\274\361\337\001>\250\353\032<\320\373\364=\306%p\275\220\220\002\275\251\2031\275\306w\016=\220m\032>D5\004=\257\262\030=*\347\200=\266,\300=\200\353\255=\221\347\036>\320u\247\276\266\346\237\276\253<\'\276Q?\005\276\227\354\r\276\365Y\216\276I\017c\276\275\257\007\276\211E\004\276e\316C\276\216Jt\276x\223\024\276\212e\033\276]\243\237\276\357\256\202\276@aI\276\244\317\261<:\354\353<\256m\353=\253\\\337=\223\344\211\275\205\223\202\275\373)\201\275\271\t\277\275\306\220\224\275}) =\021\227\315=\350\310\016\275@\304\310\27535\034=\351\376\002\275>\223U<\221\221\232\275\322\376\347\275\213\246\203\276\247[\003\276o\200\'\276\332ub\275\277.|\276\264\351p\276\362\3075\276o\204\225\276\3109\002\276\1776C\276\037\022\205\276\2169P\276\241O\306\275\253\211]\276~\0144>\247\242\363<$!I\275N\0201>\351\307\017>mf\344=!\2152=q\013l<\263@\364\274\360\215\340=K\217\210=\260\260k\275\210*\321=\021\215\252\274\234\214\356=\002b&=y\357]=\244\315\326=f\267\005=!\213\372=4*\371<p\205t=!\221\301\274I\235G<\273 \"\275\351\'%>VZ\033>\242\025r=c]\304=\226g\364\274\333}\364\274\357\235N=*u\323\274g\202\377=7\335&>l\363\t>\026\354g\275o\212\324<]\210\344=ldb=\022[\272=1\321\">2%B=Wh\223=\251\253\364\274\213\274\202\273)\225\370=\204\035\220<N\n\245\275\337L\232\275\025\324\344\274d\212\235=\367\324\266\275\351\326\255\275\313\303\"\275\325f\200=s\301\262\275\003\033\262\275\306\n:\275\264\177P=an\232\275\372\354\242\275fg0\275\210\257:=@\201\230\276\207h-\276h\261I\276\037\340(\276i\275\226\276\013\322\233\276\302WT\276O\205\201>\234f\376\275\004\0211\276\357>I\2760p+\276\030\210\231\276\275\310\206\276\014\350\335\275L8\343\275&\312\014=l\025\222=\027\375\202\275H\005u=;\020\032=J@\014\275\267\374H=\201.A>\262\231\236=\255\312|\274_O\340=\223\010\004\274\212=\372= (\247\274?Q\027\275\2307<=bS\353=\"l\213<=\216\200=]@\270=\326\2652>\005\"\264=\206\372Y;WT%>\332\372\235\274CJ\223=\357\365\327=\264\017\330\274\032TO\275>2x=}\024\020\274\014\244\315=\340+\025>\177\033\353<\301(~=\276\342\333\273\317\253\001>\303\276\310<\370\3009\275\227Y\223\275:\314(>\025\233c=^\216e\275f\330\322\272ko\007>\356\205&\276\253f8\275L\0140>Z\030\274<\367\241}\275y\253\235\276\337m\267\275\236B\251\2761K\017\276\'7\215\274\337\363\313\275\237\301\220=\311\325\330\275\344P\301\275\325\235\247\275;n\201\276\267\342\212\276v\226=\276V\030S=^\370\314=\320\332\020>.J0>\201\210C>H;\'<;\267i<\232\3073=\254W\300=\010.\031\275=\321F\275\034%\254\274\231\245(=BoC\275\245\003p\275W`\005\275\234\006\321<\253\276->X\373\337=\014\316\212\273\216E4\274Z\205\367<\323\231\374\274E\233\022\275\025n\000\275y\324R\274y\220\362=\2221\332=8\341\251=\010\272G<4H\003>E\036\\=\005\251)=~\000\030> \0247=\225L\313\275\256\254\002>\203\031\237\275L\002\312=f)\347:5\334\324\275]\306B=\320\261&\276\256\302\346=#_\245\2753/\361\275\370\340\000\276l\327\'\274\263\320\275<\035\234\343=\3307\277<\\w:\274\271HC\275\271\214\246=B\244\230=\224\020\327=\277x\254=\031\251\373<\267\004*=\217\310R=u\252T\275SA\200\274\2772\266=\232\005X=?\204\361=\215\345g\275\026p\247=\245%/\275\235\361\255=\025\360P\275\2573\010\274\331\254\361=\205\000\227\275\262^\275=\273\325\242<\0108\331\274\227~\n>HE\227=\2647\315=\252\\m=\200\246\023\275\002;\214=\334}\366\274\335&\305=\345\007\272=\037\251\231=r\026\0239\226k\312=b\377m9\030J\023\273M\375 >\002d4>\215C\326<\006.V\274\261\210\n\275\030U\252\273\321W<=eg\273\275No\223<\203\316\250=3\270\022\275zJG\275\303\216\256\2757\273c\275\324\245w\276c\021A\275;\215\266\275\243\223\367=8\363\377<\326\240U\275=\233\214\275<\265\300=;\222\260<\313\332P\275\352\333\275<\247\370v<:yL\275.i&\275&\316\221\275e+\003>\302\314y\276EAo\275\326LD\276\017\302h\274\314\222\234\275\246B=\276cCS\275\364{`\275<N\314=:\217\334=#BX=\331\020\006=S/\320\275+/g>\260\314\021>B\352\303=l2\262\275\234\260I>6\343\221=R\240\034>\200\031\032\276X+\256=\\\227\\>\311\354y>\347\241\030\276b\211\013\276W\353\004;\322~C\276\307/\216\275\025\006\202\275\235\235H\276\330\303\272\275\222C1\276j\031<\275zi\020\276\217MC\274\351 1\275\220,,\276\301\004\222\275\335\324\030\275\035\013g\275Q\247\207=r\014`\275\213\302\032>&;\037>\001\025V\275\360Fp=\352mN<\030\247\310\275\226\036\n>\257Pj<~\203\215=\357%\021>96\300\273V\354g<\034\0015=\343l\026\275\327\202\217>u(\363>\326e\027?\270;.?\275\014\231>\271\000\371>\262\372\027?x\363,?\221\221\200>6s\334>\204\373\007?\2161\026?H\210\006>\266\275\222>\247\263\272>\025\253\277>\247Q\r\276S\302G\276F\000$\276\033\241\031\276\360\354\032\276\273Z9\276\264\356{\276t\242u\276\270T\336\275x\n\007\276\241\251W\2768Bp\276\2532\362\274\211(\302\2751\334&\276\301/f\276}C\001<\016\002Y<\005\317\376\274\205\310\355\275i\366\215\275#&\026\276\364\315\242\275J\256\202\274pe\227\274\316\262\342\275\327\010\277\275\322\213\221\2753\245\311\275\300)\037\274\363\334\230;d\232\252<\365\211\313\275\376\334\340\275\016\333\036\276\227\303\241\275Z\325_\275\276\375\334\275\235\322\341\275\352\r\233\275\311\211\225\275\037\001\366\275\250\225\360=V\025\225\275ZA\365\271\\\337\006\275$ \023=M\365\262<\204\337\334=\022\2174>O%\313=%1\234=\320\353V>\025>s>T3O>M\022\224=\002\226J>\324\206\216>\361\030\005>\003 \010<(5\037>\347}\363=\260&\031>\002\274\205\274\340\266!=\243~\314=\251\216\350=\251\251h\275\013\024\010>5\222\035>\032!\355=\372\005\202\274\230L\331<\244\035\'=\351\221m=|\210.>\334\026\321<\234|\303<M\261\005>\025\276V=\366l\023\2748\214a=\r\211\026\276~\344\322\275\021\331\263\275\335P\341\275\036\263v=\226\335)\275\350\371\304;3G\201<)\027\272\275\346\250\324\274<\237I\275\224\325\n\276\200\"\312\274H\321\201\274;)\227>\245\236\001> \261\035>\3352\215>\346\2219>\323|\211>\246E}>\006\000\214>\373\233\275>\021\0361>M\370\034>\225\"\n>C\325\025>\272\362\210>+%\235>\227G\232>[8G\275.\367\016>\364,\366</\3354=\366\260\277\274\305\261\023>\345\020\277=]<\256\275\326\271\307\273\347\266u\275\234\374P\275\301\227(>J\021\261=\320e\016\275\305\217(>H\206O=\350\313J\276\275\202\036\276\tg;\276\351(<\276\324\212\214\276\365=\212\275\000\022\203\276n\022\325\275\364\217w\276\362\273\203\276\025\201s\276\225\241\024\2762\003@\276\216Z\353\275\307\2600\276\374\305V\276n\030\264\275\347\207$\276,*\004\273\004\273\242=\320\"\203\274x\241{=?\240q=\032\261\326\275\332_4<\021\250\027\275\023\310\262<x\r\241\275\234%+=\342P\022\276\262/\005=\314\224\350\2757M2\276\336U#\276_\333\265\275\241]\257\275#0\231\276\301\232\266\274\024\342\336\275\256\3419\276s$\034\276\357s<\276?M\250\274\335\202\344\275\017\334v\276%D\241\276*\212N\276\003b\245\274\327\206\207=\317\275\205=c&\344=\234\375%=f\223\201\272\ty\">\004\227S=\264\007\243=\246\030&\275r\225\374\274\354d\370\274]\014\337=\277.s=\274\241\306=}\332\360=`^;<\254\202A\275>P!>d\230\213<\325g\312\274\200\242\032=L\245q\274PR\251<\216\321%>\032\027]\275\322\357\021>\200\306\262=\353\267\002=\215@^\274\275\3466\275\335h\324<J\341\203=\033\'\202=L\243\256=\332\014><\310\270\307<.\350L=z ->?\312\017>\277O\245<\207\344-\275\305\230\342=.\024\253=\320\036\207\274QB\365=\304\031\370=\247\205J\2759\3335>)[\314<\275\213\n=w\257H;\314m\237\275\222\322\r=v.L=\201\375\276<\337\352c\275\354\"%=H\270o=\371\335\016=\234\256$\275\016\035+=\265>p=\3744\007=!\366\030\275\034\323\226\276\343f\025\276\230R\246\276\210\353\005\2763\261\030\276:\264+\276\037\254\200\276\373r\224>\'\331p\276\031\326\255\275\245\277\204\276W\355F\276#\326=\276\027Y\237\276\311\004\237\276\263\'\367\275\234\274P<6\"\022=\312\331\033=\312\3346=j\221\255\275IB\304=in\372<H\260\343;\305\'\332\274G\370\375\275\367 \033\275\323\321\257=9\345j<\211B\346\273\314\203\375<\013\331\013=\036@\010>\365\301\017>\320U\254=~\033\342\272:\2052\275~\331`=\n\2605\275\027\211\226<\340[\305\274\262\003R=\234\0253=8\264#=j\236\024\275\247\"\361\273,\301\t>x\032k=\274\361\252\274Z\315\206=N&%\275\022P\314=\210\254^=\352\377\005>\265kL\275\036B\331\272\255\210\r>\206\254\n\275L\2700>\352M\000>\232F\370=\307\347\374\275\255I\376\274\211\231\320=\362\255\353=\226\260\253</\254q\276\027y\373\275\026\255\371\275?8\000\2765\3531=2\177C\275\014\203\242:\363\030Y\276\353z\252\275\227\271\271=\246\363)\276\201\330\220\276Bb\273\2753\177\302\274\263&A<I\026\243<\376?\352<:>\025=\275\252\264<2F\002=\204\031\325<\230\345\305:\351\314\320<!\321\r=\261g\242<.\301\252\274[;\262<\036K\352<4\2632<d^\376\274\032\022D<\316{\330;\326qA;\274:&>\247g\203;\315V\336<)J\356\274\374\3554>\247\273\201<\'Q\030<\325\002.\275\361\372\351= q\331=\264\3301>\255\367\201;M\333\316<|=\245=\242f\261<t\274\214\274m\213k<x\032B=\357\242%=\207\224\036\274\t\254\002\276G\3056\275PM\356\272F\010\021\275\312xA=(|T\275\216\327\002\276s\357\304\275\"G\027>k\210\304=\333P\016>8\014\273<&\257\334\273%3\010=n\321\370=\032\204\340=\003{M=\216\340\341\273E!\022>\307\351\007\275\277*v=\356\3233=\233\3244\2742G\245=\357\365\036>DG\314\275{\350l=\2574)\274W$D\275@\274\240;\262!4=\\Go=\256\005N\276\030\376o\274T>\016>\257\037\301\274tol\275\331\203\231=\320\312\t=\264\364\377\274\'\312\342\274n.\324=\034\306\275=}#$\274x\200\332<\003\231#=\325\2573\275\221$\260;\"E\337=\037\302\032>\275X\013>Mm1\274\212\223\272:\\\242\304=\374\362\271=\030\204\">\330\025U\275\'\303h\275\024\357\236\273\306\267\224\274o\026N\275\n\341\273\275sy\236\275|\246p\275D\037:\275;x\014\274\351F\325\275z\247\205\275\002\014\342<=\312\246\275\334E\333\275\224!\357\275\032S\302\275\305D\271\271o\2208\275\013\241w\275\335\362\252\275\232\311\220=\361c\345\2750\252\033\274\362\321\242\276\276\302\204\275\265\242Z\275\233+\324\275d\324\316\275\005\350\032\276e\205\211\274J\364k=\346\214r<%\373\032=\222\354m=\245\n\367<+\315\227<\324\222\200=\345Pa\275\354\2553=\207\346\001>\344\262\257\274\227h~\274\245^\304\274Z\301\252\275\274\335\334=\370\241\212=\226\353 =~\246\004=\277p@\273\375\230\321;U\203\206\276\000\215e\276\037`_\276V\231h\276\314\277\\\276~_\303\276h8G\275J\267w\276=\251\235\2758\266Z\276\237\313\210\276\231\373\200\276\340\225\351\275ev\002;\255!\216\274\245\225d\275u\307t=\263\376>=\"\273\361<\001\200\346=\311A]=D\375\211\275\305{\321=\340\352\275=\354u\030;\363J\204\273\361\023\177;\027\266\252;PK\033>7\353\026=[h\237\275z\244L\275\304O\265\274\"\306\016\273\367\243\256\275L3^\275&d\242\274\207\361\212;\364P\203\275\243\r\030\275\020\017\374:\325\232\001=\322\374\211\274,\205\342\271Q\354\037=\026Y\223=\022<\370\2740\273\247\275\263\210\000\275!\345\277\275\204\027d<6\315\234\275ZM\302\275`\t\371\275\214,\030=\376\n\257\275e\010\342\275Vr\027\276P2\266\274\211\001\n\276\330\301$\276\234\037N\276|S\021\275\227S\340:I\220\034\276\317d\"=\314\014X\275\345\355\260\275\357\346\343=\221Y\r\276\300yG\275W\321\365\275\035@u\275\270\342G\274\250q\232\275{}\272\275\255\347==R~\262\275\241\351\257\275\310\033\346\274\372\251\004\276X7\335\275Pn\t\276\203\342\300=2\326\234\275\027-`\276\337\300\021<,\026\214\275\027 \263=j%\210={38\276\271\353\207\275P\304\366\275X\316\354<Y\367\201\275\244;\240\275,\037\265<\"\350\207=\273\232\221\274R\333\253<\332\362\375\274\310\302N\274\245\362&\275\327\220]\274\020\361\230=\264\227\032\275\201\315\302\275_\023\024=\307\240\251\275d\346><\372{\322<\342\352j\275\3130\213=!\234\304\274c\331\303=\370\346J\274\027_\366\272\021^\271\274\224N\006;\245\225\365=\215\253\222\274\271\212\355=\205\302@\275\350\010\026=+c/<\036+\'\274Y\347\006\276\t\013$=\002-\010\276g\277\314\274v\347\304\275\033\217R<\361\376\324\275%\016E=3]\255\275\276\032\035\276Q\250}=\354\004\020\276\231\240\203\275S\322\200\275\270\263/\275=\241\257\274\036\266\016\276\216v\355\272\025\261Q\275\3152\210\274\240\352\270\275s\212\243\275\211}\273=_4\000\275\356\240\265=\343\017\245\275mt\324=O\361[=\253E{\275\220-\007=\342\206\262\275s\351\352\275\031\377E=g\227\313=^\223B\275\013\224?<\316\201\014>\2466H\275\236\302-> \207\367\275\177\\*>\204^\027>\0160\n>G\007\226=H\022\345=\nD\253=bG\033>\351\375W\275\t\307v\276Z\251\225\276\300\001\206\276\272\377G\276\222\236\016\276\273;\220\276\243\351\017\276x\362\301\275\351\206l\276a\262b\276nx\225\276\211ZT\276\r\266\205\276WMW\276\220\336\223\276\246\340*\276\242+d\274\355\3774=\374K\243<\271N\254=\013\'\003>B\t\000=\377\021\253=0\312\036=\314\035\200=NW\263=\260j\\\275\251!\010=\374\206\203<\315\245\246=\020\267\243=,W\214\274\335\205e\275E\037\376\275\034\253~\276z\371\032\276\226@\001\276\003\316Z\276\220#X\275\327B@\276\211~\320\275F\353\233\276M\000/\276\2177\310\275*\220\007\276\022\237\374\275P\334\234\275Vv\250\275\364\241&>Yb\275=\377\336\"=\317|\026>\027z\037>\263\264!;\326\005&>\030\327l\275@\205\327=\363\215\255\274\002\251\334<\345\243\016>;o\023>\325\355\200\274O\226\201=\310\212x=\370T\267<\037\006\010>\004\017\241=^\235\013>%_\364=\306\3661=6\023\243=\353g\232=\314\225\334;\244\306L;Kg]=5\247=\275\253\314\220=\264\377D\2755.+>\"\211P\275u)&>2\264\364<)0\010>5U7\274kx[=\204\322\305=/@\261=\343U3\275\245\313\t>\032r\213<\033\236\027=vh\203=\016IW\275\357c\216=\2773\244<\302\025@\275c@\036\275F\352\205<}\246\333<\256\252\364;\322\244\370\275\306\0214\272\366\3200=\307\204\315<\271\252\003\276\220$\210<\272m\222=Lz)=,D\206\275\tP{=\027\036\311=\256\305]=\363\261\223\276p9\010\276\236\036\333\275\342\360[\276 \370\234\276\rn\007\276\316J\213\276\025l~>\306\202\264\275\370(\236\276\353\361\217\276\337\367\017\276`\260\234\276\212\034\177\276\321\267\236\276\341\005]\276\202\235g=\034\367\234\274\221\251\215\275y\222?<O\0334=l\361\025\275\030\356o\275\223\002k>\325\327(>L\001B=eR\245\274\351\246C\275\322a\306=\2713\325\274\035)\254\2745\225{\274>\022\223\274\211\201\005=\320\372\263=)\347\\\275\321&\025<.\211\035=\001\261`\275G\256\010=#\265\005>{I(\275O\017\245\274\320Z\267\274\2172m\275#T\363=\0167[\275\372\325\370=\225\314\230=\345e\003>w\246\343=L)o=\364\0222>\201\nl=\333\324\014\275\2626_=\257G\t>g\337:=-\362\261<\223\272\246\274\252\356C=\207`7\276\243\235\n>\335\215G\275\250l0\275`\311\207<\3359\236\276\326PO\276d\300F\276\233\326l\275EN9\275\032\000\244\274tL\243\275\t\266\013\2761\326m\275\224\213\262\275E<\241\276\361e\222\276:\224R\276ee\315=\204\301:>\362R\251=\3471\315<~\324[;\250\270a>A\345\264=U\365\210<\350tl\273\021\006]>M\r\251=l\3156<\236\270\353\273e$5>^n\227=\302\005\205<Y\312\354\272\034VW\2745=~=_\265\245=\300 S\275\2205\t>C/\336<\206\214=\274`\3512>\033T\002\275\340\310\345\2748\315\333=\324<\341=l\206\326= \231k\274\275\252\207==C\212;2r\367=\243\340\357=\271\254\275\275\255+\266\275P\272\257=\356\005\261\274>Y\362=\246R>\276=\326\034\275\377\342&\275I\256\020<\200\202\004=\352\351\325\274\313\376\260\275O\304\357=G3\016>\217\246\214\276\216\235\252\276\275zx\276\022\021\216\276\014\277\231\276#9}\276zQ\004\276>\320\260>p\021\220\276\251{\244\276g]\221\276\037am\276S\034\261\276\304\031/\273,\373V\276(\2617\276=N\212\275\311\341\003\276\007*<\276\301\327\221\275]\000p\276mp\363\275Z\302\245\275\201\236\234\276\007(\213\274w\325\003\276\037\245g\275\264\036T:\311QN\276\330V\031;%{*\276}\267\n\274S\006\200\273\353B\274=\265\200\265=\215\016C\274r6\300=+\354\236=\007:E\275\372\212&=\353{e\275<\005\264=\356\244\254\274\247\260\306=rB\035>]\023i\275X\003\373=\344\351\241=\021pr<\346Sq\275\201\013\037\271{\256\274\275\027\272\321\275\345\3149\275\303\335\262<Ay\206\276\353\213\026\2750\225\336\275\254-\\\275\2169\365\275\255\007\237\2751~\200\276\002\240\250=[7/\274\321\023\223\271\230\374\251=\214\356\005\276\001\271\362\275R!\002=(\002U\273\034\036\255\275\000\241w\276L<\206=\266\022\306\275\3515F<`\257\360=\211F\254\275\261HT\275\333\366\266=\275\262t\275\'\310R\275\204?\202\275e\300[\274&\374\374=\013\003\031\2739\351\375\272\342\310\007=\267\007\025>\342\027\247;c$\213\275W)\377=\206\206\264\274,\3503\276P\257\253\275\367L*=\351\344\250=p\023\236\275\322\261\262\274\2407\360\275\326w:\276+\276L\276B\2224\276\275\267\025\276\223\317\034\276\265\355h<\253\330Q\276k\376)\276V\340\326\274\321\234\202\276\322\217m\276rJ\231<\220$9=k\221\231=H\305e<%\222\002>N\206\036>\332E}=f\223>=\343\007\034\275H(\236\274\234\244\321={6\032>y;\264=\315\217\262=Ut\026>x\327\001>v\263\006>\303\020\322\274\233+\032=0\032\020\275\324V\271\275/\316\330\275i\234\263=R\355\231\272g\222\223\275\020\262\321\275\205\253=>~\371\265=\260g\311;\320\013M\275\035\307\260>\226\211{>\n\253\023>\216\371G=a\020\212> \263\274>|\013\361>n\014\310>\2614\263>.\323\362>H\n\374>\034\254\353>\272c\273>2~\364>\352\014\000?\003\270\364>I\254\247>=K\333>\371\035\347>^\034\317>\253\274\n\275fp\200\273\237\307\\\2759Z\032\276\216\244V\275\201i\t\276\210\t\227\275Q\215\364\275\274?\223\275\370\302\221\275\316\267\201;\206J;\276\344\260*=\247\200\251<\230\231\201\275\263|S\272eu\331=l\224\371<c\301\242\275\325\005\314\274\004n\022=H\303\247=&\225\204=[\036D\276\334\016\305\275q\247\325\275\356\203\310\275\341\377\023=NE\032\276\301\371\226<u&\001\276\203\307\312<\025B\010\275\2334\243<\207\3361<v\022@>0@\203\275\317\026\367\275\246\3130\275\204\255\311=\336P\310;\226\272\014\276\365\372)\275k\nr>\212\230x\274n\364\216\275\260Y\363;\253DE>)D\372\27261\244=\347RT=\014\033\020\275\213\266\321=\027\210\275=\276\035\202;\240|+>\2428!\275SG\200=\300}\357=\203\201\036>\254\324\031>\265X\264=\233\312O=a\276\366=\300\250\330<\033\204F=\020Qv;\375+\345\275\312\303\021=J\212\306<G\202\010\276I\027\\\274B\n*={\r\336<\026\251\262\274Q\020.=\302\004\346\274\370c!=\350\216\222=\207\336\\=O\025\354\2758k\340\275c\346\320\275\372=@>\353\360\035>\274\222\232<\370K\246=-\t\003>/\267\030=bL\330\275\265\210\026\274\203#\037>\360\302\332=\350\226\247<\215O\313=\321`\250=C4^\275b(\260<]2e=\242\222\022>\333\307\363\274\224\014S=^i\370=\013\202\233\275U~3>\243i\030>vh\276=\325y)>\347\027\245\274y\220\233<\3102\007\275\376%\206\274,5\214\276\366(.\276\367\225\207\276\241\242\312\275f\254\207\276\225\372j\276\020\247D\276\r\250\004\276\200\235\261\276W\301\t\276\252\233\n\276\363\n\242\276\306\252\007\276j\311N\276\222|L\276\273\014m\276\364\013\n\276\200+@=\034\323\366=Cm\333\274\216\020\252<\243J\263;\244X\217=\211\255\265\275E\270\277<\254\270<=v\243\016>[s]=\244`\260=\241\001\345\275\014`#=\246\000\007>\017\257o\276+\355M\276\216\313\200\276\014A\201\276D|\213\276\016\211=\276\313\272U\276\357\377\350\275\330GD\274\363\033\t\276=1\347\275i\266\342\275\024\317\211\276E\314P\276\026\370e\276;D\361\275\351\333\r\2758}!>\336\2013>T\000\365=\007J/\275w\025\001>M\335\013=\367\361\363=b\352\007>\347\377U<@\343\210=\006\311)>i\342\307=\275\334\343\274\206\272\372\272\026\023a\275\352\364\301=\224\346\331=\261\275\352=u%\364=\027\334\277=ovI\274\244\255\254=\3061\327<\340\r\277<\375\317\014\275\233\031\003>O)-\274,\304;\275b\\7=\307\255\305=\023\364\245=\325|1\274/\336$>_\013\310=#I\010=1\276\361\274_\317\003=a0\350<\307\224\374<#N\032>&\353&>\017\017\036>\254\360\334\274\346\026$=_\273\377=i~R\275\225o?\275\031\242\014?\207\322\345>\360\000\330><t\352>=\257\255>\3337=>f\002*>x\205\212>\343\214\037>+\023H\274(\245{\274\226e\r>\366\257\226\273\210\272\030\27660\001\276\326\001]=\265(\350\275\330\373\230\276x\255l\276`n\005\276$\315E\276\364\036q\276\237\373e\276\231Ro>\325|F\276r\361\222\276\017G6\276\310\364\351\275)\327\027\276g\337\307\275\255Qn\276\257\214H\276\231\234\213=\tM\360;b\226y=\352*\010\275\204\217k=\364\264\005\275\006sQ<Z\t\240>\203\207(\275\033\252\006=\020X\227=\207\257q<\006\233F;\r\023\300=\370\206W=w\336\033<?\224G\275\266\314\374=e\005\020>\327\\\200=u\317\342<c\372\264=i\235\330=\337)\024\275y\256.>\037p\017>\010Q0>kX\250=b?l\275=\363J<\226\223[;\307\251\252=\223\303\262=\305\\\323=N\221I\273\226:\275=\304p\260;*\0210>\356\356\036=\353\215w\275\312\005\344=\357\376\032\275\272\001<\274\334\2403=\237M\377\273d#\001\275\333\317\005>uL\"=\214SS\275\264KN=\237\241\230\276\203\263\327\275[\377\030\275\200B\322=\226\r\"=\351\t}\276XV\377<\215\263z\276\323O\335<\226\326\373;\260\233\237\276\030\377K\2768\323\237\275\352\346\205=\370$b>\315?\253>{F\271>Yx\234>^\275\233>^\"\351>v\275\367>aN\311>qI\237>\371\025\354>\ru\371>\370\212\311>+\270v>\033\262\264>\375*\300>\343D\240>\204\242L=\313\241\026\274\247\345\017>\0023\022>\312\241L\275;\202\356=s&Z\274\315\361\322=\350\351\021>I\3324>wI\263<=y\272=\367L0>\357q\000>%\260\220=\275h\250\274\2756y\275\263\001\231;*\221\014\276\357&/\274\276\256\234\275)\210\365\274\322\337\n>\330nZ\276:\344\236\275\230\230\t\275I\n7=\210\244V\275\216\200\341\275\312\221,=\236\337\204\274\341\254}=X[\226\276Qg7\276,\326/\276\374\024\037\276\201\010A\276\342p\232\276\027\247X=\016\341\247>\275C\037\276\'\217W\276f\n\212\276Z\226m\276\267c/\276\304\267K=\303O\267\276\253\276\225\276:\355\032\276\246\311\001\276\260E\'\276\344\334)\276\200\026\251\275\275\006\030\276\325\025\336\275\243\315\220\276R\337.\276Ah_\275\221B*;\2175\213\275B\217\323\275 \261!\276`\235\254\274\340j*=\214\204\327=\224\266\020=\017[\030;\324\'\216=m\005\035>\230\326\203=\035\021\025>\217\316s\273(\2146\275\372\275\007=\316\2351>\316k\032>^\354\356\274pV\214<W\215\352=\003\310\245=\244\316\n\273\337Df\275\301\303\336<>\223\336==\337\230\275\265L\233\275\266\236s\275`]\311\275\202\033\222=`0\356<\217Z\207\275x\223\242\275\351c\006\276I\322\222\275\211\255\375\275SR\376\275?|V<\345{\217\275\371,\220;\203=\025\275e\220\222=\230]n=\224\370\356=N\030\\\275\024\020\321<\263\003(\276a\230\237\275\034$\373\271\013u\341\275k\322\314<\306%\237\275g\026\237\275\205-\213>Bz\331=\2438f=\311o\023<e#\376=\313\037<>\rU\035>\203\314\'<\231\227\201>.\225\363=\035\226\322=xe\214\276\222\237\231=\302\335\013>\325%w=\205\207X\276\277\024+\275\235\307s\275Un/\2765\371l\276\325\273g\275/\244E\276\340\215\030\2753Y\014\276\266\024\227\275\202\252\271\275\361\375\301\273~8\213<\000\323\343\275\336\352+\276p\243\r\276s\353\242<\240\277\030\274\340EE\275\246G\351=\214uU=\362Ny=_X\272=\333m4<\336\020\255\274Z\215\351<5i\032>\247\350\262=\334\201%=\230c\023\275E\'#=\nS\315=b\341\211<*\235\332\275\264Ln\275I\023\226\27498\307\274X\004\277\275\273\206\002\275\266\301\035<\330\213\031<K8\025\275\"\315\t=\357\356\247=\271\257\310=\234\337\255=Y\254/>\267\333r>\013\310\221>\022@;\275\206~\201\275\022\200q<\232\236\001=\323\310\213\275\007\210\322\274\251\252}\274V2\222=,\357\241\275\2625\020\275J\2755\273\254\320\210=\225B\341\275.Y\346\275\354\017\231\275L\257\242;\'g\334\275u\230{\275\244\211[\2758\326\233\2753\200-=~\307U\275\224y\316={S\201=a\257;\276\013\330#\276;U \275\273|\016\2763\021(\276$d\200\273B\360\373\275Y\365\003=&0\327=T[\235=\231X\225\274a9C=\314X\027=I6B\275\310\372&\275\326\304\r\276\332G\002>\255\250\024=\325\262\365\274Yt\322<\217\375T\275\007|\003\274?\017\215;\207\301\365\275V\177\252=/\005\277=\266\007[=\000\223_=\025\232n=D\373O=\014\373\313\274\2667\035\275\372\315\350=\205\026\216\274\221\346\356\272\364\016Q=\0339\340<\2269\304=\312g\214\274\3318\234=\315x\t\273i\206\225:\323\317\232=1_:=X\226~<\261O\007\274\200u\026>#\240!>\211\376P=\241\366|;ykJ<\347G\345<\000KL<\014\263\362:\001\n+=\367[\247<\201\036\223<!C\032\276\032\350\354\273xh\202=u\237\365\275BKv= P\346\275\311j\244\267\300\320\303\275\243\020\264\275\314/\333\275\'&\261\274\2209\246\275Jf\370\275H\034\372\275\301\326T\275;^\345=\347Q!>\240\273\265>K\005z>I\320~>W\246\233>\355\257\231>d+\202>G\tX>\326\276\253>uDQ>v\202\202>N\222\225>\354\333\032>\273\367#>\223B\033>\266J\331<\241\237>\275y\\\210=D\367\305=v\345\345=\226\247\007\274]\3252\274\322e\372\275G\373\241=eo\231=\037`\333\274\346\315\204=d)\304=\211\344\314<\371I\022>\241\026\237\274\306\3727\276\240Zx\276\335\233#\276\304\313\202\276\027\230\233\276\312S\202\276\226\205\032\276i\276\224\2769\023\215\276\311\356\220\276qz\343\275\210\2348\276:\355\005\276\304\277\213\276q\357z\276\301\304\'\276\201*\204=kfB=\357\256\221=\200\267\022\275\'\372\357=\245\377\022=\016\272\246<om\210=\351\330\352=\365\344d=\241\003\234=\014!=\275E\214\244=*\313\014\275\302\311B=1|b=\330U\361\275\335\212\036\276\000W\217\276eL\370\275\346G\335\275p\255\271\2732&G\276\235\361\201\276\001O\372\275Jz\222\276\3555\244\275a\346F\276#\033\024\276s\3425\276\3405\305\275>\027\255\274hv\033\275V\246r=\223\232\351=\310 \013>\263q6=\270/]=2$\010=\331#\261=\003x\t\274\340\021\016\275\223w\340<\331<\355\274\242\245$\274\260\360\017:\3606\000>\021k\031>\357N\370\274\265p\247=\304N0\275j3\356=\005f\004>\322x\034\275\237\274\267=\255Le\275\241H$\275\217Fi\275\021\360\026>\357+\350=P\322\'>\004^\204=\033d\002>\267c&>n\323D::~\355=\362^\206=\357\313\331=\305W\311\274\3245\036>\200\2466\275`e\357\275\372p\247=\234\307\"=t\227\236=\214\034<=+\301%>\362b\032>X\245\301=\346q\336\274\376\020\302<\311T\202=\226 \230=\363\2616=8\216D<\024X\024==K!<\201Z\254\275\334]k<Y\340\370<`\206\263\274\223\r\037\276\334\272\004=MxD=\252\007O\274H\244$\276\255Y\363\275\253\274m\276\201\027\214\276Q\036~\276\010\002\204\276p\347o\276\332\352,\276?\343\272>\016\336J\276\234\321$\276m05\276\251\004L\276\333Nh\276\201\306r\276i\347\006\276\243;9\276\254\200\032\274\300\212x;OJ\n\275\240\231\205\275\217\025\203=\241\302{<f\204\326=\350\256\221>wm\026;\276\257\260\274\254R\203=\rw\304\274*e\023= h\215<E\375\272=W\231\312=\353+\362=:V\341=bx\240==\216H\273\241\330\224<V\207)\275\331\201/>a+~\275\3337\254=V\265\336=\264\010\034\275\017\001B<\240\3631=Tl\022\273\016\211U\275P#\354<\256\r\032>\215\002>=e\363\016>]~d\275PB1>\237v\300<\203\r,>9\273\037<\355\256\202=\177\200\313;\324Q\n\275hi\222=@\254\004>\242M\323<H\031\344=,\373[<6V\027=J\021y=\000\274\234\276x\343\210\275M\002\257\274\371i\245\274\275\330\307\273D\026\366\275R\354\301\275\242\267\300\276\341\000\277=\362\322\232\275\342\320\240\276~\025\022\276W!\213\275naG=\002\020\354\274;\206\016\275 \204\305\267\332\202\247=\327\326\025\275qxB\275\035\320\2609\004\376\350=\026\237\004\275\310\231*\275&\304\375;A\203\371=E\323\262\274\000\223\324\274f\206Y<Y*\311=aK\";A\340\317=qC\034=>b\254=tG&>4\274\225<s\325,>D\325\303\274\370\311&<\326\005(>\3322 >\262\313\256=\\\020\022>Sm\276\274U<k\275-\373=<O+\256\274\355\327\346=\3000\n\276\025\024\370=E\3755=\237\315\311=d\237\245<?M?\275L\212\265=\nm\336\275%u\355=\021du\273\t}*\275*\235\337<\362\303\201;\202(\374<\303\247?\276\253\305S\276Ek\210\276+\205k\276\033\014\215\276\260\0272\2763\273i=\355a\314>\r\032\214\276\215<t\276\261\357B\276\354\026j\276B\352\240\276[\331\373\275U\256i\276]\203|\276\213\003\271\275\035)\254\275W\335\214\275\232y\252\275\370\377\267\275\253p#\275rD\005\276\243\254\023\276\262\003\265\275|\356F\276\003_4\276\237G\364\274\032\3602\276\232U\277\275\213\0020\275\220f\373\275:\203o=\315j\202<\347\210-\274\024\032\023>\202\315\017>\"p\244=\302&\333\2743U\222;\n\327\r>\254\210^=\323\254\013>\373K\261=c\021\016>\374\036\"\275\203\014\304\274\232\341\006>{\346~\274I|\017\276\311\234\352\274\315}V\274\tE\037\276\206,P=(\221H\275Mod\276\010\t\235=B\002h\275#\033\341\274FM\370\275\310\352\253\275\003Lk\276\032t\205\274\306%\264\275\346\000\375=\1779g=~\235\022\276G\371\244=Z\361\253\275u\304\367\274\013\331\010=Yl\272\276\231\271\213\275\233\264\366\275\353\221\201=\345)\312<\374\365\253\275\335\377\221\275v\024\221\275PE@\274\360\315\363=\261\325m\275\265\204L>\326\013\020>\354\352\344=6\242%>\203\263\037=\021#\357=\322\023\023>\237\310\270=g\023\037>\233\366+\276\324\027\243=\223!\366\273\032\220\257<O\017m\275\322\3775\276\2454\347\274^\336(\276\2613\000\276.*g\276\320\204\343\275\304\336_\276\333\212\374\276x\320>\276O\221\217\276c\235V\2769e\r\276\345\373v\276\032U\254\276w6\373\275\204\n\357\275\2570\361=<\207\236=\320P\276=\313\331#\274\216\372\030>\216\201c\275\201\253\022>`\374\303\275\024\215\345=w\272\004=\251Um<\r\256x\275\367Q\216\275\335$\322\273\271\212\362=\314e\031>\336\327\213<\005\007C<9\235:<2\255F<\211\340C<)\202-<\334\025\t<\260\247\022<{q\227\274\366\017N\274\203\332\351\2732\\{\273{fi\275\245\365\r\275dv\235\274\300\333x\274A\022L\276\254\'\r\276\201\305\340<\374Ra=\0251\217\276\271\3106\276\273\245\342\275\371T\355\274p\035\230\276R1\211\2766(U\276,\200\014\276\312\203\210\276\317\225\246\276\010\177\226\276\313\316\205\276q\256\204\275\017\373\346\274@\212\353\275\010a\237\275\032Kv\275\2630\r\276\214\340\317\275PV\224<M\r\032\276\332|\345\275\357\2771\276c\t$\276\337\343\301\275K\231\257<t\260\362\275+\212\034\275\034>\036\275(.\253\275\302[A;y7\226=z~)\276\263JW<\313\205H\275\204$i\275+\211\022\275C\266\366\275\274\333<\275\350\374P<t\034\022\275\203\346G\275\235Le=\370\254j\275\373\360\260\275\207U,\275\201\2208<\355\210\034\275O\016\026<[$y\275\335x\375<\006`\342=\257pX\275\016o\243<\335\027\002\275=B\321=\316\332\303\275^\341\231=;s{=\274\316\215=\325Y\200<]\216&>]\277\027>\221%\200=\315\220*=L\310\035<y\231X=\010\020\003>\013\335\243<\347\200\250;,\332 >\013\356\254=o0h\275\370\374\275=\342X.>\270+\372=Tu\345\275\251\212\310\275\257\2106=\351?\217=\340>\205=r\022\027=\276\006\007\276\365@\2266\005H\204\275{\261\014\276+\022J\274\207\330\022=\240\022\262\275C\256\034\276>\213\026\276e\224Z\275<\244\224\275\001kb=\257\354\211\275\235+\310=\370\242\334:e\344I=H\013\216<C\274\351\275\326`\206=\275\223+\275\313\031\313=F\324<\275\325g\003=\260\277\252=\275\361\024\275\017\234\312\275\265%\244=\333\221\200=\230\276->\177\223+=r)\271=\252\025$\275\033\343\013\275.\240\"\276\027x\234=\244?\017>Wa\326<\177\303\254;-\266\000\275\203R\010>k\374\002>N\"\035>bl\027\276Y\320x\276\303\305\365\275R-`\276{\264X\276\2453\361\2751XC\276\356_M\276\325S\035\276\253\024\007\276\251v\220\276\026\033?\276\266\231\226\276`z\212\276\027\253\213\276_\201Z\276\263\213\236\275\263\255\035=\310\346\205=\014\324\024>T\r\241=V@\244\275\\\355\227;\037H\246\274\254\345j<$uJ=\312\023\204\273%\014V=;w\034=k\343\316=\212b\272=\037\007\274=\252R\332\275\3218q\276\r\251\320\275\301\230\026\276\207iS\276\275%4\276\002\361R\276\234\212\214\276;\341\212\275E\221m\276\314\2654\276\260J\250<\226 \212\276\244\310v\276\215s\213\276\276\274\364\275\t\267\350\274\217{\370<t\361r\275\022\017\246=\275fH=\240\241\315=\024:\221:\304k\267\274\00230=\371\340\234<U\354\267\271b\370\014\275\027\372\000>\365\200\250=.\201\343<\273\020\034\275\237w\345=\244dR={\010d<\332\031\027>\203x\032>\357\270\343=4\375\332=\335\365V<r\354\257=\354q\372=_\245\304\273\321r\230<\216\335\024>!FA=m\251F\275L\310\312<\322\355\032<\026\261\305=%\250\031</N#<f38=C\005\022>\232\371\036\275\265.n\275.\377\327\274\3748\244=(\225\351\274y\372\225<O\215\322=2\231\027>\377\333\037>\036\321d\274)\2028>H\222.>\013\341\026>\000z\346=\232:\326:\n\210I\274\026q0\275>`\201\275\376\035\302\274*\352\206\274\373!\236\274@\027s\274\251\225\222\274\034\247\267<\330]\036=\223\360h=;\0136\276\231cl\276\2309\005\276\343\244\207\276\221C\222\276\006\251\215\276\304\250\232\276\313&\221>\222\240\202\276\377\023\033\276\200\212\023\276\235m\210\276\357\237\257\275\267\256\201\276\2177\224\276\205\000\007\276\223w\213=:\034\311<6N\364=\033\212\336\275\r\276\224=\243\301\326\274@\014\026=\014\360\306>\212\357\r>\\\255\273\275#\025\004\275l\343\342=\205\275\263\273\304{\277=\"\300@\275\242m\004>rh\347=\001\347p=l_\302\272\177\216\252\274\265\r\036\274\256\261\317=\265\256&>\234\205\320=\304\267\341\274\330\235\322=cz\022=\363d\001>\214\364F\275\230\350\243<\027xu\274Eq\300\274\312%e\275\331\245\'=\316\367\013\276\327\034}\273Ae\\\275&\306\004>\225\003\237=$\000\231\275\"\223\235=\205\365\250\274\301=\t\275\202\013#=\327o\035<t\002\342\274e\354\317;\200\227G<\243\255\330=\241\204\376\275\243\303\224\276\302R\331\275\225\256m\276\346Y\271\275\2718\036\276x8\366\275\315H\320\275\233\003\\\276X\327\361\275\312\211\006\275\2441\002\276\223\226\006\276\020X-\276K\365\227=\n\037\016;P\313B<\346\005E<\261\014\003;\036W\240<\304\000\332<l2\266<L\326\354;\230 c=1R5=\003M\356<\353\360\022<\312G\343=\364\335\207=\205\026\006=m\234\335;\232\255+>a{\261<\035\'\003\273\246\3516=\221f\354=\201Bx;\201&\014>\312\265\253=\322k\"\274\305\002\345=\023\313\036\273\002\275]=\221\223\316=\234\341\354=NS\243\274@\215\005>\3376\316=\261\214\270=2jc=Co\211\275\360N\003>\256[\253\274\315\024\205=\237A\007\276\217\022:=\356\340t\275u\000V\274\223R\266=\177\363\277\273\272\'+\276\232m\207\275\342\366\251\274k\343\303>N\306\261>\212,\315>B\303\366\274\246\214\273>\342\265\240>\231\243\273>\314\177g=Kz\240>P\362\247>\266W\262\275\320\363\261>U[\234>\334&0\2764\356\235>\333C\272>\006Z\361\275P\315\240\275\027\ti\275\247\325\305<m\337\005<HH\247\275\344\321\200=\265<\241\275\252\260\307<\003\3562=\215-x=\321\\\346\2759z`=\276\354\261\275\277\344S=\251^\307\275y\216\034>^\n\316=\2112\033\274\203]\022\275Ez\333\275V\201\214=\311\032F=\237\305f\274Ni3\275\315St<\316\000Q=\214:\252<\"\214\003\276r\327\210<2\000\002\275\023Id\275^\251\231\275\247\254\237\274\200\322\020\275\200\027\263\274\336 \004\275\323\000\"=\003\237 =\030E\243\275\256\300\037\275\305\207<\274\030Y\213=\317\217\230\274\374\303\003\275Y\244-\276I&\366\274j\240\207=\234\037\354=>\302\033=\272\232\010\276\271\241\231\275S\323\332\273\245qi\275\347I\252=\305\311\035\276\377\365\333\274|\370\265\275\237\302\241\275\212\337O<J\313\233\275\376\\\346\275\235X\215\275\004\332\213=p\271\226<%^(\276\272\301\277;\205\353\200>\310\247?\276\251\334O=\243\255\027>\351\003`=\3313\035\276g\"\023\275\265\032\230=B\250z\274\271\277\010=\323_\004\276\022\225\246=h\021\266\274\014\374_\275\230\002\336\274\245c\323\2759s\222\275\220\376S\276S-e\276(\345\212\275rD9\276\312\234\207\273F\307\230\276\200\340\313\275\221\312\025\276b\027)\276$\0100\276\260J\346\275\203_\360\274qu$=\305\300b\275X\010\320=;\261\004>p\372\337=mOp;n 1\274/\340\306\274z\022-\275\2330a\275}b\367=\230\2041\275,\362T=\357\212\210=\326]X=\370\235\030>s\304A=y\360\016=l\354\266<\2402\217;Z\025R=\266h\007=\2157k<\033\363\215\273E\351\030=\333\201\2379\372\346\360\274Y\232D\275\236_\364<\247w\036\275b\272\265\275\377z\334\275\311\261\230\275.X\206\274\334\261p=\026I\274\274a\024\017\276\"\357\207\273\376)\024;\213\255B\275\0216\002\2764\024\325\272\001Mn<\006\301w\275W\216G\275$\363N=r\370\211=\034\026_\2742\234\267\275\377\213H\275G\033\\\275\251\251[=:\320[;\307\270\302\275sI\272\275>\314\323\275Xd\233\275\327\277=\274{o\304\275a\016=;Yi>\276@\2211\274\205t\231\275\210\272E\275\037@\022<m\303N=|\252\270\275\251\344\274\275\004\314\252\271\3447{\275\002#\333<\004-a\276\3635\006>\330\2516<\301\206\242\275\020\316I\275*\n\211\275\000\341\232\275^\237M=D\301\n\276HB\003<Q\233K=V(\242\274\323t\270=x\310F\275\372A\021\275\n\r\'\273\212\220I<\207\251U\274\247\371\201\275q\306\246\273\206\004\366=[\027\305=F\346\351\274icA=2nH>.\036\266=\324\225\352\273\036m\225\274\0256\346\274Bf\236=M\305Y;\267\367\241=\027\022\301=\306\240\215=\274\\\265=5tL<!G\203<_\3631>>\'\202=\300\265\236=\"\035\277=\362!\360\275\250\021\272\274$\216\343\275Y&\033\276\333\364\332\274`\304\357\275\250;-=\250;p=\344D\202\275J\365\213<Q\'\216<\025)\006\276I\270\215=\331\3661\275ZP\010\275\033u\336\275/5\341\275S\250\353\275\2550\325\275\0043X=\233\223.\273\255\327T\275L\266\017\276_\026\200>e~\235=L\275\006\274[d\207\275\274\356\266=N\333S\274p\350:\276\2654\271;x\261!>\350D\363\274\207\357\377<\226\353\024>9\372\266\274G\254\242<`\274\026=)<1>Q\036\303;\344\345w=\301tg=Z\225A\275H2`\275v\002\363=\332\310\332<}\312\206=\375\032h<\227\234E\276i\274\200\276\026\353\371\2758H?\276\327\000\023\276\360\307\230\276\324]\224\276\361\203\235\276j\321$\276\256\302\216\276.bo\276p}\353\275\363\344)\276\363\235F\276\332M\r\276\036\004\236\276\251\"/;M\221\234\275R\341$\273\217\222\345;+\r\350\274\235/\353=\324\2109\275\217\n\340\275\303h\267=\t\020\000=\337JQ\275\nb\306=\202\333\3627\227\3341\273F0\220=\236\330P\275\261\254.\276\216G\210\274\257O\235\276\213\005\200\276\316\276C\276\216i\352\275\345\247\201\276\2323\346\276\363u\367\275\330-h\276\375\373\333\275&7@\276\303y{\276\303v)\276\013\201h\276\300I\365\275\374jz=\275\260\306\274E^\244<\356\006+>\217}\'>^\254\366=\210\226\330=d\034\360=7bV\275Xz!>^#\035>\220\211\013=\367\2027\275Z\257F=~\262&<\026\247\336\274`\\\202=Q5\372\2749\336\031>P\371\022>\321\303H\275\245B\021\2750\255\r>\376\231\002=\242u\257=\333\212\"\275\360Kl=/\201(>\357\021\026>C\374);\212\230\366\274z\002\250=:\262%>WLD\274F\361\031>\210\332\236;\036jS\273\211\204\034=L\322\025>\222~\002=8?\026=\327\242\032>\003\243\235<\315&&>\020\005\320=\223`\331=\"\030\n\275\377\364M=\216\211\254=9t\002>\216\211\030>]<\014>pj\231\274\010\244\305<\025\027\377<n\303\215;d1\253;.m\221<\010#O<6\350\014\274C$\223<\241%\252\274\216yc\275\366-\213\275\225c\215\276|\263d\276[c\217\276\345\307\246\276\356\316\257\275R}\270\275\347\005\023\276\275\3016>\264,\004\276\275Y\204\276\034\236\017\276\207\275f\276\307\031\361\275yo}\276b\021\246\276\220af\276\346\260\232<#Rv<\036\213\203\275\262\001\306=\352\200^\275\363#\004>\352g]\275\032%\252>\375\230\323\274\327\204\252\275]\'\035>:\330\022>\230\357)\275Y\343\207\275K\235\302\274#\220<\275t\351Q\275\266C\020\275\034\276\335=\317t\244<%S@\274\212\033\006>\3446\253=~\311\235=\256\343\033>\316\227K\275{)@=\251\3640<\341\360\014>\253\014/>\037\033\312\274h;B\275U\370e\274 \032M\274=\222\311=\222A==\200\270\377=\010\326\367=a\307\262=\355\263\034\275\334b\206<ae\024\276*\256\344=8\337\\\275z1\004\275\215\203;=D\357\310<\352C\237<\241s\004\275\366-/=\002\345\221\276\352R.\276\251\3268\276\226\364\310<I\r\333\275$\306\"\276\353Y\340;\332\301/\276\370kv\275\357I\247=\351\027\351\276\205\323\232\276\227\245\243=\212\244\227\275\376!\332\274k\022>\275b?\023\275\225\224\320;p\312\251\274\341\253\"\275\023J\326\274)?\250<\206V\245<n\031\244<\250\206\035=\234\366\232=\246\024\310=\014\201\t>\275\006\">\314=->\034I\324\274\200\207\t\275\320\325\322=\216y\234<\020\341J==2\001>\212\370\003>O\003\371=\227\211\206=\266\300\014>\274\257\335=\226O\002=&\273\034><C\365=\332&\353=\337Q\n>b\254&>kij=\365\027C\273\206\363\033=\016\256\235=\231\211\242\275\203\353\002>\367\002\376\275gI6\274\342\331\337\275\206m\301\274\231\0337\274`E\257<Q\"a<\365%$<\n`\037>\234\004\210>6\007\305>L\341\223>\371\316\350\275$\253\222>\207\014\305>tz\264>\234C\333<\257\004\271>\321\340\237>Q\2712\276Y\n\363>^\271\240>\227\263P\276[d\001?\252\276\304>\204\251\220\275\322\331\177=0\325\262<L&\202\274\302\277\005\274e]\032\275o\035\304\275\004\237\224\275\374\017\262=\356:\334\275)\004v=\014\237\267<K\2358\276\007(\032\275\210\2710=\254\354\032\275\312\310Q=\362\022\n\274{S\234\274E\340\274=g*\001>\214\340\272=%7\241=\303\273\035<\004@\002>6\246\025=\315\227a\275t\3312<\326\341\302=\344\004\250<\013f\003>\037\310B\2740\305\004\276\233WA\275y\333\346<0iq\275\252.\331:l@&\275\352\356\231\275\370\374|\276\2410;=\321\037\324\275\t\217\221\275\026\373\220\275\227\207\255\274)\225\344\274\274\355n\274\000s\267\274\032M\001\275\017p\277\275d\344\315\274\252\232\312\273g\242\017\274\361\246\030=\306\257\222=\215\304=\276~\026\030\275\307Q\025\276\337p\351=\017\377\265<\\\234X\275\337\214\347\275\031\304r9\325\024\211\275\355\254*>2\022\246=,h\t\275z\001\216\275?Y*>%uN>\332r\035>9\000\010\275\332|\271>P=\233=\033\245\340=\347W\351\275\325C&>\375\367f>\310\206\320=\2044\237\2769\035\222=.\274`\273(\243\242\276\276\013\241\275PHN\276P\316;\276=\3734\2769\277\265\276\360\351\030\276\220y\n\276\331\211\362\274\314\334C\276\326\036\035\276Fx\251\275\317~\026\276\205\250C=R;(=\321Y\002\275\361\370\263\2741\237\355<L\273\260\273\262\203\225=x\332(>\214\260\001>\303RS\275r\242\270;*\241\331=8\030\037>\275\344\337\274\260\270\321=+\026\214=\347\336\034>\314\341\273\274\013\354O\272\251e\266<\214\232 =\362\243\031\275:s\365\273(\247\247<\252\031&=p\265\235\275\343n\037\275\335z\304\272\2055\261<\305n\310\275\026l=\275\001\206\307:\333\264\241<4m\354=\007E\360<k\350\360<\010\340\221\275\257#\204<p?\307\272\223[\345\275\350b\033\276\277\247\257\275\\\360\326\275\177\311D\276\205NX\276\307+\373\275\022\367J\2761\302|\276\312\234k\276`n\207<\367h\201=\002\304Q\275\266\203!\276\351\031\263=\247\321\r\276}\007c=a\204$\275\276\306\301\275\361S\r\276\234J\363\275\3652c\276\377J#<\2248\177\273\246r\330<\246;H\275\330\007\335\2755\274\337\275\213\324\210\275FP&\275\317\334+\276t5\235\275\247gn9U\035\034\276\246\241\343\274\334\352\241\275\222\037\021\274x\316\221=\342\224\024\276\211d\205\275\311\341@\275\013\337\253=pA\000<-j\363=`\367\022=g\372\326\273\224,\016>Rn\324=\013>0=Vz\250;Y\345\237=ITN>\211\271\320=\200\2454;8\235\266=\027s4>\331j<\272\036\237\242;\241\217\031>\342}\227=8\000\277=\201j\235=\210/X=so]=d\3773>5\350s<\313\250\002>3\376\021>=k\023\275lwk=`I\025\275]\262\252=\370\316\004>\217\263\006=\220\334\201\275\236\316-\275{#\030\276\247 \033=\007\213 \276\3341G=,X\200\275\303`\025;\341U2\2754\340\036\276g;\377\275\004|\002=\020\2154<\242\331F\275]Y\223=\222n#\276\201I\231>g\313\201>\033\002\205>u\331\235>\302UH>\2405T>\343^\245>h6T>\242\225\263>%\223H>d\2038>\272\341=>\233\203\251>\226\327\255>\344z4>\366\016\245>/}b<\202\210\374=A\200\251=\036\350\202=cx3\275UL!>\007\000\n\275\271\263\272\275\251[\354=[U\000>\325\273\362=\243\366j\275P\250\334=H\020\014>\023\231\022=\300Ej\272h\361\341\275@\334\205\275?\265\006\276\215\n;\276\267\026\027\276x6\266\275\235\206|\276z\374t\276\343\332A\276\304\024\251\275\337Qa\276x6\207\276T\365l\276\366\363N\276m\222{\276\303\241\365\275\031,\210\275\230\273P=5z\031\275\354 W\275\222O\255\275\201(J\275lA\265\275y\213\033<\300\020\207\274\037u\254\275N)\240=\320\332\351<\002\327\226=\344\325\346\273A\251\213=>\222\332\275\020\'\244\275i\226\246\275\304\306\006\276\031aZ\2767\356\305\275R\332U\276\0043=\276\300E\255\276X\371y\275\223X\231\276C\224\017\276E\035\367\275_\301\236\276o\350#\276@\330\022\276>Z4\276\345\211\335<\325\372\351=_Ef=d\031\321<\244\027\246=\003\326\365=\335j\310=\316B\004>\301\325\014\275+A\235<\347\241\240=\3130K\275\363z\234=\332\366\025>\2208\254\274\2413I\275,\303\005\272\034\256\353=\252\033)>\327\031\017>=g\035\275g\221\273=\266\200\336\2742\215\201\274U\031\234\274U0\037>6\2073>\013b\026>\nB\234=\001+\266=\335\353\241=\025\254\314=w\3455>\341\262i=\022F\304=\344(Y=wx\251=\216\273\262=Xv\013>5\315?\275\214As\274\301S3;:\335\023>\326\250\377=\332.\356=\376n1=\"\357N\275]\021l<BTe\274l\3348\274G\332\256<\225Ap=lO\246\274\217E\033\275\361\002\005\2754\010\230\273}\321{=\024\357\024=\026\336\206<\032\216\300<b@\300\2743\322\227\274\272h\"\275\312\344C\275\324\201_\276\205\361[\276!\022c\276XI \276\3361\242\276\354\235\221\276/\002\215\276\006\031\264>7\020-\276\361\217\365\275f\210\021\276#\334\207\276\024L\272\276\322\272r\276e\327\007\2764H\223\276H\276\223=\220\263\363\274+\346*\275\273\314\215=\331\375<\275\243\376\216=#R\007=\336\370\262=X\323\274=\317S\362\273\325]\252<\237\221\241\274\232&x\274\201\n\017\275\326?\250=\236B#\274\235Qk<\016\003\034=9|\323\273v\034*=\031|\031=_\331\372=4+\301=\214\212\027>}W\221=\305\220\201;|U\010>\211\375F=\240C\355<6\016g\275q\311&>\0257K\274=\027\253=\023\271J\275R\355\006\275\037D!<\033\203\177<6\0316<\344\354\341=\250\001\310\274 Y\242=\331_\020\276\310&+>R [=j\272m\275s\215:\275\327\373\017=;\3476\274\021\245\215<G\200f<$\036\241\276\242q\375\275S\347\224\276\261\213\303\274$c\205\274\236\240m\273I[d\275\202/\270\276\3110\327\274\231\241\355<N\240\355\276\026\243^\276\244U\026\276\344\2209=Oc\023<v.\230<\203\257.<\355\226\250\274\220\251K<\273\031\307<*\311\212<q\323]\274P\344\343;/v\216<\t\221\206<\241c\226:\tq\224\273r\3265;\224\307i<\377\003\362<9@\216=\266\367\214\270\333\013\027\275\232\305\">%N\001>\371\334\333=S\372\034=wk\277=*\376 >\002\013\336\273\007\024\361\274{\226)>\324@\035>08\276=!\263\221<\004\347\313=\237\342\t=\345\226?\2750\262c\275\024P\230\275j\232\242=\322\376M\274\374\020\340=G\262\335<\367q\036=\365\2452\275\330\303\222=\246\3317\275(\356\035\276\331V\017\276\211q\201\275\242\300A;\241\236\221>#.\237>\352\225\333>\200\024\226\275\341\354\326>\322\335\236>\251[\253>sTj=<e\231>ay\301>\267\013\'\2762!\221>\305@\345>\203O<\276GM\232>\251\336\314>\203\221\265<\370\335\000\276\016H\030\276\277\014\252\275z\332\007\276vP\344\275T_\014\275\205\023D\276D\345F=\247\367 =\214\002e\275\321x,=\017\016\250<\262D\322\274\221\207\321\275\255\274\207\275\200\224\247=\261\326\366\274\377\365\375=\316\275\036>\2374\034>\226\357+>~\313\264=\313\262\024\273(\233\341=.\343\212<\350\032\022>\227.\354=\215x\332=\3247\005<!\003\325<@\352\022\275\243\336\303\273c\346P\274x\373\255<6w\036=nG\006\276\324\3434=F~\260=\026\372Y\276\356\017\346=_x)\275VNe<bAA;\313C\314\275\264\007\031\276q\360\314\275p\202w<\372y\000\275l\337\263\275\313~\307\275\227`q=\373=\341=\021\335\334\275\360\237\240\274~\253\237\276\267*\254\274\376~\251\275\273\272\335\273P%\276\275\213MR\276\245c\036\276\207M\330\274}\2577\274"
      }
    }
  }
}
node {
  name: "f2"
  op: "Const"
  attr {
    key: "dtype"
    value {
      type: DT_FLOAT
    }
  }
  attr {
    key: "value"
    value {
      tensor {
        dtype: DT_FLOAT
        tensor_shape {
          dim {
            size: 3
          }
          dim {
            size: 3
          }
          dim {
            size: 64
          }
          dim {
            size: 32
          }
        }
        tensor_content: "\263Xk\275\032\362\020\276{1\006\276\316\003H=<\264E\275r\010\203\275ZG\013\276\231\214\272<ya\207\274d\320\246\275&\\\023\275f\2354<e\243\013\276\351_\014<M\222\217\275X\257\235\275\331G\374\275\014(\t<\227\332\260\275\267\340\240;\365@\254\275\310<\222\275BB\251\275,[\215<!\335\027>}\366\023\275\377;\007\276\272y\247;H\213\357\275W\362\320:\0214\002\275\232\247\324\275bk\023\276\363v\036\275nK`<\250c\245>\201#\025\275^\202\331\276t\365s\276\273\337G\275<\372z<\277a\301\275\326\364\020\275H\357\000\276\376\033\220\275\004\203\007\275\331\021x\275h\037\220<0F\212\273s\225Q\275\013\205[\275\241n(\276z\313\264\273>Qj\274\312\276\026\275\014r\260\272R\336\236=\233\335\327\274\345\243\267<\"K\331\275\355\343\006\276\0174\031\275^\025\235<\031\250\006\275\350\271Q\276wR\221\276ET\327\276d,m=\305i\005\277\207\276#\277\265\261\205\275U\037!\276X\213U\275\354\333v\275i\3558<\3563K\276\037\200\262\276cN\001\276\027\014\307\276\317\000\300\276\036\013\372\275i\014\202\275\000U\310\277\366\211B\276\007\007\016\276&\3060\276i\247\371\274F6y\276\024Y$<\004\n\215\275\017d\300\276\226;\370\276t\036\013\277!\276\307\275\207\336\t\277\203\212\273\276\022\030b\276\325\246\035\275P\025n<w\177\373\275\353\3621;\233!o\275m\231\227\274\251\357\000\275\232\026\360\275\006\341\003\274\304\021_\275\311A=\2757\363U\275],\303\275\265\020\317\274~.\000\276\264Z\016\276:\346\020\276\265V\216\275!\n\003=\243=\371\275J\353\224\274\215\343\017\276\305\212S<\306\371\337\275Q\353I\275HF\271\275A r\2743\334\202<c\333=\275\026\202d<N\316\244\274\005\251\344\275f\250\016\276]\333\017\273f\362\231\275\374B\204\275\330\r\177\276\217!E\276\026\274\230\274k\235\025\274^~\000\276k\345v=\246=\377\274\377\340\326\276\327\354\376<@\217\264<wm\240\275YS\303\275\0213\202\275(\220:\276\327\357\274\276\207\264\037<\214\344\352\2753\327E\274\304_\243\275\331\351\002\276\003\321\255\275\213\363\315\275\217{\224\274\007o\300\274\346\206\340\275\177\016\005\276\235+\371\272\304\356-\276M]$\273|R\215\275\244XG>\227\333\314\273f}\275\274\2256\230\276>\214\214\275\346\013t\275PqY\275\370\322D=\021\016\230\275+x\224\274\250\021u<\235\336\016\276~x\303\274\307\302\007\276[U\001\274\022\275\274\276\272r\331\276AH\243\275pI}\275\003l\261\275\004z\334\275\230\255\255\275\334\311}\273\374\\S<zjb<\270\302\201\275\260d\207;\324\306\t<\334\345\237\275s?$\2761\323\013\276\026\377\307:(\202\202\275\203\014\352<\354\223\317\275\r\203\014\275=\237\364\274=h\265\275\302\212\010\276Xku=w\342_<oz\351\275&R\202=\275\301\214\274\007F \275\364\237\203\274U\257\266\275RH3=N$/\275\267\026_\275\224\365\271\275\024\013\243<q\206\351\2759\251\217>`\347\273\275\312,}\275W\027\252\275\367On<\371\216\227\274\214^\207\2753Q\214\275\030u)\276[;\213=\362~\022\276\203\032!\275\356,$\276q\267\214\276\343\203\375\274\372\020\324\275\315\252\337\274\023\017\373\275\016\'\000<\026T\337\275\034\325;\276\253\021\032\276bO\001<\0266e\275\033\373\355\275+\363\344\274\355;\245\276\257a#\276r\202P\276\236\246b\273\326\213\240\275\036\373\227\275\337\250.<\337\013\222<\233$\252\275\tR$\2762i\2567\010w\376\274\207c\005=\201^\361\275\354)G\276X\272\327\275\201 \007\276=(\222\275\320@\235\274j\262\n\276\242\311\007\276\331\377)=\275!C\272\357\266\307\275\374\337*\275\254\263k;\327\242f\275[?\t=\242s\002\276&\026\245\275`\304\212\275\260\255\031<W\344\363\275\225\301 \274\272I\322\275\312\212\305\275\340_^\275\215\265\204<u\010\237=\372\253\237\275o\315\200\2731F\212\275\354\354~\275U\221\256\275\022\254\021\276\033\320\242\274\001\366\213\275\276\225V\2746\206\245<\362\335\321\274\006\241 <\375\000&\274L\313\202\275\21159\275\036\260\345\275\262\350\336\274\342T*\274\350\304\365\275\250\364\223\275\'eZ\275S\004\271\273\274\211p\275\177L\330\275\024\275\366\275X\257\010\275\205n]<_I\306\275\255hN\275\242l\360\275\014\344\267\275\304\372\\=\340P\245\275\177\313\302\275o\372@=\266wf\275\r\216\026\275\266\316\227\274\241\246\206\273\207oj\276\336\243\342\275\307\275\316\275\246\264\347<\002\372\210\274\366\237\210\275\210\223\027\276\312A\264<\351J\342\275\204\236G<\352\262\316\274\213eY\275\371\372\273\275\272\257A<\2457\n\276\312\271\321\275\223\377\013\2763\275\372\275\364R\343\274#\227o\275\267N\333:\210.\370\275i>y<\275\357Q\275\207\3304=\224\274\177<:\266\200<j\"\025=\017\013\231\275\345+8=\261vc\275\374\301\356\274^\274\020\276C\353\327\275\311\350\t\276V\302\346\276\256\031+=\316 \325\276\324\355\247\275\262\243\317\274\360\322C\275\276\037&\275YYI\275\002\277\035\275\017r \273=\'Z\275\275\307:\275\254\320\t\275q\004\266\274\206\002\366\275B\362\001\276\314S]=\232:\013\276\203=\004\275I\010\313\274\032`\246\2751\014\313\274\351\310\216<\253\223\242<\016\334\001\276\315[a\2759\026\236\275\240\276\002\274\320\202\255\275c&-\276\234\002\244<\361\310\006\276\215f\026\275\355\330)=\223\320\244\276\360=\216\276\236\006\323\275\230%\001\276\'\357\000\276\031\337.=\352\031\262:\354\320\263\275\312\210g<\236\315\321\275\354[\227\274.*\313\272\331\004;\274\360\037\355\275\244z\232\276\335P\241\275\253=k<U\275\013\276\223Y\';\240\217\316\274`)\002\276e\220f;\224M\203;\224\251\n\276\323\265u\275\272\327\252\275RX\224\275fq\002\276\367\365\277\276\245{\241\276\375\350E\276:\263@\276\226\333\324\276Y\212c\275\221!\027\276r\206\"\276\303\"\010\276e1\014\275\003 \013\276\206R\307\276+\3172\275\306\316z\276K\360\231\275oE|\276\214b\010\276?3?\300\246^t\276\020\032>\273\354\000\373\275\257\225\235\275\244\242\251\276\310\247T\275\225\003\362\275\216\230\311\276\257\316\245\276^X4\276P\377%<\2433\007\276bH\257\276>\2623\276\311\247\030;\253\244^\275\014\236\035\276\302\343\263\274]~\206\276zrK\276\306w/\274R\nb\275t\354\376\275\242\372\003=\2205\254\275c\224w\275\263\305\343\275\303\342|\275\272vw\275/\250\326\275\016F\225<0\020\322\275Sz\004\276HI)\275@\307\373\274\265\r\t\276\020\357\342\275\215\271\272<\226+\327\275\014\351\020\276eG\312\274\027\226\352\275\2142\302\2753\354\327\275?Z\365\275\341za\276\3456\n\276^\233\226\275\224\251h=\003\225I\275\0277\256\275\347M\t\276Wx@\274\226O\273\274\315M\001\275\2468S;\2309\315;\0308\260\276\253\347 =f\320\327=\341\257\363\275?i\223\275\351\360\022<\267L\335\274\3477@\276\032%\003\276f\023\315\275\013#\301\275\275\031\365\274$>\214\276\222/\331\274\316\234\220\275|8\035<-\013\005\276d\232\325\275\204Hr\275\244\\\370\275\352\177\t\276i8*\275P\356\255\275t\341\242\274\324T-\275\315\300\333\275\026\032\215<\222\353\331\272Y\307\323\275-\236S\275}I\213=>\244\365\275\346r\320;\367>\263<\270\227}\274\302\364\273\275\317c\307\275\003\372\322\275\2210A<\027\261\225<Y\005\366\275\"\177\246<\341\013M\274(\230\262\274{S<=8\007\014\276#XE;\344ry=\210\376\343\275\217\2409\275\236\235\316\275q\"\022\2760\335\024\276\361bd\276\n\334\332\275B#\022?\234>y\276A\310\307\276\346\324\231\276\002\234\305\274\363<#\276\026D\375\275\360w\260\274d\372\022\275H\377\272\276\236\353\205\274\002`\264\276\207\325+\275\004O\330\275jR\026\276\355\000J?\021\005\217\276M\013\330\274\022N\341\275v\251\223;D\350~:$,;\276z\336\251\275&\215\016\276\357\243\016\275\317J\364\274\332\'\342\274\277\213\202\275\003\242\200\275\321\334_\276\245\270\000\276\361\016\210\274\201\323\221\276\201*\207>\365x\223\2768\'\252\275k]I\275\300\247\264\274C\021\242\275\324t\334\275\236\261\306\275\2470\312\274#\370\276\274\3756\310\275\254\\\010\275\277\357j\275z\317\031\274\027a\r\276\360\332\344\275Ph\205<d\302(\275l\355\014\276AX\002\276\311\333P>\361\322\014\276\256,\005\276\031\252\303\274\326\325\326\275\204i\354\275u/\007\276=t\010\276\207\241\334\275\263\267a\275o=\016\276\342d\027\276\025\323e>\026\356\206\276\032\320F\2756j\332\274)\254\\<\306\201\325\275ZN\314\275%\231\205\275P\\\221\275\210tY\275\241(\333\275n\017\275\275\331\236\007\276\027\256\256\275hA\207\275\212\200\324\275^>\005\274\324YO<&4\337\275\365\210\025\275\3726->\205\357\016\276\264\275\021\2751A\254\274\237\307\347\275}d\312\275(5I\275\223\354\t\276\241\r\370\275A\005}\275\177\273\213<\033\226\366\277\034\374\273\276N$\311\275v&h\275\222BG\275G\335\216<\0301\260\275\257\276x\275\315\257\321\275\232r\304\276R\217\352\274\275\264\351\274\010&\315\275\005\000\022\274\2310;\273\332\206\256\275`\212\217\276\340\206\367\275\377X-\275\311\027\257\275,\233\006\275\030\312\355\277\374wO\275\374\324=\275\n>\240\275\253[/;\357\360\263\275\2724V\275\325>\262<\371\324\236\275\264\230\335=\2316O\275\310\'=>\327%\251\274\002\356\341\276\n\304?\275\255@\r\276}\226\016\276\244\303\335<\240\225\242<j}\370\273\014\210\205<\357\202\220\275\217 \030;N\242\216\275\3440\017\276\373~\325\275B<\367\275}\202\236\274T\365\373\275\2513j<\006\030\r\276\220(\327\275\027\000\255\275Sw\336\275(\016>;\020\017\246\275A\370\346\274\316V\243\275\260\304\004\276\271 _\274\227\202\304\275|\223\366\274w\324\347:o\024v\275\303e}=R\tK\275t\364\336\275\325t\227;\375h\363\275\007HK\2751J^\275s|\372\275\305\277\023\274of\220\2743\200\230<\177\205\020\275lh\007\276~\310p\275\014W0=\216\305\262\274\315\376\007\276T^\035<\324\005\302\275z&\213\272Q\274\220\275\357/\302\275F\216T\275[\n\226;\007\335\246\274\224.,\275 nZ\275\235D\217\275$\304\355\275m\361\364\275\021\177;\274\354\261\027\274\234F\203\275\\%n\275I\345\020\276\373a\374\274 g\020\275y\233\027\274\254\370\234\274\236x\n\276@\265I\275Eb\323<\347m\362\274k\210\306\275\267\370\302\272\377b\353\275I\270\212\2722\370\265\275\273@\234\275\371\335:\275\262\204\333\275\277\t\245\275?\342\235<q\352\361\275\232f\031\275\026\275\327<L\274\324\2754\274\311\275\200\353\232<\177 \013\276\270\3025\276\254\017\373\275P]\261\275(\225\363=\037\365\210\276\312Z/\276\221\333\263\275*jR=\315c\221\275\313\262X\275\\;-=\254<\033\275\030\002\342\276+l\340<\336\367\214\276\300|9\275\001r\006;o\216\251\275{\300z\300v1`\276ydy<\001\026\000\276o\246\263\275\276\332\300\275 l\020\274\316\265\346\274\351\322\\\275\361\002\252\276?\256\220\275$\261Q\275\013>\t\275\246\373\222\275\006\245\346\275<+\362;^\325X\275\032?\216\275.wC\2751\017\241\273v\376\365\275P\216\314<\235\341x\275u\376\031\275\347g0\275\325\236\265\275U^\360\275:L\201\275:\220\235\275\255W\017\274\227\357\211\275\211\267\324\275!q\351\275\013\334\234\2757\225\216\275 \013\027;\344)\203;\331\265\332;\211\214\357=p8\030<k\235\366\275\261\237\207<\236\351\225;q\333\264\274\265Q$<\354f\337\275\330\023\n\276\n\\y\2743\343#\275\035\314\010\276\353-\236\276H*\021\274\027+\246\275LK\235\2743[\226\275r0\201;\006\250r=\345\013\275<\2510\247\276\200\230#<a\301\261\275r\211\312\275\300f\351\275\014x\002\274;\334W\276\343m\277\276IE]\274\236_Y\274\321\256\317\275\277\026\314\275E\371\225\276,\314\010\276\247\276\371\275\243fD\275\306v\321\275\223V\322\275\341\312\212<\261d\321\275R\274\304\275\203\245\020\276G\205\315\274\031$\036\276\342\210\031\276\211Z\337\2764\227\210\276\3604==\001#\274:2\212\333\275f\006\363\274\256\324\222\275\310\220\022\275@\341\177\275\370\013\356;\232\356\207\2756\213E\275\211\310-<T\t\247\2764\352\203\276\345\371\273\272\221\261\333:\260\037\300\275\347\240\270\275\237\221\305\275\374\000\316\274\215\242C\275Ni\337\273\366\374\034\275\225\266\334\274\372H\004\276\356}\270\275w)\035\276\326iG\275\022\277\272\274\035\364\223\300\365\315C<~\371\377\275:&|\276\352\304\215\274\366\325\304\274\245\352\206\275-\221?\275\020L\021;\2359\317\276%\340\226\274\272q\241\27578\213<\t\272\005<\206\236E<VE\346\276\375]L\276\020\212\242\275\357q\351\274U\324\223\275\210J\370\274*:?=\276\030e\275\200d\254\274\020\216\270\275(y}\275\034\206\343\275\2732\022\276TI\277\275O\205\006\276\305\177b\275\275\377\303\275]k\002=\300:\t\276\277\346\266\276\341\356\246\275\351\204\013\275z{\214\274\033\371R\275\1770\233\275\341\212\316\275\353\177\006\2769X>\275\251\322\000\276\004\202\327\273Q\263\014\276\231\2323<?\334=\276\237PJ\276fw\200\275\275\320\010\276\006\2223<K\241+\275\033\261\222\274\317\237\207\274A\242\033\2764\257\254\275\351\366\301\275\255\254\245\274>\001\207\275\314\237\007<1\372\244\275\022\357\370\275n\264\001=\356@\033\301G\327 \276\237`\325\276jLh\276\016\022(\275\217e\242\275\211.\223\275n6\243\275\227U\215\275\320U\222\274G\2551\275Y\337\272<\036\352\007\276\376\267\250\273\270\307P\274\360\"\350\277\312\335\315\275z\254R\275\375|I\275\321\3168\275\240\260\'\275\247\246\360<*\330~\275\276$\017\2761U\021\276%\027\223\275\215\356X\275F\030s\273f\301\010\276\037\331s\276\267YM\275\220e\036\275\265\230\213\274\370\261x\275I<\232\275\241u\007\275\t|\323\275\210\312\013\275\347\3744<\026\367E\275\315x\233\275\334\'\002\276=;\007\275\205\212\325\274\325\315\211<\024\204)\272\255s\017\276MK\033\276m\343\373\275&\265w<~\342\375\275\271[H\275|m\032\274+N\002=*\2017<C\260\000\276\200\035\364\274}aG\274\347a\2269^\255\373\275\026\207\273\2758\035\306\275\360\313\233\275\rv\374\275\236J@\275|\366\210>n\013e\276\321;`\275s\030\004=\251\247\344\275\270+\374\2757<\360\274 \335\010\275*Q\216\275Q/[=\014\237\211\275x\304\206\274\235V\n\276\201\364\237\275\0352\240\275p\267\230<\007\303\216<\220\253\237\275D=\204\274\031\276^:\313\263\037>\360\027=:\r%l\274\177\331`\275u\240@<\264\"\332\275\264\342\221\274zM\354\275\016/\303\275\267\007\277\275\266T\274\275\261\275\254\2763t\363\276\221U\023\275\032#\240\275\357\026\323\274\233D\340\273\r\303y;o\332\r\275?\352\021\276\301\024\270\276\360\010G=X\257\250\275\"\337\205\274\306.\323\273\215\rV\275\366\001\270=\t\3469\276\2131\346\272\336\344\254\2756>\250\275\246\235\240;$${\276\350\3556\275\264s\350\275\326\300`\274Hk\221\274P]\265\275X\237\237\275n7j\275aT\201\276\314\263^\275\303\373\257\275\372\271\317\274\213o8=I\241F\276\212U\231\276\210\027x\275\"\343\360\2755\375z\275`\250{=\305_\313\275#B\306\275\341\325\020=_\272\301;\2507\262<#a\344\275[\217\356\274\316\014\264<j\350\035\276+=\345\274\363b\210<:)9\274%v\214\275*\037\277\276\337\216\323\275}\260\013\275,\205d\2745\343\021\276\262\375D<\027[\202\275\201\355\341\275\212\270\315\274\314\214\270\275\247h\362\274H\000\006\275Im\231<\376Oo\275F6\354\274\316\014\367<\253\365\304\275\245\351\027\276j\214\301<\262[\220\274)(\261\275ZXU\275\331$\254\274b\206\223\275\276\032\301\272\231U\014\2765\211\232\274\307\361\251\275\2600L\274\021\251\321\274\300\247T\275L\232\010\276\353\333\225=\\&!\275\332 \222\275\215j\210\2745\034\243<\247\307\260\275\253\277\273<\t\025K\275FS:\276k)\225<\\\236]\275{\333\361<\002\1773=\351\262 \276O\025+\275e\317\250\273xJ\252\274\177KJ\274\001\003]=-\360V\275\032\276l\275\200\025Q\275\033}\226\275\332FZ\275NQ\211\275l\005\250\275T\370E\275\240\231\201\2752\213\213\275\222\272\233\275X4Q\275\026\031\244</;\231>k\316\222\275\036p\227<\227\367\304\275\230\005\243\275\226\343\203\275\335M\223\275\316H\023\274\240\004\036\276\302\034\235=\247\271\000\276\000\372\016\276\237\334\010\275\027\311s<\005\341\030\275\235s\000<\306ke\275\357\230\275\275\250;\257<\363G\264\275\224Y\t\276\343\235\267\275mR\325\275xv\313\275{\361\200\275\315\"\201\27561\325\275\212\033\004<\210\334\006\276\030\035\210\275\030\002\355\274\367\320\216\275\034u\026>\374\027u\275\217\027\365\275\0039\014\274\341#\001\276e\225p\275\361\007\257\274\332\362\220\275\370Tg\276%\267\326\275\270\310n\275\250\336\242=\355X\375=<s\013\276Q\250\356\275\002\002-\275&\"\302\275\014\260\223\275\035\367v\275\202\347\210\275\216g\224>\270;\361\275,\017\252\272\301{o;\262\276>\274q\"P\275(i\232\275&^\251\275\372V\344\275\206\026\230\275\224\373\241<q\315\331\275\231\350\222\276RW\354\275\222os\275\r[\263\274g\036c\275d\276\252<I\234\225\275\005\253\030\275\275\321\337\275\262=\007\275\241\362\273\275`\373[\276?w\216\275\310\277\301\276\037j\036\276\351{M\275\241X\201\275\346\025\006\275\021\036*\274\253\353\245\275,\314\310\276\256\355c\274\313\332\002\2760s\275\273\\&\375\275hO\271\275l\243\273\276\276\221\265\276\374\226\330\275\263\305\316\275/Zh\274\027\276\007<\327\350w\276S\014\271\274\320M\330\276#\213\351\275D\327\226\275X\201\301;e\221\276\275_M\000\275\322\334!\276\007\226\324\275\245T\266\275\021b\276\275\264\275\021\275\231^\r\276/g\022\274\334\014:=\203\023D\275\334\000A\275\221]n\275\n \234\2752\037\210\275\310V\255\275{+\230\275\225J\260\274Y\2066\275\352xz\273o\022\246\275E\344\300\275i\022\251\275\326Q\016\276\243\211\010\276&\203\2229m\277\367\274\005Z\313\275\253\273^\275#w\241\273>K\322\275^\350\306\275\036C\313\275\237\301\313\272R\204\256\275\330\2719\276\321u3\276\362\013\005\276\221\233A\276\272Z\244\276il\220\275\361\000\200\276E\363\r\276\3616\227\275;o)\276\362\013\233\275\374\310\316\275\213\344\301\274T\300\257\276\033\211\212\275\223\301\371\275\250\322\260\275\002\222,\277oJ\217\276%\223\347\274\004I\213\272\3155X\275B\250\005\276\302.\202=1\212\277\275\001E\001\276+\304\234\276\245@\326\275\2764Y\276e\252\023\276\023\324\250\275\253-\010\276Hv\355\275\341\360\227\275\023\nH\2756_A\275\271\342T;\274\271\240\275\234#@\274\321\217\213\275\23779\275\250\264\035\273\026\230\271\274\220\337\200\275\372\203\250\274xz\245\273j\221\016\274(\200%\2750\373\212\275\352\242\207\275\346\365\247\275wb\273\275X\205\353\275\322\237\262\275\245fN<mp<;<J\360\274\366\350\361:/+\326\275\334T\373\274[H\022\273EG\233\275]9\234\274\240\203`\276;q\306\275\027\206\277\275r\010\033\276C\215\316<\275`~\274\215\250\021<\'K\336\274~{8<\363\360\323\275 \237\357\2745\256\262\274\210!s\275K\253\"\274\003\317\002\276\245\272T\275{\207\240\275c\\\302\275\177\312\275\275\323\276\346\275\007\335\212\275\024\r\032\275\027d\351\273\331\363\002\275\224y\327\275\350\316#\275<\206%\275\201sa9\220\320\323\275\216\300\035\275\355\366\333\275\303_\212\275\336\016\342\275\261\251\006\274\t\013\366\275^\231F<\"\273\227=\237&(\275\202\254j\272(Z\342\274f\300\265\275&\324L\275\323\305\t=kV\265\275\276\350\003\276\000\210u=\350g\263\275\244\354F\275\330\361\314\275\276&\351\275\331\316\001=\242\247\321\275\317\256f\275QAp;\316\t\241\275\264X\212<\3454\234\275:?\254\274&\316\265<\"\0236\275fG\235\2754\tu\275\276\246\341\274%\034\257\275\0007\243\275\311\320\343=\242\334r<\020\364+\275\225\2122\276\332\222G\276\370\243\022\276\333\375\302\275E \247\275H\246\023\276D\010\024<<\243\316\275`w\306\275\303{\255\275\203\365\303<\3074y\275$)H=\274\240\373\275\270\212\004\277V\373J\276\215u\337\275\t\271\217\2747L\215</\356\207\274\343\360\246=\037\010b\275\227$Q=l\"X\276\337Zp\275\271\253\036<\t\234\253\276@\320,\275S}\t\276\241W\334\275\305y\244\275\360\301n\275\213\377\036=\014\236\367\273\227u\332\275T4\213:\014q\367\275\022G\240\275}\316\225\274rx\016\275\206P\272\275N\t(\275\360\345\347\275@q\225\275)\005\'\275\014{\376\274uO\236\275\253\226\246\275\345\221>\275k\024_<u1Z:\227,b\275\303\216\366<\035\215\307\275\341I\t\276\000\320\260\274\020\236\033\275A\347\314\274nx\002\275\277a\374:*\n\372\275m\212\266;v\3419\274\377\340\317\277\367Bs\276\345\n\035\275\350\215u\2769\300\375<\320\013b\274\237\223f\2754\021i\275\322\242~\275\246x<\275\023jz<\021w\362\275\3763\013\276\225\347\t\276\356L\016\276L\320V\277\371\224;\276?!\017\276\020\300\033\275u\361\370\275\260\252\261\275Qm\377\277\300U\252\273\322t \274\005%\357\275\330\020\013\276&M\334\274\314\332\267\275\244\303\022\276\347P\"\276\004\213F\275m\"\010\275}r\254\276\376)\245>]\251\275\276\255\211}\276\177\026\204<\340\n\013\276[\006\255\275]\324\306\275\307_\004\276TyY\275\232~f\272\020,\261\275\003\251\230\275\177\251\265<!\273\261\275\304#\005\276\206\237\204\275\r9I\274\366u\264\275q*\322\275\000e\250<\323^\225>\033\354W<\311M\316\275S\224\256\275)\217\014\276mZQ<\244u\332\272\347\202o\275\267\367j\276\365\026s\2749\266\271\274\213\300\'=\253d\340=\303\276\375\275\370\r\243\273\211/q\272:\377\245<\272\031\003\276\304\375v\274j\"\252\275\374\277\372\275\357\225\305\275\225i\207<\267a\242\275=4\\<t\343\314\275\262h\245\275t\013\364\275\224\210\201\275\334\037`\275k\217K<I\000\214<\267<\212=a\311\265<\226\342\337\275\307\266\022\276\343\345\251\275\234:\343\275\324\224\316\275\002\366|\275\355Q\\\276`\310]\275\013\243\227\275\322\274\002\300\226V\257\275\346\360\256\275Iv\276\275\302\001\005\275\231\2035:\203\037\313\275\216\016\274\275\323\000\241<$\231\274\275\323\017d=\230\306\202<7e\347\274\257\376\221<\213F\002\276\220\234\261\275\207\275\260\273x\001\"\275^\221F\274\036\355\230\275\351\202\230<\371\200\255\275(\265\033\275\240S\272\275\210\276Y\275!4}\275\326\364\250\274\306\000\373\275\212hV\275\033\341\350\2755\300\'\275\343N\254\275h(\035<\014\366L\276\201\333\020<\252C\223\276\302\200;<:S\016\276\361=k\275\030/\022=\357:!:\247T\246\276=\306[<<\027\032\276P\026\017\275y\222\006\276\017\202\204\274\303P\034\300\2226\300\276u\034\306\275\234\205$\275\376l\310\275\277\311\020\276\223I.:\223\247=\274\331\366\374;\326n\264\275u\366\257\275\025\354\364\274h\311\233<\322\237\215<E+\377\275=\"\014\276$*\037\274m\216\203<.\256\304\273\032\324\253\276\220\362\275\275\"\361\262=\352\321\231\274*t\237\272\257\014(=\003\007\357\275R,\344:\321E\023<Q\022\250\275\303\302\357\274\020\014\226<\256H\345\275U\366l\276\236v/\2751\026$\275\010+\303\275G\215\000\275\027K!\275\2607\220\275\271\365_\275\226\216\255\275\030))\274\016md\275e(\360\274QjH\275\232U\376\275\324\224\242\275\335\221\233\274Jm\322;\025\325\351\275*\271P\275\017s\006\277r\276a\275\265M\257\274ip\333\275\371t9\275\021\245\264\275}\216m<\250F\272\275y{,\276MT\221\275\2349c\275\232\235\206;W\334\342\274\036i\325\276m\010\026\276\336\277\315\275N\013\016\2750b\320\274\317\310\026<\270B\232\275w(\276\275#i.\276\357| \276\271\025\273<\331\333\345\275^\006B\276\367u\211\275`\372\033\276\032\276\250=\003\220\246<\001\230\022\273\266\242\334\275\335\020\244\276\213*8\276`\203~\275\316\247@\275\270(\335\275\224~L=\313\254\302\275\330\337\010\276\314Y\336\275\n\356\024\275aq\275\275\300\324Q\274\305\326\352\275\222\014\312\275Jn7=\377{\360\275\276u\250\275\340*\022<.\002\370\275%\235\205\275\"Mm\275\255\224\303\275\334d\2328\365\013\201<\277\374\211\275\324G\341\275\217\361\332\275\222@1\276F\346W\275\201\330\035;\036\236e\273\300\202\020\276\256\236u\275h\351\235\276_:&\275\256\354b\275\233\232\253\274\024=\312<\322\023\234<o\216\r\277\274=W\2737f\005\276\254\030\006\275=z\207\2755\350\320\275%\000\236\276H\373\270\276\014\256\323\274\344\316\273<\335\261y<X\0338\274\240\327\325>\315\246b\2754X\234\272\252\326\210\274\255\347\034\275A\370\345\2759\327\325\274h>-\275\316@~\276\232W\366\275\223\323\327\275\034\303\263\275>D\216\275d\035q\275\317e\337\275\361\243\\=\261\251\360\275\306\013\005\276\253\036\223\275\302\264\206<\226\213\211\275\231\025\230\274\316\322\265\275\276D\226\275~[a\275\316@\266<&\327\236\275\254(\365\275\270\312\256\274)\331D\275\355\251.\272$\025\001\276\336m\207\275/\220x\275\306\251\276\273\301o\002\276\302\317(\275!\003Q\275\"\032\003\276S\317\367\275\332Q\035\275H\322\337\273f\374@\274=\030,\275\340\344@<r\366\360\275\234\361\026\275\347X\275=\002\217Z\275\002\246\317\275\255O\262\274\235r\343\275\225\262\305\275\3123i<&;\272\274\374\220_\275\034g9;\002=\260</\332\035=\n\310\275\275\037|\017\276\310aM<\016\343T\275\217\363x\275\346B\250\275\036\313A\274\331\027\261\275\271\216\227\275\253\2330\274\002\351\316\274V\262\t\275\203\261\031\275\247\240Q\276L=N<\230\360\376\275~\nR\274\"\212\375<\363\211\347\275S\245\304\275=\010m\275\024]A\275\342<%<\206Wl=\324y\305\2741\267n\275d\364.\275\027\034\331\275i\331\355\275\177\243\231\275t\256\274\275Z\364\\\275\315\367m\273\274&\002\276\2057\020\274\023\335\036\275\304\357\027<\311U\317<\341\232\223\275l\032\363\274\000\014\237\275\'ps\275\317\023\334\272\367\000\216\275\342\245h\275\032\226\204\276Q\016\016\276\323G\321\275\202C\236>\255\341\'\275 X\007\276\021\214a\275tX6\2752v2\275\215\301J\275tdt\275\241\263\376\275yp\363\275m?\022\275\325\243\322\274e@\003\276\320\350\313\275\351\273\215\275\033\333R\276ly\243\275\000P\277\275\276\343c\275\341\360\244\275\240T>\274j\340\203=\010\353\250\275%\265\351\275-+^\275\351\363\321\274vr%\275}\304-\275\250Ge\275\272\252\337\275\350n\"\274\273yN\274\242\027Q<\310\265\033\276\212.)\275\354\337\207\274z=\212\275\223\356\376\275n\302\036\275\nv\254\275j\300\010\2763>\240\276nNk\274\236\247\323\275\t\377\030\275\312\243\236\274\3733\224\275\315\352\256\277\306X,\276\342\032\r\276\344,\313\272\316\203\334\274\327+\244\275\005\240g\275\021\321\246\275\016\033\251<\226\363p\276%\323M\274\000\327\000\276\263\331\n\276J\356\252\275\030l\247\275\3272$\275\365\371\372\274\346\342N\275\020\354\312\275wm\330\276\305\325r\276}\334\344\275\220b\357\274,\335\000\276\006\364e\275\331\231\021\276V?D\275\275\261*<8\245\212\274\242\025\230\275\0061\205\275?\310\r\276uk\263\276\235\364\224\276\261n\206\275\324\265\344\275\236\226e\273\376\320 \274\206\256s=Ov\302\274*b\014\276\344\350|\275h\312\324\2745\017\003\276\335\347\013\276\323\277\262\275\251k4\276\334$\314<[\233\021\276\210\211\322\274\340\213\000\274\326h\257\276h\362\223\2760\325\305\273\222E\333\275\272E\212\275\251\241[\273\360\202P\275\374J?\275\222.\363\275qp\272;\240\311\013\276\005~\200\275\374\240\016\276AD\201\276\243\222\004\276\tHL\275\351l\r\276\002\326\221\275<v\274\275Z\307\312\276\316\341\225\275\365\227\237\275\331\3465\275\360\264H\274vk\261=\005\305\311;t<\316\275Yd\016\276\374m#\275\025\276\026\275\300\224\026\275\306\305\017\275\245\357\r\276>^p\275\253\177t=d\347\245\274\030\320\204\275\207\310\004\275\377\367\262\275\211-\r\276<}\005\275\234\020\345\275\024\2760\275\034\344\006\276\340\276\311\275\266b`=\212\035\020\276\360Y\252\275\321\035X\273r\234\335\274I\273\252\274\224[\244>\330\t\311\275$A\206\274\310\316\345\274\2130\205\275,\335\234\274\361\330\254\275\274W\270<c\032\220\275\301\2308\275\027?@\275 \331\274\275\265\263\277\274\333@\225\274\2725\221<\037g\211\275>#G\275V\310\366\275_\t\245\275\010\225\372\275*\314\371\273\277l\007;Y\212\206\274pKc:\264\322\316\274qK0<z\276\016\276\314@\005\2755\311R\273\333\307\363\275\206\2367\275r\001\337\274\300,,=\000I\247\275\234Q(\274)\037\361\274<d4\274|\036\031:\211Z\025<\251.V\275\231\014\350\275\210\021\356\275\333>\332\274\234\352\206>\217\300b=\235\252\304\276\255`Y\276vb\332;#\316\263<\245\226\305\2758\201~\274\254g\212\274\265\027\305\275+e_\2751\245\327\274I\315\316\275\241\252\365\275e\301X\275+\213\006\275\n{>\274;v\216\274QB\217\275:x\215\275\230\236\254\2753\007\324>\355\227\201\275\220\322\314\275\230]<=J&\341\275\265\222\027\275\270\342\020\275\252\200H\275[o\240\276\273\310\204\276sv\315\276\005\2702\274\335x\315\276\3752\361\276\037\013\010\276R\354\217\276\202\224\005\276\tee\275E\037\006\276\003\236k\275\255[\374\276\304\016\266\274\227\000\003\276=\215\201\276\2658\002\276\006#\010\276+\004-\277\202\246\207\276uD\324\275Q\322\204\276VV\375\275\305\370x\276J\354\234\275\241\341\310\275-*\262\276\362\004\222\276\226I\352\276\240\035y\276\022\212\027\277\271\275\225\276\335\254R\276!-n<kg\363\275X}\203\275!ML\275#\375\233\2757P\016\276\350\336 \273.\342\037\275\304\347\356\275\035v\242\274\216\256m\275\033\177\017\276\310\355\312<\323\363\010\275\3101(\2759c\211\275\324/\266\274\2506\021\276%&d=\345@\231\275<U\271\275\320\314\204\275X\000m\275\376K\264\275\316+\002\276}\314\276\275AO\013\276\354\006\201\2752\246\257\2759\034\310;\276M\344\275^\337/\276(\022\276\275H\310\301:\327\327\333\275w\266r\2751\200x\276p4\206\276~\231\354;\325\276\376\275\235\326\250\274\202]\020=z\033u\275\233\241\240\276x@e\275d\034\013\276<^1\275\346\310B\275&\257\333\275\363\364\212\276\335Z\311\276\270\005\351\275q\253\001\2767Gd\2750\264\021\275D\333\345\273\245\326\272\275q\316\305\275\024\215\200\275\010\342\342\275\024\320\345\274\240T\221\275\202\013O\275\024\302\030\276\253\245\310\274\021W\002<\037n\016\276\2710\337\275I\222/\275S2f\276\210P\025\274rZ\272\275\354\343\274\274\000?\240<\007!\365\275\016\225\214<\264\016\"=_\r\267<+\327\340\275C`\356\275\010\357\333\274Ut\202\277~D\307\276\t\306\317\275\270r\372\275\363tB\274\263Fg\275\322G\364=\307\301%\274wH\311\275\257\215V=\t\325N\275\026\247\312\275w\276A\274_?N<\264\316<\276\203\273\205\274\2021R\275h#\241\275$\343\204<\016\005\003\276P\273\037\276\317\336o<1\365T\275R\321\224\275\241\254\201\275\334d\013\276\t\332\366\275\234[N=\237\346\214\274\\\350\266\275J<U\275\2230\373\275\r\006\206=\272\370\001\273f\020\346\275&\r\t\275[\274\351\274\200\346\n\276|0\013>\000\340\303\275\336\314\251\275\016\010\263\275\332\336\202\275u,\221\275\375\232\255\275\226\203\027\274k\223a\276\255\035a=4[\321\275r\375/\276\235:\226\276c\241\030\276\332\3556\276\240\300\312;\260\315\365\2749y\266\275\204\037p\275Z<\272;\232YL\276\306!\332\275\361O\236\274\276\330\017\276?\301\030\276\367\230\325\275\000\322\r\277\324\243\213\276wx\016\2766\017\223\274\373t\231\275\314x\n<\3776\316\273O\256\013\276+\345\250\274@\364\262\275C\303\313\275\345\235\014\276B\372\235=\223U\374\274\356\237E\276B\033\241\274J\031\231;\334Y\300\276\310\365\025=\265.\252\275\362\014\317\273T\301\257<B\312\263<\245\332\026\274\207\262d\274P\273\341\275\345\272\203<\377\272\235\275\370\032 <?#\212\275\326D/\275\017J(\275\220\264\275\274\260\334\210\275\036K\205\275\025\007\240;\375\274B\275\014\030f\275\241\211\036>E\314\250;\326\010\330\274f]7\275.\303\265\275h\231\005\276\332\t\253\274\007\241O\275&\270\217;\302\307\317\275\355\267\211\275,\251\223\275\267J\243<@\230\346\275\367K\321\275\033MX=\004th\275K\257n\275A\200\350\273z+\234<\377\264R<\312\034\224\2753b\245\2757Z<\275Ny\267\275n[\213\275\3008&\276\225\247\216\275\306%\257\275\302\254\333\275#\352\352\274\2424\310\275\317;\037;J\000\000<\354\"\032<\351\215&=\253O<<\2535\334\274d\033\267\275\023^x<\302\213g\276A\272;\275\364\342\\\273\230\002\205\2755\033==\377.\230\275\210\n\244\275W\212\215\275K\224\007\276!_\351<\313Vo=\210y\241\2754\313\027<\324\251\026\275q\016\203\275\242e\270\275\352\316\250\274#\033~;/b\310\274h\007:\273\241\333\013\276\013\352\035\275#\273\005\276\223\251\032\275\004i\366=p\316\352\2758\327\204<\302\t\201\274\233#\002\2766\310\303\274\246\3276\275Y\031\276<5\nf\276\032\3124=dl\354\275>\273\266\277\r\244\252=\032 \275\276\255\306$\276\377\340I=\035\215\r<\241\n-<\274\323\033=\253U\361\275\0043\253<\250\037\337<\324\251\005\275\201w\003\276\020\253\372\274[8)<B\\\021<T\331\000=\372\002\326\275ls\t\275C{\020\275{\356\357\275\341\253\203\277\314\301\222\275}\356\220\275\037\320\275\275&\344\351\274F\215Z;\250\342\311\274\337\2562<,\331\002\276\022\205\031=1\377\307\275\352Z\273<Tu><\034\352\215\276:\221\242\276C\213\001\275\253u\366\275\316\300\204\275\t\357\257\275R\267\337\274\020O\000\276_(\312\274\321O\200<\207~\316\274\2704=\274z\266m\275O\376\034\276\342\005\221\276<\244\372\275Q\316\214\275\344\243\342\275\263\276\350:hg\362<\221\210 <\t)\256\275\356\252\214\273[\034\362\275\361\005\032\275\033/4\275\224\274\264\275$\270W\276]\255\332\276(\252l\276\337\234u>\210\023\325\275\220j\362\276\276?\003<\033\302\245\276y6\035\276\351W\310\274\321\220I<\014\026k\275H\336\227\276\035\3011;\363\313\204\2769\256Q\275jp\217\276\372q3\276S\236[\277\010\272s\276\224\037P\275\330C\353\275\242\303\357\275\333P\252\276\013~\241>\354\353_\275\0057\325\276\247\337\202\276,\223\325\275\253\337\314\274\244y\227\275\000\024\244\276\240\"W\276aU\t\276\033\335t\275I\214\374\275\231\n\217<4:H\276\r\370\212\276\3244\013< \003\232<\263D\001=\306l\305\275\206\223\215\275\334\327\210<\314\202o\275\016\202\314\275\273\217\254\275\364s\007\276\240{o<K\324\305\275\310W\230\275\316\357\316\2754u\272\274\021nR\275\231*]\275\231\r\333\274\022\357\"\274\213\251\357\274\211N\327\2758;\003\2760\354\312\275/\023\251\275\277c\316\275j~S\276KI\353\275\230\240@<\366\361{\275\211[_>%\004z\275\202\333\331\273?\007\234\275\377\205\244\275e\354x\275\361\332M\274A[\340\275\220\352]\276\205\201\306\275\3561\236=/p&\273P\2454\275\222\220\377;\211A\022\276R\2305\276\3001\303\275S\201\231\275\343\227\255\274V\023\250\274\316U\221\275\276]\211\275{_\221\275\251p\364\275\350\341!\275\324ZC\275\r\333\214\275\205\316\257\275\221\266\327\275M\371\234\275m\221\375\271P\211\243\275W\356\216\275\343{X:\226\024\377\275\220\316e\274!\036\235<\214\252\r\275\342\036$=\313\351\202\275&w\003\276\313\214#\275\201.\354\275\0364\315\275\377\376\010\276\361\t\005\276bd\326\274 \231W<5\376\037;y\361X\275\270\262\t\276r2\016\276\254I\005\275:\n\223\275\036|\211\275\270D\252\2758;\201\274\367\353\303\274F\330U\275#`\224\275+\034n\276\376\2460\276w\210\364\275\330)\331;\371J\373=8\247\344\276\320\035\205\276\032\273\220=\035\302\243\275m\205\311\275\261\333\233<)\037\234\275\265%\251\276\354G\304\2755\016\255\276G\026\026\276\216K\360\2750E\245\275\335\301u?)d\255\276\236\255\366\275\204c\\<\271\360\350\272&\022\255\274l\325\261<U\027@\275v4x\275\335\210t\275\313\311A\275\227\322\357\275[\317\\\275R\217\304\275}5\332\275l\232\006\275\007\356|\275\235\311\312\276\373\\\251>\246\255h\276\213\253\037\275<\267u\272\3115\224\275\274Z1\275\023?\277\274\236+\353\274\331\326P<\3168-=\023Q\227\273\274\336i\275\372T_<P}\245:\330\031\270\275\353e\327\275\267>\362\275\335}!<-S\372\275)/\036\275\231iC>\201[\354;\257M\n\275\027^\242\274hU\376\267u\242\273\275\227\272\301\275,-T<\260\274\375\275QX\344\275gD\007\276n.L\276\242\tQ>\006\304\233\276b\346\026\276\237\022U=\225:\322\275\265F\232<\356j\227<\r3\343\274\233[\276\275\310y\025=\361y\031\275\253\337\373\275\'0\303\274^M\001\276\205?\032\276W\234\231\273S\024\206\275\315]\304\273*\340\004\276{\026\027\274Fd\221>\342\355\177;CR\016\276U\030\275\272f\033\355\274\271\277\252\274\243\216/\275u\r\211\275\226Ic\276\001\231\361\273S\231\030\275\314p\027\276N\205\324\276K+\217\274h\253@\275fQ\372\275\230\016\364\275e\210\213\275\250&\246\274e\363\016\276\216\266\233\276\360\034\373\275\254\t\211\275\224\345\324;\3114%\275\325[\247<\200\335\370\275\233\034\235\27675\313\274\217\327\322\275\341\367\373\275\236\033\t\276&\021\000=sC \275E.\257\275A~W\275\220?\031\273\375;\n\275d\347\341\274\271\323\250\271\033G0\276\2115@\275\361G\262\275>\214=>&\213/\275\221-\347\276\216\237r\275\202\266\304<\221\340\312\275k\357\243\2755\355\356\275\267\201z\275\214\374\266;\000\233\005\276\231\222\235;\014\323\036\275\364\020\275\275v\356\236<\302\247\221\300\001\232\256=\2369\331\275\204>\021\276)h:\275:\037><p\324\242=+\024\303\275\307X\315\275w\244\322=\227\217\022\276 \373\3069\374\234\246\275\035%\244\273\205\271V\275\314e\220\274\307t\004\2768P\221\275%x\027\275e6_\275k\232\221\274\020\030\257<\272\273\302\275Fb\346\275IXY\274Cp\374\275\\\005\264\275N\030\246<\306\"I\275\234H\216\275\r\220\270\275G\257\316\275\353l\'\274{\244\371\275\366\033h<\025\264.<\311q\371\275\367\351\212\275\201\374\227>\340\217\214< \346\231\274*\024\351<Zr\355\275{;\216<{\225\264<\256\367\020\276M\273\n\276\354X\021\275Y\357\010\275\256a\200\275\335\023\261\275\010\343\276\275-|\274<d\022\201\275~\205\230\275\037S\251\275q^`< \255\317\275\330P%\274\203fP\275x\365\206\275$F\265<r\221\303\275\333\371P\275p\220\214:r\nn:\367\r\370;DcH<2\221\355\274\237\372!\275\204G\203\275\220\030\323\2759L\375\275e\251:=(qE\274V\224@\275\333&\320\2744\354\310\275<\262\036\276@yH\275\235\"\341\275\223\362\306;\000FR\276\334\324\201\2766M\301\275\005\020\314\2752\305\367\275L7\013\275\234\230\267\274\242y\263\272\362\302\207\276aR#\2755\005\361\275S|\255\273\007U 9\206h\232\275N\032#\300!\346\210\276$]A\273\271\271R\275\261\237\376\275\216\006\005\276\252\035G\275\212`\217\274d\2131\273\323\376n\275E \250\275\214\300\245\275\230\'\216\275\023\240(;\324\201\301\275a4\007\275%L\'\275\265uD\274`Q]\275\321\020\376\275\230\256+<w\035\340\274\273\010#\275.\246\252\275[e\215\274\256\207\345;-U\204\275}\253|;U\277\311\275\306?D\275\377\tR\274A\242\313\275f\323|\274O\361x\275C<\270\275Lm\224<K\303\001;\225O\027\275\235U\201=VY\263\275z\021\203<\026}\240\274\031\257\220<\313\314\321<u0\317\275#C\324\274S\0020\276\246\345\311\274\204x\267\275\2219\207=d\363->\221\316>\275YZ\235<\352\t\273\275\362\025y\275!\372\343<V\274K\275\206\357\177\275<\336\264>\375`\237<\321\245t\275,-\365\275#m\257\275S\222\207<*\375\215\275\3334\243\276f\254a\275?5a\274\261c\276\275\002~V\274a\237\251=\353\231\264\274\t,\024\275\235\345\033\276\000\267M\275\026\212\233\275\324\320\352\275V{\330\275\027\035\026\276\261/\362\274(6C\275\231\002=\277\254i\356\275<\025\231\276m|\233\276\302\354\2479\253\3742\275jF\242\274x`\250<\t\037u<B\271\317\274\275= \275\023\373\232\275*\254\340\275\221\247\211<\025.P\275\355\351\216\276\030\020\322\276\362G\263\274=\306\256\275\331\231\002\274|*\261\275\374\236\311=!\3636\275C\244\246\275/Y9\275wn<\275Q\300*\275\370|k\275\205l\t\276[\020\315\275\375lW\275{gD\275\256TD\300y\013\267\2757\226\020\276\306\363s\276\354^\222\275\324\243\255\274\361h\255<\260\227R\274O\374\005<\016_\331\276R\017\177\274\352\277\234\272\001\241\251\274d\317\244\275\007 \357\275\365\347K\277\373\235\262\276.]<\274\377\301\005\276\352\366\256\275l\341\016\276\n\261\326<\246d\263\275<U\\\275l \002\276Z\220\265\274\016\007\316\273\320\327\344\275\342|\226\275\027D-\276\002G\253\275,\223\004\276\251\371\003\274\334\005\'\275\013\215V\276\2525B\276\263\027L\275q\262\376\274?\374\206\275\314h\006\275eZ\214\275AB\342\275)\376\325\275]0E\274k\r\223\274\347\227\260;\034\300\344\275}d\021\277\214\024\263\276c>\305\275\307\254\016\276\025-0\275o\n\034<P\312\211=\336\224\205\275gTU\276[[\367\275\332\241\333\275$\004\200\275\307#\300\2751\235\'\275\210No\276y\372n\275\261r7=\027pR\277xJ\r\276&\320\305\276\332\230\220\276\350\234\356;\013\252\332\275\001\230\357\275\'\031\r\275\005\200\245\275\342\215\227\273\261\016\375\274\217\356\351\274@\017\325\275bU\271<B\010\t\275\323\321\024\300D8-\276\3378F\275$*\265\275\206\005\020\276\276\337\205\274Y\0038\274L\302\363\274\235\006\023\276d2\221\275\363\200\277\275\254h\250\275mQ<\275\276$\202\275X,\025\276\002\257\224\275,]4<\241?\3229\357\257\254>\323\222\000\275\'\242\325\273\340a\035\275;\2165\275!\222\265:\3221\236\275z2\336\275\3450\004<\376\210\216\274\337\264\220<\243B\224<\362\340\030<\275\306\341\275}\236\016\276\211\351i\2754\314T\275\324\n\260\275M\273\204\272\001\370\314;\377\374K>=\321\226\275\265\326J\274\035\r\261\275v\177>\274\265Sf\275%\245\361\275\346\255\205\2756\207\020\276oY\016\275\324;\375\275\220mY\276?\025\232>:6\035\276\010\031\006\275\275\325\003\274\266\340\036\275\355\261\324\275\232)}\275\357\374\341\2738 \002\276%\375\330\273\344Q\013\276\224\230\320\274=>\'\275-m3\275\006=\203=B\322\2069B\237{\275$!\246\275\327:\034\274\203\231\360\274\355\000\377=]&\022\276\037\204\242\275|\030\021=\317^+\274\312\211\221<\rE\314\275\371\244s\274k\nM\276@4\235\274\367\177\213\275\241\274(\276\277\022\020\277\265\332\253\275\3769\340\275\227\366\211\274\326f\211\274^\375\023\273\207\307\243\275^\320\216\275\027\242L\276\022\332\245<\267}\350\275\246\'\227\275^\022\262\275G{\000<\213\240\232\2773\200\236\275\r\312<\275\344O\250\275o\264\310\274@7\222\274\2648\330\275\263B\267\273\346\374\224;\276aI<Z\222\022\276\273\021r\275v\261\333\275\251]A\275\267\213$\276\221\\C\274PYG\275\320\3179\276\334\020\037\275\350\207\216\276\334\366\255\2763\221\227\275\021\313I\275\203\0334<\177\016d<\233\331\201\275\030!\t\276\316\230\201=\233\367\320\275=\331\010\274:\347\315\274_\220\n\275\337\243*\274\361g\322\275\207N\267\275\225u\316\275\276\202\203<\032Y\362\275\377\374\007\277\205\212W<\276j\002\2765\327\265\275\023\231~\273\'\033\306\2754o\315\275P\220\226\273\223\305m\275LZ-\275I\213\345\275:\227\220\275S_v<\222\343\002\275}rz\273\\\267\242=s\304,\275\013\277\331\275}|:\275\1772\n\276\241i3\2752\337\326<\024C$\275\340=\303\274W\336\006\276x\314\252\275Q\273\217\275\337H\365\275\2523\007\276=\373\006\276\330\016\177\275\323\007.\275\322\376\230=\026^\006\274\336;\007\276/H\t\275>\234\345;y\314\006\276a\363\270\274\034\001\r\275\rh\371\275\254R\325;\271)\022\276g\215t\276[4H\275\335.\247\275\201\224F\275\006`\220\272?\224\347;\036\216w\275\3148\347<YrN\275\013K\205:\034\222G=\276&\202\275)\221\007\276\264\246\343\275o\362\254\2756P\000\2768\310#<U\256\014\276\t\362\016\276P\361p<\3513\201<\342\355\353=Y\030?\275\215\330\352\275e\344\273\275\376_\006\276\245\302\035\275C\254\224\275\324\000\261\274m\032k\276-\334\335=\357\300\270\275[?\251\276\323\r<\275\332\305\226\275IU\332\274Y\353~\27530\324\275\235\026\210\275\312\223\026=T\360\350\275\354\033.\272\243\031\021\276k*9\275\272\376Q\275;@2\275\r:\350\275\213!\037\275\030al<\031\252\312\275\315X\351\275\361\374\347\275\371\375\343\275\007\355\\>\334\nT<\310\'\005\276\321a\031\276\301N\231\275\230\300\325\275XN\324\275\335\251v\274[aj\276\206s\252\274)+\234\275\332oN>^;p>\361\017\363\275w_\224\275B\330\265\275\276\031)<\326F\346\275\021\005C=\236\231\256\273\373\010P>Vj\214\275\035\305\225\275<\326\347:3\351\223\275,Z\322\275\342\244Z\276\322\002\371\275\207\307\367\275kQ\343\275\304C\261\275A\345\255\275\311X\227>\024\346<\275\203=\232\275}\002~\274\234\332\021\2763>\343\275?I\000\276\375\227\337\275:\346[\276p\361\252<\266\327D\275\367N&\27637k\275\370\355\217\275II/\276{Jg\274\010\335\225\275\375*\\<\333Q\306\275\266p\030<F\361\240>L.\221\275\306E\261<\t\202\212\275\312&\331\275\303Xl\274#2\232\276\322\020\222\276\226p\335\275[\254:\275\332\372,\273\"\364\275\275j9\207\2768l\232\274\314MV\276\014\247\"\276\277\262\021\276\251V6=\334\r3\276\264|\005\275\312c5\276\033l\007\276}B<\275\373\247h\275\200\2727\274\333}\'\275\207\373\t\273\310\250\033\275\341\354\223\274\303\006\337\274\375_\230<@ Y;\024.h\2741\365\023=\225\261\211\275\231\230\341\275\304p\241<\242\023\306\275n\241\032\276\300P\264\275&\214L\274i\032>\275{3\330\275\ns\240\275sC\220\272\217}\256\275\260\364l\274\364\355A\274\0139i\274\004\343w\275\211\026\323\275\032\r\360\275\376:p\276`\205.\276\323\r\334\275D\254-=a[\027\276\350\340L\276\363\233d\274\225)\245\276U\235\265<Qw\237;Y\210n\275@y\244\275\246\352G\276\223h\361\274Yp\221\276\366Gf\275\200\373\022\275\035\250>\275U\037E\300\215\360h\276\217@R\275\207\336\347\274bY\304\274&\241\357\275\357\'\006\276W\212\000\276\226k\030\275\004\336d\276&\213\253:l\245\017\276\274\351:\276->\177;\314\216\261\275\030\001\t\275\'\200\311\275\300u\223\275\177\250\220=\237\324\347\2740\350\205\275P\210:<t\275\336\275\031\204s\275v\271^=w?\034<\345\"d\275\376\'\246;\"{\032\275v\227\037\275y \240\275\277\030\210\275i\312U\275\352\002\224<|P\202\274{\311\356\275J\251\007\276\250\263\235\275;5+\276\001\356\007\276\331Yv\275A\310v<Es\004\276\201\202\202\274F\335m\273B\315t;-\3423\276\217\320\330\275\202\235\311\275A\272\214=\203j\253=\335@\241<\244\233\235<\027\203F=\007\354X<\314\213\214\273\240\370[\275\256\273\250\275\277\001\020\276\357<\302\274\033\366\017\276\336\001\000\276gB\370\275\265\273\301\275P\266\241=\217\306\327\275{y\n\276\372I\221\275\233\227\363\275/\345p\275C5,\275\022\360J\273\"\237\266\275\247\233\226\275x+-\275F\201(\2750\213$9r\0301:%\341\347\2746\017\016\276\001#f\275\360Sd=\333\032S\275\247\327\t\276\001\\\030\275!E\277=JX\346\275j\222\344\2758\352}=\317\022_\275\323\031\331\275\223\260\242\275t\354\356\275J\342.<v4\t\275\224\311\216\274\200\035\373\275g\310\\\275\341O\253\275\370*\315;\r\204\205\274\264\310\210\275,{\030\275\246\024\320\275!>\225\2734]\241<\207\'\367\275\220F\000\276F>7\275\275\216\224\275\352U\224\275\247\353+=P\264\374;}t\371<\373\372\036\276\013Q\372\275\345v\216\275Ls\234\271\223r\327\274\362!\316\275\327\230\324\275\213O\t\276.\\\006\276uU\211\275\372\034\261\274\341\201\031\273\nu\213\275\207\001~\275\365<\022\277\312\t\221\276\301\332N\276Wp\365=oe\374\275\025-\356\275\246\361\025\276nJ4\275\265\025\024<\220\366\241\276\273\017=\275\262\206\224\275\327\'\334\276@\364\246\275\026\325\202\275\362\262\022\276\342\320\001\276\225\3469\275\277\325\322\272z<\242;\217\\\237\275\231\364\274=\330\026\244<\204#\366\275Ch\312\275\334\013\204\275\036x\376\275V\240\271\275\276\273\020\276}\037\224\275n\007G<\353\357\005\276\'j\263\275\035\207\346\275a\240\221\275\323 \361\275\223u\310\275\021Z\242\274V\317\177\275o*\006\276\301\025\343\275(xI<\333\352I\274d\261\210\275?\345\233\275\365U\304\275\025\227\033\276\003|\202\275|\201T<\007\026\356\277\r;\322=5\351\224\275o?W\276`\324`\274\235}\003\276\234\225\033=\232\024)\275Pz\350\275\313\222o\274\243\356\r<,\232\204\273\'\300\255\275\014R\210\275\207i\314;Vv\340\277\021VP\276\242[\252\273d|#\275\270\223\300\275\377{\357\275`\244\037\277\nQ\253\274?R\221\274dC\301<\342\177\343\273wx\225\274\275C\262\275\237\272\333\275o\3241\276\342\243\362\275Kx\311\275\202\004\332\276\220\212|>\224\206\226\276\336Fb\276\256\265s\274\257\325\233\275\246\270Y\275i\251\240\275&\276\036\275DLl\274SO\320\274-x*\275\025\n\357\274\266D\020\276w`\214\273T\')\274{\217\212\275wd\327\275U\212\265\275K\256r<J\205l\275y\275\241>\014\332\241\275\000x\375\275aB\313<x\201\230\275\345A!<\370\362\325\274=\320\305\275\216\354\021\276\351+\340\275\222\243\007\275\335~\211=oy\007>\302\207\316\275\t\240\240\275\334s@\274\250\224\t\276p\026\211\274L\271Y<.\240\357\275\231\363\224\275;\355\r=\322W\250\273JH\024\275\364&\036\275\234T\327;\370!\002\276~\342\237\273\034}\006\274\215\371\001\276\313[1\275}\265\n\276 