node {
  name: "NCHW_output/perm"
  op: "Const"
  attr {
    key: "dtype"
    value {
      type: DT_INT32
    }
  }
  attr {
    key: "value"
    value {
      tensor {
        dtype: DT_INT32
        tensor_shape {
          dim {
            size: 4
          }
        }
        tensor_content: "\000\000\000\000\003\000\000\000\001\000\000\000\002\000\000\000"
      }
    }
  }
}
node {
  name: "b3"
  op: "Const"
  attr {
    key: "dtype"
    value {
      type: DT_FLOAT
    }
  }
  attr {
    key: "value"
    value {
      tensor {
        dtype: DT_FLOAT
        tensor_shape {
          dim {
            size: 9
          }
        }
        tensor_content: "\267\371\366<9\357\336<{f\346<\372\234\313<\376\350\256<\275\305\270<@\241\325<0\337\270<\342@\300<"
      }
    }
  }
}
node {
  name: "b2"
  op: "Const"
  attr {
    key: "dtype"
    value {
      type: DT_FLOAT
    }
  }
  attr {
    key: "value"
    value {
      tensor {
        dtype: DT_FLOAT
        tensor_shape {
          dim {
            size: 32
          }
        }
        tensor_content: "Eu\225\276nX\251\276t\255\364\275\233\375L\300\033\376~\275\220\244\200\276\213\210\247\275s\002\032\276\222,\252\275\201\235w\275o\350\312?iI\307\2762\246o\275M\245d\276\322\347\232\275\033\247\373\275{\'S\275\210\371-\276\244\201\347\275\005\005\202\277A!\243\275\330\263\332>c\3222\276\361.\250\276\253d.\276\024\355\324\275\303\3667\275\300\305\032\275b&\231\276\206\335\221\276\222\205)\276?&\303\277"
      }
    }
  }
}
node {
  name: "b1"
  op: "Const"
  attr {
    key: "dtype"
    value {
      type: DT_FLOAT
    }
  }
  attr {
    key: "value"
    value {
      tensor {
        dtype: DT_FLOAT
        tensor_shape {
          dim {
            size: 64
          }
        }
        tensor_content: ")l\271\277\335\313\020\3008\364\315\277\211\220\260\273Z\302\207\300b\321\010\275\355\337\032\275\220\312\306\275\000A\255\274\024\302\252\273\275\240\007\272e\272\333\274\211\377>\273\276\331\202\272\325\205\363\276f3\233\272\324-[?\200\360\207\273\345\272,\277\003\n \275F0\033\277\365\271\202\276\225Q\314\276e\020\207\276pc\246\272\014wG\274\255\357\t\300\252\3069\276d\252\273\300>\276\320?\214/o\273\356\336\340\277\231\001\321\274\241\006\271\273Q\016\024\273\337\'w\276\223q\357\276\222\222\017\2730Hd\275\03057\277)<F\272\307\216\210\276/%\304\270\3230\255\277\346?\036\2774a\267\274gR\236:\305r\224\277\t\212\324\275\257\340\210\276\374[\350\270\247l\016\272(\337\320\277\360\001\364\275s=j\272\251]\225?\006\264\006\274\372#\2419\303n\274\277\216\322\312\277\323\314\227\273\261\221c\276\205\323\277\273\312\021r\274"
      }
    }
  }
}
node {
  name: "f3"
  op: "Const"
  attr {
    key: "dtype"
    value {
      type: DT_FLOAT
    }
  }
  attr {
    key: "value"
    value {
      tensor {
        dtype: DT_FLOAT
        tensor_shape {
          dim {
            size: 3
          }
          dim {
            size: 3
          }
          dim {
            size: 32
          }
          dim {
            size: 9
          }
        }
        tensor_content: "`\320_=\326\'/=\213\277\037>B\345\027\275\244\241g\274\261\365X\275\010\002\276=O<W=e~\017>\246]\215\275/YU\275f\277\262\275\365\026\257=\001w\003>\256N\310\273\222s\227=I\222\265=\3274\215\275]\247D\275\341\177E=\244\371(=\213\233\'\275\211\026\004; q\001>B[\250=\005\3274>\327:a\275\344\252F>p\261\267=s\210\266\275\0250\"=\354\006[<V\021\350\275\333\235\037\276\331\025\023\276\316\373\"\276]?\256\275@PG;\264\352(\2743\267j\273\350\3204\275\010%~=f2\303\274\261\353(\276!y\t\275\347K:\275To\t>\337\006$\275\335,\021>q\361\t>A\377\275=\036\240\'>\257\2047\273\217\2529\275@(m=\215>\352=z^/>\270\002\263\274\226\255\356=\0027\234=@\370)>h\234\026\275\017<\220<\336\345\324=&\030\003>\216\252\236=\342\254\300=\013\320\326=\334R\024=\374b\344;\313\0070>x\377\013>\234\205\022\273\026\320\2109\023\244\217\275V+Q\275\2006[\275\320A\276\274\246\036-\275\377s\201\275~\207\033=E\357\202\275\223\2745>\024[5>\352b\003\275\340j&=(\317\020>\2637\371=<\336\342<C\034\267;<=\242;P4G\274\331 \273\274\272\275\370:\233B\220<\312V\031<\3347\212\271\351\236\270<\255+\223<.1\331\2756\377>;\037\031\000\275\277w~\275\271\344*\275\001\353\025=\330n\004;N\230\360\2741{\004>x\240\\\275\355w\317=\320/\013=\025z\373=+\251\257\273H\372y\275\036\'\255=\310\351\233\274ni\036>\235\255\341=\374\243\002>\250@\256=?8\013\274\2630\347=q\330*\2754\364\">\233H\004=+\332P\275\272\005+>N\243Z\275\270\273\230=\345@\301=b\273\331\274\031\230\002\274\244\027\270=Aw\336=\305\222\271<\221\022\n\2752S\226=\r?\320=\361\204t=\024\304\375;\362\361\020>\362\247M=<\365G\275\273\037\214=!F\004\275j}\025>\217qB<\005=4=\2417X=3\330\214\274\326b.>\271z\'>\377\225\034>\344\365\254<Z[\003\276\371\276\231<\361\216a=\005\311\314=R/5>>\223\234\275?Z\211\275t\252\007\275\353\035\306\274\312\262%>$\027\207<\216\337Q=\332\235\374=\3657\334\273\211\307X=\273\033\307=\261;?=\341\274\364\274\327[6<\303V\255<#^6\275\240\027\217<\204d\304=\300\007~\275\316\026T=\020\375\030=\337\213\003\275>\207\357\274qg\">\204\231 =\265H+>\2730\344\274%\016\357=\224\030 >\222\325\023=.\201b>\227\311\365=\261z-\275\325Q\">>%\271=\270m>\275\032Sm<\374\021\312\274\203\320\360\275\266<T=\267\353\021>\330[\305<\216\366\002>o\021\322=\2542[<Z\335\027>\221\337z<,45>=\017\023=\364\367\357\275\3215H\273p3\271\275\200\006\273\275YF\365=\000\0210=\337\210e=HD\277=\3021<=B=\027\275W\351M\275\357\321\330=&\223\177\275:\026;>\2672\242=\357\236$>\317\021\255<\033\316\265\272\235@\320<\320C\311=\023\237\200=!+\274\274\235\341\002\2757\365)=P\304N<\022B\215=\223\307\023\275\310\206\026\275`\027\232=\304%\002=f\226H=-\354\022>\037\326k=J\2746>\313\3561\274\312\207I=\241\345\004>n\337\014\274u\241\215\274\337\013\251=\225\376\363<\211\024T<\257F\332=\031\222==m\307\274=~\357e\275\207\025 \275=P\365\274,\"\036>[\n\354\274\r\\/\274\316\270\013\275\"\320&>\245\251\036>\276\003\253<M\247\266=\037\260D=V@\315=\360\224\347<>Z\016\275m\264\333=0\342\266<,eH<\313h\250\275\317\340\344=\243\256\272=\216L\357=\200 \341=\240\243\275<w\\*>\344\231\037<\240Wh\276B\rC\276\37105>\312x%\276\'+\253\275\177q\364>=W.\276.\363\211\275\235\377\365>j\006s\275\255p0=]\336\325\274\234\364\266=\306\244\010=x\263L\274\222\206\220\275\346y\305=&*\023>\265a\251\274\372#\250\274\033\036Q=xW\322;\t\322\227<}Q\006\275\261\372\241<\033\306\311=\324?\334;0|\213\274P(a\275\361c\200\275\005\220\234=U2\020=!i\336\273\275\326\211\2751\336\361<\322\275\265=\370\031G>zS\353=\r\353j>\261\300\207=p,\347;q\355\301=\226_!\276\356:R\276\342n\020\276x\025g=\311\254\276\275bE\200=\372X\227;\2304\223\275\005\264\360\275*`\024\275\340\327\223\275\006\203\260\274ds2\274\221s\024>\360\242/>\254\277)=rn\300=0#\203=H\361\253<\332\223\232\275\251 \211<\224\373\032<)w\242=\244\221\225\275,\232\202\273n\004\006\274\273Y\203=\\\232\202\274\031\r\007>\374qd=\274m/\275\373\264\220;\371h\201=\t\330r<B[\202\275>\230\301\273\237>G\275k<c=\361\346*>\022\240\270=\315]h=\021\"G\274\273\235\033>\2538\006=\n\371\227;\227o\032>U\002\316= \260\271=dF\r\275\t\235E\275~\032\037>\363\350^\273\363\004\250\274\250\035\003\274\320\244e\275\231\333q\275\371\357\236\274X\351\375=\240<\340=\003/\233=\300,\003=\336&\257\273p\322\004\273\256\352\r<\267\251\315\274\305\245z\274\350\250\331\275\364\234\212\274\330\034\032=\257r\364;Vr\\\275\014\366Q=\326\005c=7\373p\2754E\002>`\214\362;\200\377\276=>(b\275\321\370(>g\344\027<\274Q/>2\352\217\275\264\376\020>\271\005\275=\375>/=\313?A=\216\231\275=\323}&>\370\302K\2758\270\350=.B&>\304\315\373=\0139\377=\013lq\275\0332f\275\235f\305=!\\\357=\367.\005>\363\260\200=\200YP\275\330\217\003>\31278\275\257\353/\275\267\274\247=;x!>\346b\231\274X\007\322\273}8F\2749<\t<A\325\037\275\207\365\353=\267\207\365=\337\270/>\246\006\235<J\306\021>\267n#>\301\344!\275\302\355D<_n8=n\255Z\275H\321\233=0\361\373\274~\364\205\275\252\217c=\244g\254\275X\357\261=-\212J=\367\244\370=\252\205\247=\377\004#=`\2043\275}r\227=We/\274\253x$<\232U\213\275I\274\262=\316\022\005>\033^\357=s/\233>\016{Z>\000\326\272=\374\330\267>\316\355F>^Jd\275\323\351\326>\241\201\234>p\371\235\274\263p(=\0079\226\275\232\021\255=O\216\367\274\032\326\025>\301\031\211\275\236\3616>\234\001\243=8\220\262<\361\265\277\275\260\266\221<\222\227f>\336\254\237\2755\234\271<\331_<>5\316\350\275\233-\024\275\265\215\274=\317\263$9\345\017\204=\332\023\010>\023\204q<E\245\234=\350\342\r>\021\312\277\274e\245J\275\\ \037\272\345\373<\275\003K\177\275\2117c\275\330 \007>p>\370=\360)\\\275\203e\002>\007\247\251\2740\222\205\275t\201\365=\254\035x=.k\230=\321\367\216=M\010\247<\215\204\206\275\"\313\">\362\245L=\014\366\312=\240\201\344\274!\273\371=\361T\034\275\213L*>\017\323\303=s\361\214<\340\315?=G\363o=\245\336q=\327\354\331=XA\265=\225\277\033>\226\n\027>\031W<=\265\336$=v\326\303<Y\021\007\275\035\032\002>\341\356q\275D\263d<_A\361=\2610\t=\351\330\355=\324\276\006=X\275\035>\303:\207\275L\246\">\374W\314\274&J\205\275\322\033%>W]\036=\377\377g\275\016\257\035>\247h\214\275\347\324\205=7\306\365=\322\225\033>\335\\\342\275\004\237\247\275 V<\276\326\346*\275o\202.\275\000\302a\275S\255\223\275\275\364\013>\341\323}\275\036\310Z=\332\003^=gF0>\350\007\253=\271\230\260=\"\357J\275\205}T\274\032m\">I\336\212>\354W\376=\247\274\001\276~\177\323>\016\367\204>\265a\257\274\020$\005?9\337\014>\241\253$=\334\370\362;se\216\276\n93\276\2739{\273\254\221\323\275\277\215\013=K\202\367<Q\233x\276I\304\024\276\360\362\313=\360\031\235\275\357z3=\256C\232=\301{\270<h\253\020>h\212\"\275\223\335\001>\305\037\303=V\247\020\275Kt\314=\326\212\n>A\235\017\275|YW\275\3318Q\274\035h\210\275F\322q\275l\252\346=|\211\360\275\331\r\222=\343\363\341=jf\021\276\020m\272<9\336I<G\014\211\276\307\242D\276\220\004N\276\364\223\264\275\026J\234\275\233G\264\275\332\376\360\272\311\217.\276\334H!\276\003\177\252\275B!\370\275\334\211!=\274\352\006>\020Y}=\021%\352=\267\312y\274\\\022\341=l\361\361\274\250\375\265\274|\272\027<K\201\376=0\242\371\274\'\365}<\2175\n>+~\256=jo\362\274Hp\">\331\206\226\2754\2723=\321\211\316=u\214\305=K5\030>\370\'z=G\345\341=\356\262\321=\270\215\024>\254`.>\346\212\267\274\024\227\361<4\320\310<\0145\035=X\332\304=\271\356\n\276;\306\302<\337\021\3379q5\306=\321;\275\274&\003\266=\237I7<\272R6<\330F1>\203ZL\274\3072\225\274J\205\227<\274\n;\274=X\313=5do=\302\034\225\274\000\324\373;\361lK=\334\246\206:\327\345\211<\253\274\264<\262\336\200;Nr2<\240m\265;\374YN\276\033\301N\274\317@\227\274\226\361\301=\351\310h\275o\'$<\276\345~\275c\335\033\275\254u\201=\252\375<>\n\335\254=\311U\323=\334\236(>\351\244\253;\227\374B\275\336\013\235=\201\342\345=\371\263\212<5\353\211\275\000\330*>\372\275\241=w^\356=\253;v\275X+\022\274\213\033;>\004TT=]\232f\275}O`<\330\036\377=\t\357.>\376\207\255<\3448\321=\227\263\255=\334\244\036>\036\'\032\274&S&\275\310Uh\275\242\204,\275\334\225\221<X\323\204=\344\031\205\275\027\342\356<{\0144\272\2024\360=\254\256\006>G\020i\275\214\3633=\243\355\030>\270\220\322=q#>=3\301\010\275\r\234\263\274\266\330\230\274xw\021\275\342\340\037\275\265\206\037\275\3432\262\275v\004\363<\233\3244\275O\214\"<\027{0\275\360N\327;\212\377\205<X\356\032>\303,L<\257\245;>>\211\3019^\202\205<Q\324\317=\347\340:>\020\201\264=\352\227-=\177e\316=S\244N=\3766\203=F\031\016>j%\316=C(\263=\316\037G>\013\226S>\324nt>r\342\r\274\233z\217\272y\255\022\274\263\354\270=\201$`=\025si=%\300d=\031h\021=U\372\002>\337{\211<\340U\010=\333\253\035=\025\255\203\273\202\016f<\252\312\370<\241\346Q\275E\341\032\275\212\236\345\274\366J\016=uz\006>\244\333\030>\266^\t>\236c{=5\321\024=\177~I=(\000?\275\253%\242=Ty\030\274V\334\001=r\212\204\275}t\'<\224y\301=6\220%>\n~*\275\225\2340=#tC=\277P\033>\342\304\334=\033\2408>U\266\035\274\2738\316\274\370\311\003>\346\233&>Y\341\257=|{\246\274\220/\210<\034L\017>Nu\031>\323\266\276=\337\0166\275\372u\325=\257ZP=\032\254,>\261\374\240\274\225\275\201<\306<\206\275\375\242i\274\263\225?\275\003t\344=\"\243!\273qF\342=\177\377\342=p\035\315<\274c\371=\201G\200=f\373\327<bZ\312;\004@$>\242Y\215=\006\216\346\274\241\365m\274\033\320\035>\315=\200=#\276|\275i\023\022>\\\255\365=\270\263\004=\230x\302\273\003\324Q\275]]`\275We\361<\266\030M\276p\333\256\276\201\232\310\276\251A\250\276\200\323\240\276$\325~\276\375\277\270\276\326%\203\276\255\326\256\276j\376\231<\243\207$=M\017\223<\264B5<\364\211\360\274\005\207j=\226\202o=\204q\002>x\3462>N4U>S\212/>G27\276\325]\001=N\277\267\273\357\203\014>\316\343\360\275N\3624\276z8*=\214D9<\3600\233=\301\227\333<m\301\237\274\363iW=K{\205=Q\305\367<\373\n\376=`\212a\275\305\376C\274\355\033\303;\374b&>t\241\336=I<\201\275\240\324\214<f-\016=\260;\'>}\314Y=\032\177\035>\264\315E\275\343.\342\274a\2608>\370\334\241<\335J8=\n\343\267=Y\262==\203m[\275h\330\362=_\307\350;\335H\251\275\274\202)>\224\253j=\360QZ\275\363r\242>0HO>0\331h=\013\017f;M+\016\276g%\250\275\334e\241\275G\350s\275\355\340\333\274K\246#=\030A}\273l\3271>rf\253=\225\026\214\275\240\236 >k\351\036>\364\205?\275|h\227=\271k\314=\033W\254=\251\256/\274\320\263\203\274Z\313w\274gT\301=\220q\005>/v\355=I\235 \275\342m\315<\010\206\244=\377\3603\274r\232\355=\013\322\004>\233?\027\275\031\357\200=\261\255\371=\263\370\320\274\375\352,>)3H\275\014V<\275\315y\241=S\326\t\275\314\375\215=G\350\222<\327\nL\275V\210\032=F$t=g\016\270=\010\002L\275\243\367W=\361/\315=\026\246;>\r\007\335=\252\336B\275\325\030\014>\230\300o=\301m\237;V\320\351=\354\274\356=\3319\213<d\207K\273\323c\311=\032\274\321\274\370\342\036\275\206H\177=\316\245\365\274@\324&\275p\362$=_\016\005>\241l\216=\305\2544<c`&=\306LW\276xZ\273\274Q\236>\276WB\000<\252A\033\275\233\205 =OvQ\275H\2242>~\261\301=\211@\210\273M\216\320<\010\377\351;+\303\367=rC)=\"\'\032>\026\264\303=\233\032b=I/\000>\231\320I=y\255\204\275\rl\016>ii\016;\324e5>s6\222=\276`\210\275\206\025?\275\202V\031=\370=x\274\251\371\255=\024M\250\274\233\025j=\030\311\350=\'\206\230\275\315\342\030>d|p=\276\030\272=\342Z\036\275R\312==\244W$>\264\020\353=\037\353\254\274w-\001>9\224\345\274*\376B;f\222\326=\r}\201=\261J\373<\210\360\337\2742\303\351=U\271u<\235C\321\275\352{\000\275\266\345\350=\307+\340=\304d\212=\247\325\336=b:C\275\'\206\n\273\274`,>\332s\010>\006Q6>\343\271\361\273[\333)>g\321-\275\213\203\224=\364\3073=\221\316\216\275\316\320M=\347\242v=\023(\022\274\207\302\327\272\355\\\002=R-\214\274\265\277\323<xiT\274\265q\335\274\363g\212<\350\036]=\013\222\360<\215\006\016=\362\224\234=yy\372\274\022\020\217\274\206U\004=\260\333~=\003}\223\275\"\357\236\275Ym\377\275%\342\251<\022\276\244;P\234\203\275\223ux>\375\025A>\350\014\265=\235\265\033>,\315\344<\275gU=\207\337\315<\3737\351=sP\347<\364\360\310\273\242S\356=+\350#>#j2\274\306Q\016\276H\245\325\275\303OW=\311de=\t\0352>\2774\370=\223\312\223<\342\201\256\275h\276\336=\"\242\201\275.\242\343=D\341\205\2734/^\275\\\245\365=aC\033>\202\231\257\274\376W^\275R\362\014\273\3750T\275\337\341T=\267\017\373=.\016\347\274\342\221\006=C(\025=\251tq=\362\243\204\274\313t%=\232^\021\275^\223!\274\210\374\006\275\261\345z\275Y*\034\275>\236\250\274\033a\341<md\261=\313\314\020=\317_\007>W_\005>\r)\237=\027\225m\275\227v\267<\235\317\317\272\r/\335=\273s\020\275\317\375*\275bQ\000>\216\276\333<\250\351\n<c\227[=m\266^\275\317\360\304\274\3542\303=\203\023%>\200\252\375\274\337\202\234;\3768\202<\026\"\004>\262\270\206\275H\210=\275u\324\242=\0278\247\275\251\361\013\275\260u\345=\026K\004\275\\\257\272=|+e=\372\256W=\'\375\244=\327\377\003\274\235<\204\275\"35>\232\241\037<\222.\016\275\371k3>c\303S\276\335\352\020\276)\336?>\316\021\216\276_\3123\276\366\237#>\271\244L\275\311q{=7\035q=\377Ne;\233j\333\274\007\237\177=\326\341\\\273\020\333`\275\033\355O<\254\252\266<\343\277V=\tzh:\000\245\230=\206\007\212\275\004\204\200=\202U\235\275\243\001L=\361]\034=>\024\013>?\036\021>#\334\214\275[g\360=0I29\217\263Q=\023\323=\275\000o\275==\300\">\355G\345>\204\376\221>r\013\226>`\363\353>\371\264\237>\214\363\261>\306\243\032?\214W\003?\373\235\n?\321\233s\273g\"Z;>\300\022\276`\330\006\276\272\2464\274\000x~\275jA\013=sn\335\274\215\021 =\311J\200\275\256f\203<w\202,\274A\026\000>3\230\216\275p\010\210\275\223\244\247\274\002\350X=\352\215\336=^+\216=\302k\207=\310\005C\274\303\243\240\274\341t\217\275\271\362\357\274\367e\273<\310E\247=\373C\021>q\243n\275\030_\264=\220\357\206=\021\037\340=\340/\\=\376\313\030\275\010q\273=\307:\252=\341\314\336<\260\3147=\373 \200=\272\022f=\236#\026\275\346\234\327=99\333<\273\372\017\275<N\030;\036AN\275\2076\231=\377\023*>\240&~\275W\003\365=\222\204\277;\373F\017\275\331_B\275\'\035\\\274^\254$>\022E\260>`\310\314>\241\227\240>\026;\314>\244\247\365>%\037\267>\374w\241>\227`\273>0j\212>\377O^\276\0170j\276\'\216\231>\364\272`\276\210\037\005>\214\330\211> \311#\2762\335\225>L\340i>\2757{=\203\267\365<\371\217\304;,\221\206\274UV\'=1c\240=\340D\236=C\272\215=|\227_\275J\275\332=\353\262\275<\376\2673\275\321\353\227=`\242\024>n\221l\275%:0>\221\322\204\275\216\350\307=\332&.;\215z\005=\341\252\006=\247\346\006>\331;\274={\331\306;w\355\356=4\376\033=\252x\256<lfY\275h=\212\274.\201\303=\240c:=\270\n6>\344YY<{3\">l<6>\367\206&>\270\205\025\273\221~\344<\370B\212=&\364\241\274-\013\227\274^\3414=\317\223N=\264\242\327=Q\240\026>\337\342\036=\0074\260;\352E\205=JQ\030>w\204\206<\274\"\235=.\301\263=\nN%=\322\313x=\020\273/>6)z\275&\335@=f\252\020\275\035\r\241=\036\254\214=\316\270\340=\351\031q\275WWl;\277.2?f.)?\315\212\272>\332\001)?\007\'\016?\261\006\300>\224\360\035?\0077\004?\337U\247>{!\316=\242\010\371=g\254\004\275\037\352\t\275\200\031#\2753V\334\274*\233\'>\306\311\\\275d\234<>\t\037\350\275\313\312O\275\374\245\240=\344\272p\275\3735%<?\2242>\013~n=\304!\037>\350%\237>N\005\376;A\342\027;\037\201\354\274P~\331=`\006\261\273P\262e=\203\244\367=\217\217\'\275\362\272\362=\331\236\331\274:\305\364;\032\037U=\024\326\000\274\034f\250=(G\205\275\026j\207\275\265\202\270=Q\211Y=\367\311\005>\005\016\n>\216\230v\275\264H\020\275\345O\030>\"\260>=\312\2456=\'O\371=A+\017=s\340\275=\241[\364=c\006F\274M\\\021>T&\314\274\347\2436=5^3>\371\277v\273\277@\220=\250\365)=^\214\313=\270\257\335= \371\230=P\333\027=\244\222\315\274\315\235\025\275\352\220\273=e\036a\2753\t\244\274&\007\247=\244\304\234\274\013;\203=\221\335\320=\331 \205\275&\310\327<\206w\212<\200\236\272\272\264\n\267=\034\246\237\274n^\226=\337\021\311=`oz=\370\221\304=\374#\351=\200\322\223=\205\344\250\274\324+\026=\356\352\035\274\177\212\244<\036M\373\273\255\214Y=\203\337$<\260\321\321=\025]\335\274q\241\224\275Z\344\033=\221{\220\274\357\235\003=\006\324\301\273\221\304\031>\027\303t\275\014+\004=\333\'\036=\350\351\3348\231\033\377>\345\335\253>\375v\234>\343\321\377=\260`\241\275n\322\"\276\315\351\033>\005x;\275c\031y\276<o\000>Z\313\331\275>\346\031>\310\212\214=\004\340r=\346\343D<q\322\247\273}w\244=\216,\207\275\205\300\207\275%\241\305\275In\347=O\'\214\275\375\nf\276\246P\031>\266\013\211\27437&\275\265\224\376=PN\200\275.T\250=vQ\003>V\225\007>9]\020>N\244\013>#\375\014\272\265\220)>\205\3168<F\366\"\275]\364\037>\222Ox>6\240\231\275\255F\224=\266\313I>\214\367\232=\271\266v>J\277\324>@\265\027\275;\3043=\242\277@=\232\276n=\310\245\004\276\366G+\276\006\033\303<f>\032\276\324\207%>\005:\362<\'\342\255=\020\267 >\376J\033\275m\335\025<\311\307\261=\214m\207=\345\027&=\221\277\350=\033\347=>\024\365\355;\240\342\364:qh\021>\000\353;\275\367\275\343\274\234\013+>\264`\336=\0142\346\274\374kG\275\345\305\030>\236\005\204\275\370\303\024>\210\275!>\370P\330=D\202]\275\352p$>\303j\276\274W\r\263\275a~\223\275F\357\\\275\232\252\305\272{(\224\275\247\211\032<\337m\3049\220\360?\275C\337\r\274yoe\275iq\t>\021h\331:\333pj<0\255\033>\3043\327\274\241\303\350<\010\025\035>w\201\023>\n\344\032<`\302S=X\206\037>\345XP\274\2652\360<$\370\">\207\216Z\274\207\031\315<\334q\001>\351Q\227<P\331F=\257\353\007>\342q\034\275\230\367\206\276\2322\023\276\026\330)=\342&\222\276\205\010\210\276@\305\\\275\334\362\317\274\365\201%=\247\te\275\321;\375<~\377\027>(~\212=\355\365p\274\353\364\202<\365\005\222=3*\022>\214\213\021>\373\372\360<.\034\364=\237K;\275\036\252\226=\303\216\032>q\202&=\322{\246\274V\001\354=G\205\217\274\211W(>\373\2207>\324\347q=^\241f=\252\023<>\313d+=\317a\334=\301\tG\275\336\250;>\006\r,>f\373W\275\316\326\010;W4[=\022Q\301=\360\271)>\274E\027=\357\257\214=\250\313F=\231\370\004=}\347\341=\216\255\341\274\307\n\374=\356\242_\275\231\t\n>\330L\364\274\227\245\365<\022@\227=4\372\333<\224;\032>\212C\363\274\322\365F\275D\227\367\274K\356\252\275XtJ\274\356a\017>}\307\307\274\265\310\030<\302\356\003=\032\331\203=\205,\360;\3132\005>q\232\226<]}\205>\332E\310>N)\360>\264\206\003>\023jr>\306,\316>\252\346\245<X\307\343=\240g\216>\0000\275=\242\3020=\034c\344\274{\026\240=}\035$>\333\023}\275\265\206\333=,OI<.w\307\274\322\r\224\274\025\266v\275:{\377\275)\265\275<\372\367;\274 \350\251\275+\022\253=\235\246}=\355\362\330<:\004Q<\263\000\263<b\332m\275\334\222\n=\254\375\206<\251r\206\275\000\t\327=\242\3711\275\263\2137>,X#>\312\262j\275\334\036\205\275\365G\254=\366\251\034=\247\360\204=h\240\326<\2546\245=>g\246\275G\000l\275y\364\300\273S\374\370\274\230*`<\325\323\201\274\306f\234<Y\203\n>=\3174>\ta >MU+\273\304(\036>\357\321\352\2742\352\003<\352@ >\376v\024><\261\247=\3158<>=mw=r\256\207\275\035c\360=~O\315=\327)\014>b\032H=\305}1>\307U\221<\261|\214\274&\010$> \335f=\342\346)>O\224 =\343\246\303\273_\220$>&\360\216<\002J.>\237&\t<\2402\353=\227*\267\274\002\240\320\274\312F4\275\223}\024>\245kX\276\262I\241=J\\\026=\354\234:\275VN\203\275\002\252-\275~\342\242\274\02482=\275U\007\276|I\010\275\\\002\203\275\177\343\373\275\363^\212=\036\224\265=/\241\215\275\246Ox=5F\177=A\311N\2757\324Z=\014\306\212\275\337X\t<\214\252\215\274\246=\010>k\030y>\261X\203\276\270\312\225=\206\006\206=\261O\202\275\312\251\254\276c\004\220<\234\305\245\276\014\276\260\276*\236<\275\330(\200\275\356}\031>\006`\331=t0\351=\316\377\222=MH\360=L\236\306=\372\3037\2740\320\356\2748\027\002\276\032\312\234\275\325\232%\276\020\030N\276\247\226\300\272)I\252\275AkF\273\377|\216<\001\034!>\205i2>\226\357\362;\\z\361=x\265f\2752i\004>6\0315>\312\274\177\274>w\244\274gz\345:\3461\304\2739\363\020<\203}\036=#{\325\274x\317\333\274\323u\232=\346\347.\275\032lY\275\215i$\276(B_=%\002{\275M\r\021<\245Z\225<?\276\317;\345\023\335\275\225\010\334\275\261\020\227\274\250\016\330=\265\330\302\274\253\354\344\274\3568\241\273j\2313>3\n\210;\'\277!>\323\361\357\273\254\234.>\276\241K=\331\270\211=\273\263\265\274\213\003\270\274}\2632>\262\036\025=\300Q\251=\000\010\027=w\002\007>\315d\355=\2137\034>x\352\211\273;\271\306\273/o\220\275\242\024\345=\374\323\342\274\230\207\004=7\0174>\227\253\220\275\214eY\274\276J\276=?\332\353\275\211\021\324=(\235\261=S\320u\275\327\n\211=K\356\255<\037\036\316<\2723\036>\327\215==\3051\023\274\257cN=b\343\014>~L*=\037\304\316<\300ac\274\375\2301\274\320\r\205<\350GE<n\261A<2F\363<\nW\201<g\274D=o\364\355<i\010\010<\231\037\363=s\357\327\275\312\270\237\274u\373[\274Q\004t=8\255$\276z\010<>I\034\247\275\000\326\246\275\353\242\250= f\367=\376\027\373<)\327X\274\363\267\330=Z\307\357=\037\334\231=\356\007|=\262\025\035>\344\351\361=p\253+\275w\247\263=\243\214\221\274\034q\362=\006\270+>#h\361=\205;h=\022W\213\275\310\232L\275N\\\342\272\254\346\226=Cf\\=\233\323\201=\177d&>\334\354\250<do1>5\337\271=\333\206\205=\300\3673>\357\316\017>\235\3104>\333R\350=\035\353\202\275+;r\275?z\346=\277``<\307X\037>\204\340\026>\330\265\t\273\013\024\317=\267z%\275^\236\303=\376\346\\\275\265$\203\2754K\220\274+\177\">\200jg\275\317H\345=6\374\235<\253\225}\275Lp\221<\235\2338=wnM\275\374\335\031>9\004\276=[(}\275\021\247S\275\344U\361\274\202xm<\242\263_\274\322\226\215\275t\317(>\277\376\331=-\0352>;\215p>k\337\213>CE\033>\006^E>\331\007l>\035\226\023>\374\2763>kiM>\373\222\207\275n\370 >\224\337\263=\021[\020>Q[$=\27019=\313C\263=\026\035\250=\266]\223=\351\251\303<=u\226\274bx\200\275\002\010]=\244\210Y<\210\233\002\275\235[\224=\350\223#=\235\275\225\274Fq\266\274\177:\211\275\270\373 >\001\327\"\275\322\316h\275N\2204\274\314%\365=\260\273\233\274D\341\326=y\207\215\275\371\341\244=\023\342\346=\035\260\364=\221XZ=\"\236\323\274\363/\365==)g=\220\265\213<\177\345X=\370\342c\275\t+\207\274raa\273D\225\260=;p\240<\000\346N\275\t&\201\275jr\017=\251\370\232=W\014\226<\200\203+\275\007\306\221=\323\371]\275\026]\322=\300[\307\274A\346z\275\030_!;NU2\275\347L\357=\276\326z=l\r\324=\211<\304<\035\005(>\0107\022=\272C\360\274\256\301\352=\266\037\310;\251\036\n>\031L \275\030\330\254<mW*=Vd\262=\270v\356=%l\017\274\322\2356=Q\217\227\275\310\326i\275[\200\371\274\337\373\026\2749\024\257\273\332!/>\025\027\263<@*J\275x\204\246\273\371O\000>\224\257\345\274\216P\213\275\212[\361;\210\262H\275\353Z!>Ho^=\227\217\207\274N4\317\274\213>.>!\226\346=\0366\351\272\215\202\254\2748\247\005=\303\017^\274t/\033>5Y\200=*\020\217=meU\276\003if\276eLV\276\302=\333\275\273^5\276T?\014\276\370\362x\275b8\034\276j|\004\276\307\237\234=\334\216\332<\020#A\275\303.\361=*\360\026=Md\340=\006\017\013>\027\026\021>\024\267\206\275\025\3224\2759\255R\276Y\003\346\275`Y1\276\016e \276<\234^<9\200\334\275>UZ\276V\336\002=\316\361%>I#\006>\274\2661>E\232\024=\222\377\354=R\326\350<\0334\013>\315\364\375=\005\021o\275\253\034\r>\322\323\232<?\347a\2752\366\201>\340\307\337=oK\000=\326\205\264>\327\004M>\255i\024>\3515\374\275\230dt=\264\330\023\275 O\276\275\356\247\033=\310;\250=\010M)\275\335\272\016\274m\226Z\274\253P\r>\032l\320\274\372\322\331\272A\335\010=\006\225\016=)]C=\255\376\014>Z\211\263<u\365\230=\233\200\311<\367[\351=w\311p=it\215<\031\274\345=\235j>=\221\263,>\026\0218\275gY\213\275\264\330\235\273\217\242\007=\257\244\231\274\201\272\001>\245\376\027>R\221\032>\224s\017=\004\246u=\222\t\304\273<\331*>\223T\351;\232\255\205=\321q\030=\310\204\217=Z\031*\275@9\010>\307\277L<\0370\205=c\241\033>\357i\275<\n\032\354=\326u\347=g\274\006>\325\002-\274\261\006\354=\205\3305\2750\347g<\347$~<\2147\377\274\336\006\375\2746\276P=\333\261);xO7;?`!>Y\253\013>\240\236\326=\034=2\276\247\025\214\276\332\233\201\276[\200%\276=\231g\276\032\247\202\276\302\3112\276\007\315e\276\246\311\355\275\026\350Q=\354\261\244\275\016\037j=\321^\007>[p\347\274`\r\333<\364Lx=\336?\315\274#T\000\2759PD\275<\245\307<Q\024\300<u\2542\273I\260\265=!X\377=Q\037\177\275\231$\374</\014\215<\216\201\272=y\210\235<\026`\030\275\253\311$>nYv\275\353\235\220\273r\326\366<\024\n:;\301U\266=Y\256^\275\220\220\234=>\357h=j\356\364=\352\322\313=\"\273\t>\327%\335\2742\366\033=\307\365\215=\311yh;c\010\210=o\0172>\321\004\353=\rN\023>\237\354\010=\365K\n>\037\275M\275\333h\201=\224Q\334\274\022\335\212=d\243\265=g\326\357=Rr\332\273*\3308>\240\322\264=l)r\275\244\374\233=\355.\353<G\177\036=4^#>\n\256\322;\370\264&>\0014u\275VWo\275{6\317=\257\370\036>\203h8>qL\307=\272z\344<I\346c>D\204\363=}\215\'=,\252\255>XF~>\324\212 >S\276\205=\306\003>\275\361\251\212=\365\304\032>Iw6=;Ge\273\004\254\301=U^<>\274\024\206=3\232\233\274\216c)=+\272\312=\230I\230\275\206\250\313\273\274\303m=F\214\025\276\376t\251\275Br\243<\241\353\026>53\213=\246\337`\275t\226\034>\026d0>*\345\252<M\226\023>\260\377\257<\344\177\347=CA\211=I\311\231\275\037\310\203\274\315\301\331=i\330\336\275\240\240 <!w\234=|\203\326<\030\371H\275\tra\275f\033\362=\341}\262=\313\016\254=\201i\014>b\217\366=(\307\025>\375\266\201\2740\315\361=o\370\344<\235Y\202=\337\231\222=\006!\025=SSg\275e\230\032\275c\362G\275\246\325\017>#\205\222\273`\n\202\275\273\233/>\363\217;>|\245\002>\200+\244=\237\026\023\275\341\317\010>L0A=\254|6>\037F\226=\244\264\345\274\311\360\363=#\2272=\021|\217=jo\030\275\301G\330=^\037#>\301\203\336\271\031k\276=ck\007=w\033\334=\304n\003\276\006\360\303\274\254\034\316=h\227m=e\334H\274x\236\024\275\002PG<&\031=\275\000\255\254\273\341\237\037\274\272L\307\272\371\'\016>\265\211\032=K#\350=\222`\037>1\272y=\r\233\023>`f\037>\036\262^\275\005c\256=\3038\325=\252\2137> \334\001<.\272\254=n\311\243\275\342B\203\274\021lc\27660i=\336]\304\274\177\221O\276\t\032\350=\330\322\306\274\353\211!\276\233z\200\275\2138\230\275\213U\000>\236\306\033\275\\;\250=\340\344\002>\201\n\006>&\014q\275/\r\315\274;\273\212\275(\305\352\276\350)\"\276\272\013a\276sj\241\276\242M\032=\n-\321\276\030\314\212\276\252\350\247\276\037\274\007\275\032\373\252=(\033\334\274$\300J\274;\276/>\377M\376=\006\310I\275\362K\357=zT\222=I\346\n\276%s\270\274a\216/\275\000\002\264\275\020\222\366=F\324+>\335\375\217\275\306\025\002>\362\251\'> \322\027\274m\260\031\275\361\267\016<\260\322\353\274\022\311#\276\036\374j\275\262\353v\275Dg\357;\227\335\220=\306\334\206\273l\234\027>\322\377?\275\231\310\262<\267C\356=\326\306!>\243\333\221\275Z\304*>\rM\244=\344Y\235=\256\215l=\t\341\3077j>\317=\2612\021>\334|\215\275n\\\347\274\004j$>:`\022>\016B\341=D\3277\275\2557\363\272t\312\224\275\235B3=b(\017=\237\270J\275\010X\234\274\006\237\353<\364n%\274\007\375i\275\321\346\273=E\223\321\273*\224\027>\033\205\330\2758#P={\371p<r\255\354=\304B\367=\333n\027>&\024\232=\020\030E\275C\200 >\270\0061<n\341\246=\331&,>9\331\215\275(0{\2708\334\225<\323\363\255<\212F\353:~\311\377<\202J6=\246U\'\273\234\035\034=\370\036\271=#l\201>\342yk=\301\327X>\303C\257>\337\323\037>\264\271s>\314\273\016>\001\2440>\020\366[>mJ\347=\204\211u\274\rB,\275.\216\304=\215;Z=\251/8\275\301\345\334\2742\256\362=y\361\020<\252e2\275\024\363{=\2455\n>\353i\023>T%\001>\025O\224=r\2146>~p\371=\214\344\304=\204}\210\275\014\017\341=p\371\003>\034\332\004>^\241\337=\267\013#\274\0036\316=\321\363\021>c\025\215\274\016\032\231=\026\343H\274?\\\013=\373\211|=\037\351\212<\230\275\336=\324\302\232\274J\331\234=\203\261\347\274\272\031\221=\264_(=$\000\323:\252\346I=xV5>n\344\204=\227sU\275n\353\366=\304\314\361=\376\nf\275\356K\316\275\302\033\010<E^\322=\230\215\244\275z:\325=\226.\233=z\376\316=pB\234=\233Y\032>\340f\250\274\260\260:\275\237\343Z\275\245\262\026>\r95>\304&;\275:\016\221=e\026\177=B>\031>%$\014><T >\026\344\001>\227\241\312=\345~\364=\301\377\033>[o\023>\372\202D>\265\341\370=^\035\244=\350\307 >\207\2413=\010;\274=R\272\026>KQ\327=\006\225?\275\250K\013>\200\301\370<\014M\324<\224F\240<\272\n\255<[\212\016<\236\250\021\273\232IZ<RQ\326\273\212*+\275eX\260<\254\024o=*\375\316\274\303\t\214=!\203\274=]\254G\275\346\306\022>e9\367\273\013\273\023>\246\323>\274xd\344\275\305(\255=\202\257\031\275}\035\273=)&}=\206\300\264=[\2518=&\030\235\275\213y\333\274\271\275P\275l\275\274=ZO\'>(F\004\275\311\335\"\275\'\035\321=\375C$>\204\033\351=\271v/>\264\233\253<\030m\203=52*>\331;\022>\340\353:>\335Qc=\244\232\310=\204\002\212=cP\207\274\000\017R=_\326_=\024\317\266<B\374\270=\"J\003\275\301@\033\275\314\276\367=R\r\n>\360\026j=/~\213=\240\005\016>\327\030\274\274\221\226\360=O-\004\275g\251\362<\275\377\205\275aS\332\274\276\014\336\275\014\327\273\276\231E\201\275\020\004\313\276\240\324\234\276F)\022\276\342\223C\276H\007\261\276\247~\217\276|P1\275\002\335\266<\372\247+=]\t\346<Ar\323\2758\035+=\253Z\367\275\231\207\007\276\310{A\275+\247B=\3452\205\275\305&\025>\006\217\033=*P\231=\312\013\205\275\210\207\305=+T%>I`v=\206\322*\276\027\261\340\275wg}>\211\301:\276\242W!\274\347\260\033>\202%\256\276q\350\211\276\316\367\216\275"
      }
    }
  }
}
node {
  name: "f2"
  op: "Const"
  attr {
    key: "dtype"
    value {
      type: DT_FLOAT
    }
  }
  attr {
    key: "value"
    value {
      tensor {
        dtype: DT_FLOAT
        tensor_shape {
          dim {
            size: 3
          }
          dim {
            size: 3
          }
          dim {
            size: 64
          }
          dim {
            size: 32
          }
        }
        tensor_content: "/\251\366\275\315\025Q\275\037\375\357\275$\374&?\302\376\366\274\344\207\022\276\217\372\233\275ID\010\276\014\204P<^\3609\274\260=9=w\320\007\275\261\234\316;\311\"\351\275\341\270\375\274\250\037\344\275\222&M\275~\352o\275\242\306\277\275\254b\357<\313O\014\276\376\242\324\274`\343\021<\237\322\000\276\370\035\r\275\225\262\034\275\307pN\274iq\311\2757\322\364;\200\367j\275s\316\241\275\001\361p>\315\237#<)\255\201\275\2259\010\276\224\306\251\275\316\205\237\275\354j\021\276\302(\254\272\323e\333\275s/\331\275\375\002\237\275\211\341\271\276\312\314\027=\302\226L\272}RX\275\240M\017\276\212\300\245\275\344\226\332\275\337\311\267\275[|J\275W\330\324\275\351_\276\272\341\003\255\275\365\003o\275\236+\254<e\346\302\275\275\313\230\275D\007\371\275\336\005\333\275b\214\337\275\n>\356\275\2149\005\276\362\322\203\275d\203\351\275,\352d\275uCu<\354(\002>\255\374\241\2756\362\n\275N\272\254\275@\261\247\275\027\023~\274-t\345\274=\213}\275\340T\253\274\237T9\2755-\252\275\213\317U\275\020\276|\275\213\307\237\275wsg\275\252\373\221\275\352\333\013<\007\250\227<\020\325S\276NR\376\274!\017\362\275\0231\013\276B\346\271\273\221!\242\275\346\261\001\276\274\004\240\275\313\325\004\275.`\251\275\025\243\031=G\242\223\275\350\223\247<\336\267\240\274\"Bp\275\340&8\275\237\002\027\274g\375\377\275\'\200\r\276\241E\260\276V~$\275B\304\036\276\032$r=\260\274\342\275\2573S\274\250\235w;\252\324\347\275\221\301\000\276\266\331\241<\216j\352\275\177S\206\274[7P\275u$\265\276\023\260\225\274\347\222\036<\371<\257\275f\254\2248\365\226\330\274t\034\306\275oAz\275\373-\"\275>\033\352\274\371\017!=\276\322\303\274Q\240\031\275|\rF\275\377\003a\276j\214\026\276\275\206\305\275\357\246\310\275\032\252[\274r5\277<\353\264\n\276\305p\205\275 \275\177\275\341\256d\275\031\274\261\275H\002\017\274\353x\272\274~\220\003\276g5\344;\271-u\275S\317\r\276\246y\244\275\304\327\224\276\2508\010\276\373\302Y\2751\315\000\276\364\267Y<^\311~;\245\250\207\275\206U\221\275\\u\272\275\211\001\n\276\000\266\337\276Mp\270<\316\311\215:\271\225\220\275\273u\351\276\r\343\210\275\214\373\311\274\231\325\017\276N\313 <R[\301\276x\\`\275o|@\276\027\335\004\275\256\312\340\275:\010\t\276\330e\004\276\241\036\242\274\205K\217\271\211\265\335\275\002\316\334\275F\351\256:\004\271\205\275\246\3057\276m:\004\276xW\220\275B\'\365\274RL\235\275\321\214\201\274F\004\005\276f\244X;\246/\204\274\001a\304;\023\362<\274\3060\355\275{4\014\276\261`\370\2753\334\255\273Y#D\275\035/d<\375\271\"\274|\010\007\276\317S\236\275bL\006\276Sc\321\275\242\211\274<\344,\266<s\242\374\273\232v\256\275\347~\375\274Y)\354;\317\233\t\276\277\004\346\275AN5\273.:\323\274\3456\027>\252\n\275\275\340Z|\275\324\n\272\275\257\350\213\275\2610\275\274\307\332\314\275\335F\022\276\177\345\263\275\023\213:\275\261\025~\275\t\207m\273/\357\241\275\243\273\316;a\314\216\276Rr\356\275\251K\206\275A\216\250\275\350/\316\275\205\2451<(\316\374\275\037wg=4\000\263\275Q\255\303\275\365\312`\274\n\305\004\276N^\242\274\034\341\263\274D@\325\275R&\t\275A\001\323\274\352Q\327\275\210\317\271=\347t\347\275\031\313\t\276\351P\257\275\364\2506\275\273\274\374\275O\245\n\275\357\257\020\276\260]\360\275\t\037\242\274u\340\215\2741\270\022\276P0\367\275\001<\375\275\317\331\022=E?\032\274\246\206\225\275\007R(:\317W\016<\326\302\300\276\352\326y\275#\'\246<\2511\247\273-.\r\276\003CP\275\034{\004\276\273\036\242\274,d\251\275\227\216\'\274\311\2768\274d\366\257=\267\216\246\2748\026\\\275\203l\250\275\226\252\331\273\325L\006\276\002P\234\275g\257m\275\363s\322\2750r\364\275q\346v\275\227p\016\276\261\264\000=\257L\260\274\236\r\366;c)s\275\345\212n;\271\007\010\276dY\323\274\3565\244\2750\325\002\275&]\036=Hr\336\275\237\216\320=?\333\242=\352\335\032\273\331\251~\274O\260\345\274\251\341\306\275e\035S<\322\001\331\275J\345\300\274\177k\363<(\031\204\273$\0340\275*o\367\275\235h\032\275r5)\275\315|\223;9\300\277\274+\030\213\275\356\257\213\275}(\240\275\303?\336\274<,\234=\322H\006\276yj\265\275\271u5\2744)2\275\021T\271\273\277P\267\275\001^!<\320\360h\275\324\371L=\025y\326\275\243\355\t=\347m\006<6\265\265\275\362j\270\275G\300\033\275\242D\233\274S\024\342\275Zqf\275Ycn<\317O\353=\037)_\275\201[`\275I\370\202<\221Y\3029\036\355\270<\362\312\'\275\261\335&\275\'__\275\242\363\022\274\001\0203\275\343\007\365\275\347\351\024\275\232\320\273\275i\252!\275$\036\312\275\356 \277<\246\375\244<\253\306\361\275N\322\314\275oeL<Lm\354<i\222\377\275\314+\273=]\356\212\274[Q\004\276\250\376\331\274\30072\275c\317\251\274v)\010\276\362\206i<C\357\201\275\342[8=\344Y4<\274\302\003\275\303H+\275\333\257\366\273>\244\224\275i\267\236\275\242\027\007\276\265\336\232\274Jn\264\275\363Vn\275\324R\273\275\322\353\014\275\240\262\232<\352j\341\275\030\256r\273}\334\233\275L-\231<\277k\210<\t\225\373\275\007\303\027;\364\307\204<<!\223\274\326\234\'\275\371b\252\273\345\017\252;}\311\212<\337T\001\276\314\022\275\273?q\n\276\3277\222\275\'\204\341\2751\235]=\321wo\274\345\362\245\274&\347\004\276AWe\275\310`\030\275\035\246\216\274\032S\255\274N\345\225\275d\370\377\272GWu\275X\032\003\276|\254\221=i\311\021\276\361#-\273\317{\211\275O\026\324<OX\216\275E\367H\274\247\357W<y\302\356\275H\031\021\276\311k2<M\220\026=l\327 <\014\345\263\274\2738a\275\216\033W\274\235\211\216\275\035\230\324\275\204A\374\275-\366J\275~\264~<z\232\321\2756\ti=\367\207\307\274?9\2349\376\370y\275\327\025\206\275\314\226)\2757z\354;\246w\275\273\376\347\245\275\2107\226<?\'\334;?\212\304\275\357\023\365\2750\375}\275$\327\374\274!\226\212\274\305\320\343\274d2\264\273\277\267N\275\t\215\240\272\201.\240\274\202|\332\274;\227\364\274\320\"\300\274-\323\356;r\263\313\275_zi\275\314\363\360\275\315\221m;\375a\243\275\017q\006\275\2620\325\275\224b\360=\215\330\331\275Vo\271\275\277\027r<\306\025\004\276Z\010\230\2754\362\372\274\016\333\206<\336-\225\275\330\261\255\275\320]\000>\037\215S\275-K\035\275g\313\201\275\3230:;,(\007\276\331\020\324\275\343\244\210;S\317\240<\n\326\016\276=\2472\274`\252\031=V\276\254=!\022l\273\312!\260<I\271\360\275s\330\253\274U\201/\275\307\210<\275I\311\"\275\336q5=\310Z\001\275\206.)\274\357\377\037<\206\311\347:\253\300\206<)<#\275\377\250\200\274\363\363v\275S\346\254<)\024\274<B\335\371\275%\025 \275=k\346\272h\335\005\276\217\206H\275B\017\240\277\230\267\022\276\005\343\034\275+\010\261\275J\230U\275\203\324\367\275\362\356W\275\255jc\277i\2259=\352\2434\274M@\237\275\0008K\275\327\210\343\273W\014Y\275`\257\230;\r\341\202<\277\n)\276\356\366\236<\212\221;=\361\333\353\275d\267\001\275{\177O\275b\327\246<\205c\r\275I\355\270\275\316v\242\273\266J\335\272A\016\273\274\035\007~\276\243\327\367\275i\345j\275Bp\312\275!\351,\275\0350\004\276#4\025\275\366\252G<\263\262\250<\t_I\275\201\260\373\274Sq\222\274kl\276<\301G\017\276\235vV\275\314\306j<d\316\221\275\n\302\270\275O\036%\273I\030M\274\350I<:\220\243\037\275\333j\001\275\262\3208\275\323\323\263\275\t\2325\2749^\315\275\317\203\257\275r\264^\275\363\036Y\275\273\'\274\274\355\332J\275z\361\327\273O\221a\275`\345\321\275#v\234\275\373d\265\276)\036\004\276\022\204\034\275\327\377\217\274\304\303\302\275\263\243\237\275\213Y\240\275\306\365\026\276\202T\367\274\241\177\033\275\210N\305\275\223\201\246\275\373%\216<\327\327\\\273\312!!\275\355\360@<\264\257\311=S\255\372\275\354!\325=\007\232\355\274m\325\252\273\361\332\030\275\t[\317\275\321^\231\275&\t\331\274k\016\350\275\177]$\275\202l\345\275k\213(\272\253w\246\275\024\353Y<\0242_\275f[\243<\260\360\260\275G\215\253\274\223\036\274\275\217@\340\275\004\355\257\276\210\222\301\275\351\201W>\005-F<YH\313\275\305\326\010\276A\341;\275\363\272\266\274kO\226\275\301\220\360\275Y\354\354\275\3034\311\274\334X\020\275\222f\362=\334\201\353\275x\376m\275\215\225\361\275s\037\257\273\220\356\271\2754\210\003\275\313\261*\275\307%\t\2768C\237\275+\235\332<\212\361\327\275\213\027\010\276\275E\214\275_E\017>\346\231A\275\017\270\261\275q\345\307\274\227!\360\275\352\'y<\177\346\274\275`\234\220=G\n\207\274\244\254\356\275;\301`\275\267\\\301\275}\226\334\273]n\032\275CJ\377\275\265\245\204\275\252\216\262=\236\340\330\275\250\034\212=\324*\233\275\357\237\375;\350!\363\274\263\372\014\275\203\217\000<\247\265\005\276\232\304\325\275\363\261\245\275\356Tf<4*s=\244\023\312\275\307w\002\276KF\243<S\2112=Iw\004\276p\210\230\275\004\340\025\275\202\372\265\275\260\241\253\275;\360\341\275uX\212\276~\232\304=`G\204\275\n\353\304\275\201\256\';\277\007\232;\177\211\025<E$\363\275A\342\255\274n\205;=\314h\037\275\224\220\n\276@9\261\275\234\347\020\276\206\021\325\275\021\270\356\275X\031\330\273\343=\203\275\'B\361\274\210\327\315\274\276\227\222<\033\363\342\274V\211\003\2768\313l\275\362yc\275\364]\341;\254\324;<\231d\241\275\\8\263\274\270q\237\275)\206\212\275\002\"\227\275\247\303\013\274X\347\\<Z\013\364\275\314\342}\274\240\241\304\275q\2575\275\033\020\375\275p{\003\276.\362\031;\341\347:={@\257\275\307\304\272\274\257\036\331\275\024\374\016\276;\261h\275W\010\032\275\001D\310\275\277#\005\275\267\265\376\275\326\332\212\275C\321\301\275\030\027Y\274\234\036\231\275c\214\261\275U\233\254\275\341\345\203\275\031\250\244\2757iS\275\261\344\000\276\022\322\306\274j\017\241<\035<\031\273\016\223N\276Lf\245=L7\307\275\351\345\024\273\205K3\275\344\225\377;\2329~\274U&\330\275\322w\330\275N\355\305=)l\026\274\3248^\275\354\235\272\275\346j\245\275\366\001\221\275R\273\301;\367\204W\275<I\010\275xA\320\275\322\243Q\275>l\317\275Y\276\375\274\265\002\337\275\251\210O\275\237\007Y<\337\352\310=\215!\233<\002\215\312\273\245(4\274\t\332\362\275h\314 <\322\345!\272/8.=h|\213=\ta\342\275\016\037\274\275\366\017F\273\273\021\032\275\237\243\370\275\200\373\320\275\274U\346\274\000\371\315=;\354E\275h\226\n\2741\244(\275Vnr\275!N\376\275@/\320\275\217A\024<\r\006\325\275\237\217\330\275\212\210\366\275\035h\003\276\360y/\2756\304\213\275\232\2056<z\274\327\275z\272\271;\303\376\035\275\000|\340\275\212\265\332\274\336&\266\275\214>s<\202\014\264\27599o\275+\352{\2753;\260\274\346\337I;- \013\276\216\346<\275l\346\337\275\003~\004\276\277X\374\274I\"\232=\004\210\215\272\\_\002=\312~\260<\252P\336\274\332W\3219c\'\005\276\305\206\r\276\335\306\232\275$l\022\276S\271\260;\304a\013\276\3658i=\304d\364\275E\207\014\276\3559\340;g9\247\276\321\311n\276\003\023\236\275\215\334\241;3\311k\275]M\362\275n\363\005\274\014=Y<\004,\371\275\340\204\300\275o\004\014\276\357lF;x\177\005\276_>\235\275El\264\275\202c\001\276\224\"\366\276\217\006\031\276\027\246\230=q\241)\275b\210b\275\231}\361\275\245\017\351\275d>3\275\202!\324\275b\205\003\276(\004\353\275\002\361\257\275yF\236\276Dn\014\275\000\271\355\274\350\225\356\275B7\231=\001\002\003\275\262r)\275\261\251\307;\217\2042\275*\027\203\275\372`\016\276Q\362\302\274\030k8=\014u\034\275;\014\003\274\354l\307\275[\344\263\274\021]\265\2746\177\022\276\212-\214\275-\310\311<\237\217\201\275z\017\310=\233\tD;\014W\241\274&\367\317\275Cg\216\275\350\324\376\275\252\305i\275\374\240\374\275H\010$\275\345\302J\275y\255\221=*\362\024\276\2051\356\276\315\355]\275\013\260\034?\031f\312\275,\304\017\2762\"\213\274Q\245\245\2752\241\355\275\035\343\233\275m\004\350\274\017\236g\275\n\246\t\276\205\375\"\276\031\305\317\275$\304\014\276g\207\327\275\350\235f\275\244ac\275%\373\004\277~d/\275\226/\265\276\267\355\251\2752J@\276Z\332~\274\306i!\276\371\356\275\275\027\247\343\275\006\367\224\2768\030j\276Y\346\310\275\367\262\244\276\265\335\231\275\036\366\252\275\255\254\337\275\227\275\210\300\02691\276\036?\t\276\347\035\234<\007b\t\276\332V\263\276\306\373\234\275\0246\265:\345^\343\276\366\317\251\273\367\351o;\241\203\355\274\217/}\274l^\017;\202D\020\276E\027\341\275X\323\272\274r\361\237\275\031\230t>\327M\021\276L\004\024\275\222\t\220\274\206F\346\275\321\344\007<8s\213\274|\347\272\274\213\034\245\274\347A\022\275\033J\370\276JD\363\275\221\205M\275\271m\357\274\2759\324<800<\203\245\266\275\337\035{\273\316\202\310\275\204\205\306\275\320>\233\275\260\327\257=P \201\275v\252\313\275?T\314\275\335\202\005\276\236\247\347;\366\010B\274\247\254q\274|\030 \273\030\231}=t\344\006\276\272\246 \275\333*\022\276\312?\235<\032\177\275\275\241H\231\274@\276\247\275\306>\304\275\266\022\n\276$`\214\275xZ\327\275_\200\224\274b`e\275qO\021\276\025\323\036\274\343\'\273\276*\371#\276\025W\r\276,\303\337\275\365\337\365\275\177\261{\2731\262\t\275>\333\005\277-\223E\275\033\000\217\275Ux\277\275\321\340\023\276\263\014\362\275\271\263\375\275\2067\335\275.\241\212;p\'7\276\251\332\230\275\261\313\313\274s\360\021\276.\'\007\276\355]\357\275\201\257\005\276\225Q\347\275\377\235\255\2758\300\360\275J+\200\2756H\256\275[|e\276\375\246\017\276\032w\202<>-\267\274\316\211E=1r!\275\336&\263\275kv\205\275\245\214\323\275\024W\335\275\331\211\017\276J=\036=\227\312\230;\276\372\356\275\320x\310\274\317V\226\273\376\027\014<\002X\263\275@5(<\375\335\337\275y\277\201=\227/\251\275\364\217d<\222\3679\275Y\002\221<\346j\271\275\314\245\234<:z|\275\005\231h<o\330\362\275\017\257\310\275\036\260\010\276]s\246=\234\235\\\275\221\204\360;\240\024\004\276\003\205 \275+\t\265\275\333\013\311\272\n\"\004\276\002\323\013\276\204\024\025=\332\255\365\275\331\037,\275<Tx\273\320)\334\273~Z\237<\017\341Q\274JI\236\275~&\367\275\021<\206\275l\037\302\275\341\026\240<\221P?\275\373v\205<\360m\252;\334\004\337\275\357ri\275i3\255\2752\313\003\276\223B\267\275\371\377\325\275\323\347l\273s95\275\227\355\214\274\313\372>\275\276\312\204<\3443x<\215\214\024=\317\227\253\274\2448\320\275\212F\036\2758\235\242\274\314\203\211<\354L\221<\352\343\361<\353\242\363\273\273\273\334\275\201\317\376\273G\234\245\275\220Z)\275\246|\371\275\032ll9q\237\244\275X\005\314\2748vA\275\301y<=-/\321\275\005a\000\275Hp\377\275\356\267\004\276\335T\367\275#\375\310\274\271\274\232:n\\\223\275\035\026\014\275\310T\213=\000\370I\275\232\315\244\275EHX\274\361\312\273\275\300\271\013<}y\374\275\031\212\336\274~a\270;\315\305\236=R\002q\274\361\226h\276!\256\250=b(\r\276\306\222\253;\372\0233\275\003\030\331:\233Z\356\275p\272\224:\247\217l\2757I\223\273f\t\365\275\036\253\211\275\234#\363\275\244\217\341\275\216f\241\275x\'\017\276V\017{<\237v\375\275/\342E\275\035_\244\274q\027\320\275\211\366*\275R\204N\2715\221=\275b6\312\275\021\251\315\275\203s\263\2754\236\365\275\347\r\323\275\241\314\251\273\244*1\273\212\346\374\275\333|\307\274V\272\202\275&\304d\275\2617\007\276\302\275\204\274\372\221=\275l%E\275\240\033\261\275\365\213\300\275\313\321A=\276\026h\275q\350\021\274I\313\204\274n\365\020\276\205\302T<\307\366i\274\246\030\353\275\372\241\263\275\237\300\361\275]8\252\275\361=\310\275\327\037\307\274\214\017\n\276?\314\264<\324\243\252<\351\302T=/\216\317\274\311\353\206\274\013\214\217;\351\364B\274\030}6\274\360d\034\275\030\302\214=\213\377\367<\207_\273<z\255]\275\334=\330;A\272\332\275Y\375\240\275\3443\251\275\\\246T\274#\241\017=\377\273\207<,\275\000\274\357E\200:/\252\357\2758\2075\275\326\t\372\274\027)\303\275\337\234\211\275\020\344#\275\350?}\274\303\344\362\274\365\376\241=\031\014\013\276\030|\235\275c\245\n\275\'\366\244\274T\316\031<\225A\366\275\356e\231<\tE\232\2755\360\202\27667\307\275\240\225\243\275\224\254\267\274\207\265\311\274!\202V\272HuS\274\017\341\026\274?1\340\2753\347\003\276\300\t\357\275%\263\312=\335s\246<\363[\333=,\310\376\2731\013u\275\343\333\371\275\264k\240\275ye\313\274\324U\312\275K\206\332\275\341I\020\276PI\272\275\207\000\260=\3216\274\275\350f5;\247\227\375\2757O\255\276\353\323\030\275x\350\020\275\016\357)\275\215Y\267\275\311X\265<\226\005\366\2743\256\235\277\330\353v;\317\235\254\275\312\341\342\273V\364\346;G\275\331\275\274\335\341\274\202A\226\275\215\245\t\276IK}<qZW\275\274G\253>\206\r[;\321\257\365\275\354\325$\274\242\345\037\274\210\245\261\2753\263\350\275\n\003\370;5\225\014\274/qf\275\257\247>\275Y&\262\275\323\303\251\274\335\034\"<\210\2324=\322\234\257\275\216\344\204\275\350|\241\275L\\\301\275\211M\240\2743\214\214\272:*6<\2462\357<\364\367\004\276\321\326\215\275\256\233\275\275\312\023\323\275^\007\317\273U\220@\275\202\005@\274\360x\177<zD4\274\357v\003=l\002\022\276!\346\241\274\0034\220\2752\013\027\275d\317S\275@\026\021\276\2613\t\275.\322\326\274c\367\232\275g!\311\274\317\366\361\275\245o\207\275,\351\301\275i\324o=X\334\250\2756\271\037<\252\335N\275\207G{<\337\226-\275@\322l\275\260\262\214\276\370\236\243<bli\275\325\374\334\275\251X\237\274\235\304)\275g\014\016\275\267g\272\274\217V\247\275\233\353\230<~\325\373\275\nA\235\276[\332\251\275\263n\321\275\363\342\205\275\337q\236\275\\;|\275\3039\326\275\353\025\247\275h8\304\275\037\210\257\275><\327\274\003\307\304\275O\367\020\275\211\2075\275\333\031J==\010\036;1My<\262\222\205\275\250\332\021\276\362\350D=\346T\220\275\337TT=a\313\307<r(q\275\252s\205\275\316\203\261\275l\364\252\275\006\360V\275(e\326;\221\263\302\275\007\206\241=\024{\013\276\240f\366\273i\036\001\276\233#\307\275&$\215\275\'\231\004\275\313\374\220<<\270\307\275&z\253\275P*\346\275*_\272<~\310E<\347\260\200\275^\375\260\275_\252S\275\002A_\274\260g\340\275\361\014\377\275\206\014\014\276\237\273\246\274N+\231\274\331\327`\275\022\313\'\276\'\374}\275\200\024\210\275=_\004\276\034\030\256\275V\202(\275\322f\312\274k\221\266\275\302+\303\275\342R\227\274\215\006\330\275\352L\033\275\013\000\223\275\017\023\000\273\037C\010\275\377O\307\275By\001\274\220\031\010\276\236-\013\276z\177\000\276\376\217\202\275\\\246\345\275\255$v\275Q\305\020\276M\361\253<\330\270\223\276gX\255\275\323W\303\273\232\351\323\275\036\352\215\274\366\327\257\276=\354\207\275>\260\357\276\006#\024\275\2007n<\033\363\324\275\016\373\270\2742\005\316\274\205\230m\275\370\265\010\276\'\340Z<\'\372_=\266Z*\275\327@\200\274k\331\302\275+\371\236\275\007\360\232<|=\005\276<j\216<\374K\252\274\2613\335\275\252\352\255\275\340\216p\275Jq\314<\225\360>\275lx\212\275\265v6\275\",|\275Di1\275\007o\017\276o\\\332\275\277B\223\275\310^\031=t(\023\274fG\273=\205\302\211<\013m\273\275\030I\t\276p3:\275\306\002\377\275\2251Z\275\255d\324\275\344\356\020\276\316@\325=\221\371\300\275,C\"\273\335u\227\275\272\230\245\275\231 \t\276J(\252<\342\224\352\275\302\351\t\275\233\337\225\274\340\002\274\273`#\235\2755\373!=\334\314v\275B<\246\275Hm\226\273\344\337\363;h\371V\275L/p\275\262\315\244\275\020o\336\275\'G\272\276\265\306#\275\300\244w<\267\033\317=\302\214\335\2755*\272\2751\321?\275)|\211\275\014,\342\275\201\275\300\273L;\347\275h\331\201=w<\276\275\033\222\r>\2522:<\342\241\007\276\'Qh\275\276L\212\275\262\274\337\275\250\377\211\275+\347\332\275\003\230\327\275~\317\244\274O\346\312=\206\r\"\276\334,\347\276\370\373\025\276W;\310>?\032c\2752\000\007\276\250\351\352\275\357\036\271\275\221 \316\275 &\t\275\\\247\357\276\255\221\303\275o\232\033\276^\036\211\275,l\013\2761t\033\276hIC\275\331R\r\276\370\356]\275P\212o\277fl\313\275*x\024>\212%\206\275\203\320H\2762?\005\276\315\021\262\275\007-\007\276\232\203\005\276I\363\217\276\253\0238\276\271\300\227\275fW\030\277\300i\r\276\320\270\312\275\024mw\275\303\237\236\275\010\232\210\275\033\205\215<\351\032x\273\310D$\273\254\t\224\276\337~K\275\351\314\236\274\304\244\034=\277[\n\276\355\r\371\275\306[\271\275=n\224\275\261\365\271\273\236D\353\275\3064\362\275\335\2617<\271\243\216\275\006N~\276\363#\021\276\023\324\242<\275\215\006\275\254\270\345\275\347Y\313\274\232\214\323\275Q\204\320\274\263\t_\275=\021\307\275\210\244\212\275\330\373\t\276\276\302\237\274\271A\331\275=:6=\247\344\234\275*\003\327\275E\n\301\274:g\372\273\235BW\274D\306\245\273\272\316t\276\315\271\365<FHp\275N>~<e\307\371\275\362\277\271\274\001Z\241<N\277\010\275(\317&\275\233/\262=W[\365;\374?\'\274\256Z\006\276\240J\233\275\251\234\221\275k\0349\275\022\203\271\275\034\207\230<\306\220\271\275C\224\340\2751;\260\275\357e\252\274\223\227\020<_\256\010\276\021ph<\237\030\306\273\233\266\263<I\245\325\274\362\375D\275\351\031\t\276\265N\034\275<\317\364\274\"\220\231;AB\356\274zG\266\275\343\013\203\275\272\321\300\275\223\n\021<\031\365_\275_\000-\275\346\016S<\243\001e=;6\304\275\214)W\275\014\010\010\276\236\234V\274\355\202\301\2755\t\244\275\231\\C\275\032PZ<\300`\340\275\377\265\365\271|\026\270<\024\363\270:M_\223;\200\372\267\275\261\342\204<G<b=\226H\354\275z\267\346\275\225k\t\274{de\275r\323>=\257K\331\274>\177\265=\032mI\274\230\004\210\274\260\253\203\274\252\200\200\275U\023\245\275hh\225\274\031\276\313\275\254\371\214\275{\246W\274\345K\254\2749\334\307<\010\312n\275\311\242\021\276\327D\255\275\220}P\275\212\267\037\275[Lr\274\353\344\263<\344y\266\275\326r\345\275\320q\302=\242\'\207<\236\224\r\274\217\354\361\275\211Lv>\336\274g\275\271\270\250\275\000f\030\275?\217\217<>\026\037=Gr\230<\264\300\266\276M\233m\275\272\343\256<%0\226\274_wd;\233\351\367\275\351\032\326\275\367r^\275\310\277T\275\320;Y\276zU\267\271& #\276\007\373N<\367\202\201\274)?w\273\214%\t\276\001N\251\2747\323\357\275\022pI: T\312\274\334\307\016\276\341\3219=\017iQ\275\021h\272\275\277\355\203\275Wx\360<\030\"\205\275!W\363\275\014\031\313\275\200\346\357\275\335\252\005\276\310\307\345\275\362\205(\275\263\336\365=J\307\267\275\034{\022\276\336>\271\275!\304\322\275\020\311\337\274d\271\034\275K4\207\275\030D<\274c\250\257\275=IL\273\314\0377\274\027v\340\273oM\'\274\212:\317\275@\350g\275\257\243\344\275\265\204\244\275\325\016\253\275\301k\306\275\354\212\005\275\261\257\200\275\347\231\237\275\303\014\020\276\337\346\272=\337\362\255\2755_\334\275\370y\241\274\\6:\275\371K\240=\312\232\004\274\250\n\254\274\244\317\246<N\243\364\2742.\255\274\272\346\022\275\265\250_\275\215\027-\273\004\243\356\275\021;\n\276\253\213\262=d\223\230\275\\\rS=6\334o\275\302@\356:0\373\177\275\373\017\215\275\226\005\n\276\202B\245\274\3376\177\275n\373*\2756y\321\275)\361$=\025\"\312\275\307\262.<\206\"\n\276\347\271\027\277\"\227k;UN\016\275\026\373;<\227\3118\275\313\021J\276H\0160\275\271\233+\276\342\304\214\275\370\350\341\275\'\034\000\275J\355\001\276\303\217\236<:\026\247\2751\243\246\275\240\274\337\275\361\314\205\275p\320\006\2752O\360>\303#\242<\241(\253\275\226)\022\275\256\017z\275\013\301\210\275\225V\357\272X\0001\275e\240\317\275\353\0232<\362L\336\274(S\037\272\304-B\275\321\214\222\275p\224~=\223\317\271\275\207\300\241\275(g\224\275\363{\235\274l<g\276\374\257\210;\373\004\036\276\334G\003\274_}\000\275w\311\211\274\231\326\221\275M*\237\274\244\315\017\276&\307\353\275\311\303\227\275\314\217\310;IY^:\240\301k\275\265A>\275\013\262\324\275\366\314\255\274\214\261\353\275\261 \236\274uB\211\275\342\207\273<R7\201<Xy\375\275J \274=\031\364u\275\2305z\275t-F\275M\263Z=\263\000\216\275\216\307\241\2746Z\007\2769\212\325\275\275\221\313\274\335\366\375\272\272\273\030<P\177\037\275\370\036d\275\267\227\343\275\032\357\004\276\250\232\371\275\225q\340\275\345\025\237\271\223\311\313\275$\234\363=\202\205\r<\024\020g\273\265\026\251\275\255\317Q\274\232\247\003\276ex\300\275\020\262K\274d\325\001\276u\363\344\275\025!K\275\205.\232\275\356g \275\227jA\273m^q\275\244>\320\275N;)\276\377\367\341\275\301B\267\275\320\344\360\275\254Y><w\305\247\274\213>\243\275\211\037\230>\331=\000\2750\036G\275\020m\277\275\300\333p\274O&\347\275\227&\314\275\241$\220\274\210\372\330\275\225b/\276\326\031\276\275\335\231K>\333\274\010\276=\225\007\276\242\252\345\275}\240\215<\254\224\332\275\266\351C\273\033\251\271\275\275\230\373\275\205=\254\275+\200\233=\226\036*<\013\017\314\2755\211\010\276\020\274\025\275\317\344\341\275\317\220\216\273}\351\335\275\213\0347\275l{\217\275\331?\202\275\354\273\260\276D\007\330\275h5;\274\371t\205\275\237A9\275z\234\366\275?\375e\274\323\251\370\275?\257$:\355T\004\276$3\356\275\350\224\305\275\357\265\267\274\032,\341\275\212\017\363\274_\r\303\275kc\022\276n\332\320\275\r.o\275M2\003\276\361\367\242;A\035\277\275\364\257(\275\nx\266\275\0323\232\2757!\210\274P\370\021\276\375\231\230\275\372T\307\275\212x\345\275\020\227X=x*\303\275_C\003\275n\036a\273\335|\014\276\006T\374;Lz\000\276\236p\335\275\311+\255\275\2103|;F5\313\275iT~=ZT\374\275\207\265R\275\213\225\005\2758E\010\276\254\027\264\275\307\206\277\275-\035\236\275h\312\250\275R\014\253\275\006\005\252; \024\013\276\360\005\036=\335\342\324\274=\312\247\275\276^\354\274\261\225\253\274\242\na\275\326\217\272\274\177<\245\275|\031\332\275t5~<j\007\253\275\021\325\213\276xP\362=\004\027\344\272-|\245<\033\270,\275\212k\225<omn\275\013\3166\275\264\250B<a\210\340=\307\021\223\2756h\247\276\204q\354\275v\312\360\275\375\022\"\275\355\365\324;\005\375\214\274\227\236\253<\377h\310\275\221\203\236<c\'c\275\267\305>=\366\367\232\275\203\314\t\276u8\013\276\266>\t\275\035\264q\275\204\235\004\275x\344\333\275\005O\277;\262EU=\331\263\271\274\365\034\007=\244\307\347\274\364\304\220\275pl\257<\2317\373\274#=W\275\237\304\243\275i\021\273\275\312x1\275\274e\337\273\356q\223<\264\307\307\275\371\272\257\274X\226\331\272{\226\303\275O\323\000\275\031\007\217<x\032\001\276\014\333\236<\361\022\003\276[\342I\274U\000\261=;>\177\275)O\226\276\352B\r\276\200\223\375\275\013\344a\275\004j\361\274h\337\261\275\202Q\365\275\332\312\210\276\000\324\t\276g\326\342\274\030\016\006<\325L\002\276\233+\345\275\242\225[\274\330\262\237\274W\270\"\275\257H\332\275\342d\010\276\010\3260=y|\367\273\213\273i>g\300\272\275\342*\313\275\324\265\250\274\344\323d\274\006\355\344;\233\212\351\275\376W\230\275(\027\247\275\272N\005\276\214\261I<\033\224\021\276\016\327\334\275X\005\335\275@\r\007?&\224\267\275N`\357\275\364\325\014\276\264\253\230\275\335Q3=\177\216\215\2751\006n=\222\242i\274pRc\274\327\276\n\276\t\357\341\275\224E\267\275\312S\005\276\255\332\267:4\326\353\275\250\270\007=\245\335\356\275l\316\213>\022M\232\275\212A\300\275\205\315X\2755b~\275\323\356\201\275D\225\302\275\366\031\264\275\036\341\014\276uw\347\275\014\361\030>\371\352\370\2742\330\n\276\030\013r;<\344\262\275\006\277\210\275=\330<\275F\347\r\276\322\021\326\275\'\326\002=\016\312B\274\224\335\204\276 \001\237\275\256l\003\275\357~\204\275\324\217\303\275\230-\004\276\210\021\322\274\303\311\237\275T\364\207\275\014\276\r\274\264\250\362\275h\334*=\345x\254\275\221\017\020\276=\023\310\275\304\215\360\275*\371\'\274 \337\350\275\363}\227\275K\314\222\275`\023\213\275W\211k\275\256\017\205<.7\301\274@\317E\275cX\310>\023\020\234\274\245\r5\273HD\312\275\005\316\352\275r\326\323\275\331\346\346\274!l\224>$\037\216<\245_e\275\343a\346\274\272\014\004\276\257\367\003\276H\202\370\275\370\235\261\275\201\344u\275\335QX>\225\\\"\274\343\267L\274\220\217\221\275\275*\302\274j\276{\273\204\205\005\276\362e\020<\\n\315\274\220\233q\275\014\341\370\275L\317\330\275~\261\001>\213\311\262\274>7\374\275\365*!<B\242\301\274\275\310\346\275\025\325V\275:t\242\2742\213B<\031\3579\276g\230\335\275\320\333\031\276\253\204\022=$\"\267\275k|\014\276c\230V<\0251d\275p\032p\274\021o\374\275}\364\006\276\0164\034<\265\006)<\312n0\276\301\205\310\275\325\277\024\2755gM\275\255\342\346\275\323\375\337\274\222>d\275\3348\301\275\200\334\214<\356[\007\276\037\336\204\274\335\340\337;\202I\233\275L \235\275Rs\324\273\350\336\261\274e\304\361\275\004\326\342\275\324\023\'\275\372\340\240\274M\357\274\272`\271\316<\253\241\243\275HD\310\275\\\256\274\275\262\021\277\275\331\267\000\276hM\330\275El\017\275)\003\271<\270tG\274\006\313_\275\210\013\303>edv<\210\026\323\275*\205\343\275\253\314b\275\212g\261\275*\013\231\275vI\255\275\247\033\315\275u5Z<\323e\300\276\027\033\264\274\006\271\213\275\324\211X\275\245\023\022=\237\245\377\275\231e\275<a\364\326\274\336\217\222\274\001\262~\276\034\275\233\275\375\335\013\276\212\202\367;\001}\354\272\034H\027\275#B\017\276g\273<\271,R\313\275\027\256N<\371o/\275\037w\022\275\316\251\326\274uD+\277%\227\315\275\247$\345\275Uw;\275\264\216\267\2753cm\275E+\013\276+C\377\275\344\'\313\273`\343\324\273\367\374\322\273\003g\314\275\332c\200\2756\261\354\275\254\226h\275\017\337\256\275b\325\201\274\301\260\r\276\007\211\234\275O\210<\275\256\327\374\2740\203\225\275{\304\256<N\203;\274Z8\316\275\307\347\001\2762C\207\275i$\277\275x\335\326\275\217\355\264\275$\301N\274W\013\005\275[\027|=\033\035\240\275\343\247E\275\273T\017\276\202o\007\276\245\257\325\274\364MR\275\253-\021\276\327\310\365\275%\202\316\275\211\t\207\274j\006\376\275\035\002\306\275g\254\002\276\222\327\237\276\323\244\t\275\257\346\006\276\272\013\200\275\177a\270\275\002\247]\275z\036Y<\303\035V>\356\276\321<\317L\333\275!?4\275\210\226\021\272\004\220\221\2756\177\342\275\035.\221\275\326\317\266\275\353\264\212=\0016\345\275N\212!\274{\026\013\276\301\253\351\275`4\245\275:\251\375\274\241|\266\275[s\034\274\305$\332\273\n \n\276\025\373\213\275f\"\275=)h\351\275\243N\216\274\211,u<\367\371\305\274\364\3202\274\336\340\020\275\t\203\376\2751\261\201<\006\322\255\275\323NH\275\3005\315<\245\305\377=^\303\261\275\265V\234;n\354\365\275\350X!;\242\234\230\275\271\364=\275\017\250\216\2745\324\347\274^\211j<x\022\217<n\342\t\276#*\003\2768LS;9\344\r\276V\226u\273\233\202\266\275D\241J\275\211,z<K\221\007\276e\337\304=\254n\227\275t\244\320\2754J\315\275:\'\326<\276\274\216\274\344e\265\275\026\275O\275\270n\376\275%\002\261\273\000_ \275\251\233\267=\213\271\342=\004\353\201\275\305\325\006\276\261w\345\275\375se\273\343\310\230<\314J0\275G\240\311\275\234\241\262<w\351\'\275\001<\331\27557\017\276j\236\031\273\214\276\323\274s\037\332\275m^Z<\373~5\275v\350\033\275i\014\002\276\371\031\264\272\324\221\310=@#O\274\340\370\255;V\315\320\275\212\365\370<\246\305\204\275m\255\225\275j\363\016\276*\353\311\274\243\214\200<;\235 \275\r\217K=\327\035\260=\036\304s\275=&\354\275\342\022\000\274\340\\\251<\262U\347;?H\350\275\327\214\006\275D)a=\244;\357\275\026\256\226<\024\356\311\275\316\036D\275\r\246{\275Ou\300\275\233\270\306\275ak\346\275\006\234#\275&d\264\275\337L\305\275\330iK=\354\362C\275\205\211\016\276gL\260\275.\336\016\275\"\257\345\275\023+\272\274T\312\205\273\240\264\271<~\032\205=\321\247\000\276>\277\237=*z\252<\006\020\236\274\366~Y\275?\324\013\276\370Y\257\273q,\003\276\314\277\014\276\262\001\370\275{\234\2049\252\231\363\275\033\364\022\273\273\203Q\274k\025~<\3715\325\275v:Q\275T\235U\275\344XE<\230\026\006\2768\243\257\275:Q+\275\202\273\331=\350\203\033\275x\000}\275\313\337\363\275\232Q\025\274\360\252\312\273]\301\226\274C\024\247\273#yj\275LkI;\313\034\236\275\344\247/<\357w\357=\211\r\273\275.\016\230\275\2150r\275w\277\220\275S\271\323\275\366\250\320\275u\270\320\275\337^7;d\373l\275\252\313\340\275\315,\241<\002\210\016\276\312i\223<\250\277>\275\332\001\\\273\334\212\351\275\304\307\363\275\303\334\005\276X<\340\275\341>g=\255\356\216\274E\246\304\274\344=\026\275y\311+=\273Ea<9\315\002\276\275\220^\274\242\377\346\275=\031\261<MP\235<\177\030\243=.\237\344=\001u\214\275\361\263\005<\254\220u\275\276$\203\275%\004\003\276|\035\311\275\212\032\014\276\005\370k=kB\374\275zFh;\274\250a\275\320\362\357\27594s\274\016\371\022\2752K\233\274C\251\376\274\233\367\225\275\2767E\274\330\211\326\275\005\035\305=\266V\010\275\277e\327:\225.S\275t)\357<\247\024\335\275kx\231\275N\027\007\276\353\001A\275H$\240\275\265/\006;\224\025\035>\327\235\267\275H8\2309E\013\210\275@\337s\275e\210\000\276\346\003\010\274\245wr\274\002t\207<\343\333\276\274\316\351\322\275\365\303\220><\267k\274\300u\010\275\356[\270\275\217!\251\275\n\020\003\276\356\023M\275\302\273\002\276\3416\203\275\326\263\204\275EX\004>\357P\325\275;\261\320\275\006\010\212\275*\227,\275\214\245\t=\305\256\242\275\267\264\236<\326U\022\275\313O\023\275V\307\346\274I\356\335=!\024\204=\003\254\005\276\036\332\337\275o\230\306\272\031\261@\275\037\322\225\274H\272\322\274\017\241\342\275}\313\334\271\232\351\245\274\202\031\236\274\t\347\t\2763\244J\275\205\232\223\274\273\272\355\274\273\300\217\275\323\311M\2743\236\345\274&|\364\275/0\371\274t\240\362;\235\2245<\313d~\275\276\307\215\275N4\310\276\355N\333\275v\377k\275\257\014\262\275}\314\014\275\324\0034\276+-\232\275\014\330\024\277\331aT<\236x\355\275t\307g;D\303><\376\257Z\275\304\351\273\275\363\324\277\272\202\357\273\275\n\361\'\276\016\210\340\275\365\265+\277\023q\035\2750<\350\275\025\014\207\275Z\020\260\275\"z\307\275r\205\370\272\212\337\t\276 Y\365\275\300\261\373\275\366\0266\275\311\177\241\275\223\244\025\275\264i\225<6g\207\275\001\\\342\275\236\365\r\276 \300\301\2750\023\240\275\343}\034=\001\002\221\273\031\355t\275J\263\364=l\362\366\275o\023\360\2751:\026<\257\023R\275\334\265\236\275\2510\013\276S\217\360\275\322\320\372\274\264 \362\274\307\320\240<D\310M\274\224R\226<\266\336\001\276\200\203\373\275\206\274\304\275i\026\033\275\311\217\226\275\313B\\\274E\264\360\275\311y_<\340\263\363\275\312P\024\276\342-S<+Mk\276.\324\020\2769\214\202\275\335=2\275p`\247\275\353\211E\275\374:\367\275\001)x\275O*\034=K\272\236\2743\013\253\275iBe\2746O\271\275\362L\204<vd\025\274E\3104\275\336qI\275\327j\365\274\334\032\n\276(e\327;\317\000\266\275\324\315\213\275\251{\304\275\002\307\321\275\302\267\023\274\351\t\335\275\254\372\205<\317\356\232\275\353\213+\275\307\260\271\273\377\271\006\276\315\337\200\274\377\245\305<:o\020\276,p\r\276t\036\005\276\271\240\346\274oA\274\276N\236\224\275\020\324b>~\202B=a{\256\275\324L\001\276\036&\263\275\331(\345\273y#O\275\r\320q\273\212|9\274@\260\220=\323\210q\275\343\263N>a\036@\275\236@[\275\240\361\207\275\260\025\177:\274\027\376\275\326xI\275g\267\375;\275\314\010:\323\252Q\275\034Z\020\275U+\026;\003\227\307\275*G[\275\237\373\341=\344\341\261\274)\246\260\274\267\226\020\276F\353\364\275\257\276\345<ep\237\275\275\264\004>\215\\\267\274\r{\325\2754,\031<\217\222\253\275\020H\016\276\250[\240\275\266\366\343\275\201\271k\275\277\001\320=\203OE\275\314\344\310>8m\203<\264F:\275U\252\013\274\325\006Q;\204T\271\275\275K\331\275\020\226\323\275hL0\274`-+\275b\2220>RV\265\275`\250\340\275$\203)\275\356\246\221=\213\226\343\2750\205\255\274\334df\275\213\251\353\275l\014W=Hc\"\275\365\250\232\276\"5\335\273\374\024)\275\017\314\376\273fr\222\275\007y\243\275i\001\212\275\360;V\275j\301\341\274\203\227\205=F\316\324\273(\202\026\276ys\001\276d\250\341\273\210\313\217\275\370\025 \273\265xG\275\250\323\221\275\026\033b\275q\305\371\274\201\331\233\2758\316\345\274\241_\321\275W%\330\275P^Y;\211\225\020\275\275\264\254<\'\201\245<\221\337\003\276g\212\333\275\360\310\224;W\317\307\275\201\321\317\274c\247\005\275\033\201\210\275\203m\231\275gX\r\276tv\002\275U\007\211\275\341e\277\275\313\313\277\2755b\226\274\254\005\335\275\r\264G\275\0330\033\275\336\376&\275\020\241\257\274\263a \275M\336O<\251\025A\275\302\264\037\275\357s\013\276\272\231\356\275\020:\000\275P\307\201\274\3073\231;\230m\225<\313\021\025=\255\'\235\275\320s\017\275C8P<8\226\233\275e\373\270;\\\027\240\274\022\271\366\275cF\270<\230f\202\275\216\007\350\275v9)\275\020\037\261\275\343\255t\275\002\035\207\275b\326\026<s\027K;!0F\275/\260\206\275\265\257=\275\235\365E\275`-\252\273\025\227D:\375\221\350\275\3676\227\275\211\373\245\275\013P\262<\022p\001\276&\240\322\274\350m\016\275\221s\252\275<\002\242\275O,\006=D\210\240\2759\320\210\275q\376\000<\030W\017\276\254\215\351\274_\372\004\275\313\273\257=\336\205\003\275\230\254\346\275TQ<\275\361\016\231\275\2367\006\275\377\270\315\274\267oD\275\340R:\275\322\036\014\275|\2326\275\007\247N\275\257\261\014\276)\376S\275\021\357\022\275\247\207\030\275\0049\010\276\353\273\314\275\374D\376\275\rl\024\27514\311\275\330\204\367<\243L\262<\216]\231\275\324c\351\274QEA<\341\265\037;<R\251<\"\251\304\274_3\375\274{\372\013\276#\017\202\275\245\033O=\014\007\206=\277\"\237\275}\017\265\275\267[\027;\241\235\014\275\346\000\347\273\307\272R\273\002\316\210\275\257\257\332<\356\201\305\275\013\356\013=\034\357\340;\317\275\300\275Q\177\230\274\230\014k\275\200\2372<E>\037<\202\322r\275\013\326m\275+\023\260\275m\305\355<x\326\202\275\225\324\346\275\3453+\271t\322\325>\0315v\276\364`\357\275\271\"\313\275`\236\236\275\234\313|\275\021\323\363\275\357\205\030\274hg\232\276\353\034\363;(\362\345\275\336\333\231\274\027 V\274\010\317V\274\375\265\301;\305\256\232\275?C\003\277\003\316\220\275b&\215=\340L\022\276\327\230 \276\035\261\006\276P\215\300\275\222Li\275Fh\032\275\014\036,\276c\353\360\275\227]\007\2751D\217\276\333F\212\275\356f\345\273\302\374\357\275\303\355\203\274J\037\305;Fa\323\275?\326\250:}\301-\275N\235\257\273\262{\237<\212[\005= \324N=\346\026\310\274v\024\004\274\313EB\274\236\335\023\275>@\254\275\346X\2069\'e\231\272\305\240\315=\344\300\320;3\\{=2\276e\275@\357\r\275\036!%<\331\352K\274:l\016\276T\236\364\274\362 \225;\321\005\367\273\002L\300\274\255I!=\240\236\365\275\352=\004\276\201\333\000\276<\tC\276\327\257\006\275P\217\031\276s\376\307\275N\227\n\276\345\350\315\273\310\321\215;y\343`\274\3548H\275$\003a\275@\342\225\275\353-\224;\221\260\321\274!\337\302\275\330!\034\276\267D\211\275\347L\344\275#k\315\275O\353\021\276Sd\001\276\263\203\356\275\272\211\342\275\023pL\275\225\\#<\032>:<]\300\031\2764\301\202\275\365\231\013\276\236\346\'\276\004\225\341\275\331g\325\275\221\3444\274\347Hb\277\007r<\276\345\227\232\275\031\335\017\276\'\255\001\275\3262\265\276K\303 \275\203G\201\275\341\274\215\276P(\363\275\230\233^\274\307U[\275\330\256\273\275M\234\355\275\300\332u\275\213\276\261<w\312-<\236]\255\275\306/\234\275\344\364\004\276V_\230\275%\304\310\275\350|\217\275\033\252\177\275\276\336\350\275I\217s\275\013w\373\275\235Ej<\275\223J\277\237qi<\2152)<\2706\260\274H\220\333=l\242\362\275L\333\356\274\255\270\005\276C\207\002\276\205*\013\275\3305\341\275(-\014\274\305\372\343\275\242\222\n\276\225_\376\275>\265V<j\270U\275m\270e\275\250T\237\275\t\3651\275z$\210\275\305dD\275!\301*\275R\264\241<i\217v\275 U\020\276\027l\000\276\370\255\000\276w\021\000;S\037\232\274\236\231\352\275\266\030H\275\236\016y\275y\326M\275~\336W\275\341\357\345\275\241|\311\276\272,\361\275t\332\362\275\\w\017\274\335+\250\275\245.\003\276u\274X\275\301\r\311>\226\322\356\275W\341\010\274\337\232\251\275Y\202\252\275\351 \274\275\244y7\274/\"\352\275-\020\313\275\301\363\225\276\312\036\336\274\223\353U=L\311w\275\265\215\223\275r\232\360\275\335\315#\275\2510\235\275\031\361\017\2766\362\231\275\337\177\345;e\241\233\275+\251\363<\317\0207\274\332\037\013\276\264n\013\275\303\341\033=\301&\357\275\337\233\244;\250%\335\271\271m\361\275\214\370\025\275B\271\232\2747\357\215<\246\235\325=\347\243\250\275\332M\211<\261V\374\275\245t+\275\346\357\364\274\330\347\267\274\240Z\303\275\345mO\275\342\335\013\275\254\231[=\312\364\273\275q\376O\275\232 \267\275\005`\322\274\331yw\275\226\317\350\275\314}\307\275A ]\275\030\036\013\276r\376\002=AT\203<H\347\247\275\"\213\237\2759\361C=\037\227L\275\346{|\275\300o\216\27120~\274\215\202-\275p[\230\275<M\010=\177\355\324;.\251H\275 \204\001\276\201C\277\273;\364-\275\272%P\274b\034\036\274pM\236\275\216I\273=$:\177\2753\227`\275\002\267\351\275\236K\340\275\2711\035\2758\224}<\3627\332\275\307\372\225\275Zj\347\275\252\242\200\275\237Lw<\036\361F=F\2107\274\021t\233\275S8\215\275B\334s=?\024%<\263\240Z;]E\243\274\026\013\026\275P\216\272;\326n\226\275(\255\301=\nI\251=\273U\234\273\023\341y\275\260.M\275\016\325\244\274\'\363f\275\217\347\000\275\356hb\275J\261\330=Kg\010\276\335\334\365\275\003\310\364\274\332\267\375\274Y\353\355:\0079\353\275\24078\275nb\215\275\350\020\016\276\\\365\321\275\351c3\274\3645\'\275\367{\310\2758\263\007\276\224/\014\276\365-\340\275\215[J=\266\277\326\275\233\265\275<\340\363\026\275\270\243\216\275\200D\371\274l?\203\276.\1776=\306\336\304\275;\330\271\275\355\222@\274\252\274\256\275\375Rw\274\372\3100\274\037\221\251\275P`J\275\352\313\265\275\200\324\332\276t\252\017\276\302\r\022\274\241\354\253\275\271\363}\274s\327\352\274\350\275\306\274\266\374\275\274So\215\273o\r\323\275\005P\223\274\234\237\263<66\226\275[\231\202\275\000\231):\362\013\220\275\201\220\314\275\032\r\021\276XX\022\2769_\222=J\306\022\275\210\261\226=p\035F\275\201\253\201\273\\\257\211<`u\336\275\337\031\013\276\370\022\177\275fu\330\275\345M\006\276I\037\032\275\363\254\276\274\200\234r>\302\263\264\275\'\303g\271\316_\213\275\n\317\372\275X\252\306\275d \322\273\325\372\224\275\241\t]\275D\233\307\274n\252\016=\372;\007\276nz\027\275\0053\216<n\211\332\274\205\311\370\273\236\267O\275\271\250\214\275\2269\020\276\233_\017\275\346\235\021\276\331`c\274\230L\325=~\\\233\274\375\335\007\275\010<H\275B2\251\275N\200\r\276\007\261\317\2742X\235\275a\013\205=\227\265\321\275\374\204\230<\223\'\006\276m\013f<\235\205\330\275\207\364\277\275\227\360\030\2750p*;^\010\367\272\204\323w\275\332\221\026\275\237\270\325=\3623\003\276B\230\234\2750_\010\276\177\\\306\275I\264\241\275;P\354\275)\\,\2750\343\017\276\027\344\212\2764\332f\275s\253\031\275\336\354\275<\204c\251\275\003\351\017<\255\366\200\275S\314\203\275V\234\022\276\2218\244\275\"\324\201\275\207\207\236\274\022\344\240\275I\270\220=\315\n`<\355L\200\2755\247\016\276\220\210M\2758\301\032<\240\210\006\276\001\261\017\276J\205w\275O\314\343\275\007\003\320<eQ\223\275\203\";\275\327\035\302\275{\256o\277\251\233!\275\260\266\345\275\323\235\327\275\320D\274\275\211\315\323=\034<\306\274M\026\006\276\324,\350<Bm\000\276l3\020\276-\314\354;\r\354\021\276\205x\022\276\255e\321\2753OH\2743\036D=\265*#\275\276\256m>\177\340\013\276\275\327\215\274)Y\360\275\266l\350\274C\337/\275\356b\001\276\t~d\273)\245\346\275g\253\311\275\374\007s\275\337?\324\275\357\217\252\274\273\356w<\217x!<O\220\335\2754\035D\275\2519\240<\304}\270\275x.M=\365$\266\274\307h\223=\256\245@\274U\324H\275\262\006\266\273\351\337\240\275g\237\210<\220\3426\274\362\305Y\275E\271\230\272\264\237\315=>\213\363\275&c\003>C\026\241\275\'\335\006\275\300:\002\276\213\341\244\2755\240\236<\2131\016\276\000\314\270<u\344\304\275\305\273@\275\313\355\331<9t\332\274\366\274n\275_\\\215\275\324\246\271;\357\365\010\275Mo\001\274\002\324j<\233\262\267\275\215R\325;\nO\242\275\373k~\276uq\276\273e\000\301\274\2179\206<\245\316t\275&\205\270\275\343V\253;\027;\257\275I\220\270\275\376\374q\272&\326K<\025\375\333\276\335pM\274\327\374\367\275h{\000\276\022m\257\275\\U\327\275n\354<\275\233K\323\275\257M\t\276\263\343\240;\333`\020\275\273Y\376\275\010\200{\275\340Z\n\273\345\330\272=OO?<\222\300!\275F\026\003\276H\261\014\276Y\267\037=\212J\004\276=\006=\275T\206\312\274%\332R\274\230o[\275\317\303\251\275M\265\270<n\377\340\275C,\027\275\252\002\333;\232\272\"=\361\003\000\276\264\370:=\315\304\233\275\351S\217\275\r\327\344\275\374\342K\275\333+)\274\251\354\235\275\320!\350\275\236x\310\274\335\326\275\273`\323\235=\244\257\354\274\260\227\375\275\213\231\336\273S\037\032>\354\303\"<+\022\311\275\201\271\240\273\003\206U\274J\262\202\274\246\352\000\275\345\177,>\354=\234\275o\255\366\275X\177\301\275\300\327\324\275R\305\212<+>\001\276\3314\322\274\376\324\314;\030\207Q=\222\363\254\275\037=\254\274\215\303\350\275w`\365\2752\007\213\274_\333\"\275\224\270\022\276\203e\376\275C\341\331\275D\261\374\275\003f\376\275+\206v<\254\304A\275\327\025\207\275\t\001W\275v\337\254\276\272\236b\273\307h}\274\177\244l:\036\243\032\275\nW\002\276K\210\206\275\007\327K\276\010J\362=\343\032Q<\206\361><g\247\020\276\013\371\207\275\312MP:\317z\251\275\330`y;:\210L=\002\244\345\273*~\211\277\245\343\305\275\330b\357\274\236s\254\275\001\221\210\274\322Bc\275\n:J\273\231\210;<\367\215\300\275\0053\320\275WAP=L\366W\273\306\274\006\275d\317\020<\363fw\275\207t\333:\003\261\014\276\247\254H\275\267 L\275(P\231\275\003B\3118\375\246\261=^\210\340\274\275\300\337\275\026\265\211\275\0137\376\274sd\356\275\224\230\206<#\035\322\275\0037)\275\246\263\300\274\312\345@\274\273\366\237<\036\241\021\276f;\346\275\311\211\027;\321\354R\273\374\222,<3z\364\275\274\007\375\275\214\324}\274!\201J\2706dU=\315\361\021\276\217h\335\272\232\313-\274\007\315C=q\0204=\272\271`<\262\352P\275\230\227\371\274\253\237\213\276\010\002\215\274E\214\n\275\320\260\210=\316\327\203\273\016\r\372\275N\333\000\274\204h\250\275\320\360\306\275\305\354\253\275\260S\013\275\231\024H\274\321B|\275\261)\252=\301\323\325\275\303\007\362\275\000\224M\275\357T\205\275\226\323\236<\207\033\264\274\205\303\272\275$\225\306\275\370$\203\274\346\316o=\232\265\303\275|NJ\276\r\311\362\275\204\315g\277\021c\330\274}\rF\276x\350\002\276v\2631\276(\275_\276\265\'\022\276\355Q\321\274x/\321\275\245\276E\274\025A3\276\0332\007\276\300\314\027\276\213\353\037\276\007\r\026\275\362q\"\276R\303\020\277J\347\237\274B\230\002>\363vX\275\n\374\233\276M\023\357\275<_\262\274\233\243$\275Ql\347\275\303\330\\\276\254G\311\275nvh\275\351l\031\276!k\222\270!\374&\275Pc\222\275\226?+<\246a\t\276;l\374\275L:{\275\3705\330\274\002d\254>\306\346\032<\260z\342\275\233\361\201\275\'\265\202\275\265\236\006\275\210\341\276\275`\334\036\275\241\361S<_\014\253;\310\330\337:\223\244\317\274\235\303\366\275\351\023\201\276\006\014\341\275\264A\346\275\322ky\275+\343\340\275;\341\203\275\021\256\033\275\035&\363;\023\272\213\275\267\356\376\275\331\024\377\274\273\320\244<-eq\275\376t\357\275\006y\\\275~\335\024=n)\003\276\225\350>\275\233j|\274-\327\337\274\327\302B\275\232Mt\276ce\220=4\357a\274=$\014\276\020\031\230;\335\274\005\276\0205\n\276Xc1\275F?\203\275\177C\257;\357\222\371\275,\217\315\275\307?\261\275\306\350\321\273\313\001\255\275\231\202\227\274\211\335\002\275\034x\266\275z\340\233\275\207K\227\275\351\214\271<-/\317=\364\322\337\274\363\256\036\274\004_\322;\347\3219=\0227\360\275}\321\341\275E@\332\275\362K\031\274(\303\247=\321\240\016\276=\005\340=b\'\031=?\224N\273\336\n\277\275\004K\204\275\223\243\372\275n\260|\275z^\230;L\264\025\273\254a\013=MHH\274Y\3762\275Z\336\364\274\357\374\256\275U\253\347\274t \"<9\342W\274j_\245\275(9\347\275\036\232\023\274\365b\312\275S\206\257=\335eP\274\214\'\006\276\037\314\004<|\203\022=\005-\360\274\277\327\335\275(J\344\275\350\307\005\276\202C\235=\320\226q\275\375X\326\272j\335X=.\033\243\274\276T\037\275\327/\372\275e;\007\276n\312\303\275\274\346,\275\305\0173<E=\226<\363A\255\275\037v\367\274\203\344\t\276\256\377h\275\314|2\275\323\357\304\275\354}\002\275\334\253\374\2734^\000\276[\261\006\276\367 \014\276!\341\365=\3637\276\275\354y\210\275I\221\314\275UP\215>\357\366\233<\214\222\000\2758\224\017\276\300\014\\\274\014\273\307\275\272p\256\274#K\245\275(\366\336\275\264\220\006\276\242uo\275\276\223\006\276\221\201\264\275(<\n\2763\0332\274J\000><\017\016\262\275\245\240\234\275\263\367\037\276\311\352\002\275\243o$\275\344\233k<\023\252Z\275`\3722\275}J\260\2759\330\203\275\005\332M\275\346\356\320\275\320\010\210= \r\310\275X\177(\274\250\213\231\274]\310Z=\344\213\230\275\025)a\273\007\276\001\275\306\002\356\275\310\026\007\275\261n\006\274\275p\241\275\216%\205=~Qw<3\230$\275\350=x\275\232q\337\275ir\302\275A\266\327\275g_\374\275\301\017\245=hjH\275\215\300\363\274VW\243\275wTB<S\035\366\275\001\337f<\202\244w;\016\323\r\276I\250\t\276\'?x\275\206,\3279vJ\364=\355\345\245<f\225\371\275\224\234I\275\r\t\211=\032Pp<\362\'\351\275\327#\001\276\261\243Z<MW\270<4{4\274\335.\252=\225\332\271\274u\256\343\272<\r\302\275I\201\001\275l=\304\275\\\256*\275\377\376\324\275{\227\221\275Fo\336=\022\"\240\275\360\244\305\274\216n(\275.\030\032\275\361\373\037\275\340r\353;>\036\027\275;\252\217\275O\255\327\275\255\361\357\275&O\323\274\205R\226<P\"\341\271\326\375t\275at\251\275A\020\343\276X\n\335;W\341)\275-\rw\274`W\254\275\210\323!\276\242M\352:\337VI\276<\034\t\275t\355\302\274\246\356\003\276\260W\272\2753\261\305\275\251\211\304\275\340\242y\275~\2334\275\034$\227\2750\356\341\273\335\034s\277\030\227\023\275\342\020\275;\026\371?\275\247\021\013\276\025\353B\274Hw:\275\225\252\216\274\217\353\343\274wj\210\275\353\267\272\275\375\317|\275\202\"\301\275F\265\014\2768l/\274Lt\316\2741\376\223\275\217\264\014\274\257\255\346\275Z\037\207\276\346\\\245<\206\301(\276\314\341t=\357\337\234;\236\362q\275\303\003\370\274\206P\204\275$*\212\274\351\3631<\253\266\236\275\230\2662\275\007\301\271\275=\255\033=\031\331\322\275\330\340+<\263M\336\275\244\367\215\275\237 \323\275v*\370\275m\207\206\275\021\033\202<\316\014\n\276}\234\247\274z\345u\274Q\313\236\275\342\247m\274\331<A\275v\260\230\274\257<\226\275\027]\223\275j\354\235\275\363s\254=\364\354\364\274\211\014O\275\350$\215=\005\337\317\275O\031+<\347\205`<\tI\331\275\225\271\374\275\232\333\014\276\274]\265\2749> <E\264\035\275+\365\000\275\262\210\363;\363\224\326\275\363;\204<a\301\022\276\250\357\000\276\301\010V\275\306\343\323\275k\227N\275\200\262\027\275\212{\253=\3505\254\275\373\303+<\007\004r\275)\336\346=K\004\016\275{\325\245\275\222\250\355\275\0265\231\275!Se\275_\334^\275\027\257\375>|H\005=\265\242\323\275\006n\256\275\345U\261\274\262V\263<\351\213\333\275\235\253\000\275\215\t\226\274\334Xm\275\336I\343\2758\250%?z\346\235\275\261\221\261\275\317\226\014\276\265\323\231\275L\263\022\276\235\264R\274e\027\342\275\345\025O\275Z\304J\274KL\027>\372\221\203\275M\235\003\275?\245\244\275tZ\320\275=\376\261\275\311\372C\275(\360\210\275\365\314d\274X$\307\274b x<\354v\004?\006\373\353<\262\275\010\276#\242j\275\227Qo\275\266\022\021\276\272V\r\276\207\360\243\275\351C\014\276\206\033\257=\330$\212\275\320\372\211\272E\355W\274+\300\336\275\265\256\214\275R8\017\276\225_\013\276\256\313\305\274\256\341\266\274\223\2123\2755,\262:\272HW=9Y\205\275\334,\010\276\363\3201\275L\031\0169\261\321\325\271+\305\363\2744#\370\275S\337u\271\355\035\204=\320\225 \275\225\031j=\263v^\275\316\267\340\275c\355\326\275V\376n\274!\353!\275\220\225\322\2751\276\344\275\304\030x\274\362h\213\275\204\323\214\274\210k\236\275\025q8\275\"\033m\275c\364\257\273 *\257\275lie\275\260\003\223\274\272=3\275\311\263\347\274JV\334\275u\364\251=g\000\213\275*\037\223\275 Yi\273\230J\006=\313V\333\275\033\344\345\274\225\201\363\275\245\245&\274\313\nv\274\311tU\275\364q\251\276\031\245\307;!*\314\272\206\245.\274\241\374\367\275\013\343\217\275QO\330\275\0235M\275?\242Z\273\rQ|=@`3\275\254\246\322\276\355\245\363\274\010H\365\273\tT\253\274\006\246\220\275\220\215k<K<\361\275]\224\203\274\320\207\224\275\336\233\213<I\302\211=u=\253\275C\221<\275-j\241\275\026y0\2733\201\254\275\337\354\307\272\275q\021\276}\241\021\274\026\264\351\274\020\371\301\274II\016=}\355\203\273\355p9\275_\301\302\274\t\366\223\275\234\302\006\276 \244\n\276\245r\312;\276\330\237<g\347\215\274\376\020\033\275<\372\270\275~\224\016\276\234~\204\275\367,\001\276)\014\006\275\357A\r\276\213N\021;#z\237\275\240\330\266\275\277}\022\276\234\032R=\254\235\244\274v\300P\274\267zi\275\245\327\377\274\240\344-\273\r,\333\275\014{6<\2015\256\275\"\345\006>\374[\004\275\331\030\006>\357\301\312\275Z{\022\276\262`\266\275l\365\341\275F\n\022\276\216\351\342\275\353\210\364\273y\370\373\275\242\355\t<\376Ef<\346\372\367\274a6<\275\267X\"\276\235\372\016\275\310\307\200\2759\300\002\276\252v5\275C.\206\274k\324\314\275@q_\275\322\276\362\274\032\262\341\275\236\274\002;\331\367\341\275\326\017o\276\356\360\356\275\032\314\027<\300\3147\275\327F\270\275\301#\024\273\2506v\275%\276\365\275\241K\237\275\352\250)\275[P\306\275\003d\004\275\236,]\274\274z\002\276n\t\226<o\264\343\273\217p\207\275(\003\254:\ts,\276\371C\231\275\3073\265<\375\345\317\275\336\372\271\275v\304f\273\211<T\275+C\307\274\274\t\304\275\323W\n\276\023l\230\275\245\010\314\274\224\013\336\275\336Y\232\275\017\303K\276\204\002/<\"\220\240\274a\253\315\275\010\275\321\275\305V\245\274\001\343L\275\343K\201\2761&\031=\\\"\327\275b[\224<\362Ed\275*\231\231\275E\300y\275\214\236\013\276\302P\003\276\340\307\274\275\333\373\007\2768%\256;\302T\240\275\356u\355\273\231oI\275\372Q{\275\360\241\365\275\307y+\274}\333g\273\366E\273\275\202t\332\275s\342\332\274s\232\232<\373\t\352\275\267\225\365\274\357\256\274=\307\2230\275\345\227\364\274\221\014)\275\372\320\320\275s=%=i&\267\275\003*}\275}\276\353\274=\'\375\275\302\007\310\275\312\002\010\274$\352\216<\360\037\257;\275\267\233\2756\333\300\275\361N\177\274\343Y\240\275\311\231x>\001\373\207\274{l\206<\275K4\275\021\237=\275.\303\000\276\326\037\003\275Y\035d<\020\034\244\275\245c\007\276\214\200\302\274\300\341J\275\003\354\242\275U\261C\275\307\303\036\275`\265\204\275a\343\247\274=\275<<\270y<\275:\031\206\276\253\306\254\275j\r\202=\232\274\276\274\276B\217<\363o\272<\372\231J\273\343\017\351;\326^^\275\226\262\221\273mE\216\273\305\013\356\274\245\034\034\275H\221-\276\371\020\227\275\017\222\305\275\207\007\222<\234|^\275eF5\275\314\345=\275\303\371\321\274;\033\230\275\021\220\277\273\343V\222=\325\347\216\274\267\005\247\275\026\2015\275\264\300\312\276\330\272\215\275\315\361\347\275\375d\321\274n\367\307\274,\242o\275\305\234\007\276\233\372\201\275\230\203\344\275\362M\021\276|t\215<#\007?\275\240Z\252<\352\276\021\2761b\003\276i#K\275$\317\037\275\253l\032\275\334\204\361\277)\213S<\006\276\320\275\252:\234<\022e\206\275\\\373\017\276\013\"\250\275\216\242\257\275\0271\003\276\375\366\204\275\0038B\276)\355\023\275d\360=\2735J\310\275\345A\270\276\3004\000\276\240\005 \275?\312q\275\256#P\275:\363\264\276;\344\361\275\251\013\306\276e\342#\274\264\335\020\272.\204\350\275\013\257\260\274@\317\007\276\365\000\211\275\014\023\265\273<\312\244<\374&\000\275\245vF\275\353\027\221\275\245E\224\275\207\223c\275\251\t\326\2731G\211\275\340:@\275<\234\035\274\303`\315\275pj\354\275\355\314\253\275\331D\030\273\345\266\213\275\032\342\010\276\325\003\221<7\037\276\274oU\347\275\271\355\347\273\023\221\207<\310\243\220:*=1\274\031\262\251\275g\357\025\273\321U#=\024\303h\275):\271\275i\367\207\275\244\270^\275>jd\275?\177\274<\"\205\261\275\201\277\272\275\007\212\275\275\321\323=\276\016\263K\275\245\3721;\277Q\300\275\002\354\300\275\314_s\274y\256\340\274+e\224\275\261\346\332\274\367\"\313\275X\316\220\275\250F&\273\337\321\220\2757\233\013\275\211\250\204\276L\225\267;\361:\016\276\254\267\217\275\311b\234\275\010\204\375\274h\3436<\006\373\217=\250\2334=2[\002\276\264\004\327\275x\331\267\275)\256\t\276(\343\003\276\336\377\207\275L\310>\275v\342\207=\3544\225\2751+5\276\256\243\016\276\366\205\264\275\017\302\246\275\367&\013\275\215sP\275\205\367\255\275O\200\204\275\303\030\311\275&\001\t\276\334f\203=\316\205\341\275\211J\006\276c\302\t\276\210\0353\274\034\356k9\027\327Q<I\351%\275\331\330\354\273\236[4\276\367\031\246\275\262\302~=\ny\351=\324i\367\275u\357\274\274 }\222\274\325z\216\275\310\302\256\274\355)\373\275\337\'\030\275\203\212E=K\317\347\275HU-=\021\207\256\274\345\244\316\275Y\010\220\275)\325\347\274m\334\212\2748\0360\275\351\367\014\276\305L\233\275.\031\223\275\213\367.\274\337{\255<\021\253\225<d\266 <6\314\271<J\275\332\275\2056X\275W\326\330\275\223\245\007\276\013\017\177<\r\021\215\275\370\353\314=\'%<=\004\337\236\274j\306\277\275\004\211R<\325\256\022\276\2359\300\275\231\214\265\275\305\251\357\275\332\224f<\350#\365\273!T\276\275\227p\363\275Q2&\274\2228\274\275\275\315\225<\205,\210\275\027\315\315\275\244\214D\274p\214\243\275e\325\322\275\224\377\256=\332Z\243\274\0312\271\275\275/\312\274\377\247}=\306\004\240\274\316W\231\275\023Ql;EA\261\274rL\222=\0306\235\275\314\372@\275`\014F=\305\026\263\274\247\037m\275\311\203\333\2752G\370\274\322)\020\276&\214\302\275\216\356.\274\225j\304=\237-\227\275\017o\005\276\2659\325\274)\002\270\275\220_\355\275\301\t\244\275\266\200K\274c.\026<\220\247\240\275\330A\200\275,e\273\275G\340\364=\261\033,\275\277{\375\275^\021\\\275[\272/<\027\324\302\275V\305\326\275\216\317G\275\245o\301;\350\313m<\212\214\020\276\253\211\004\275\343~\312<\365\020\003\275U\221\234\2754\371\320\274\276\233\216\275\273\304V\275\246\352\231\274\216/\235\275\344@\260\274\n\320\330\275\300\272\226\275\377\036~\275]:\324\275\331J\254\275\033\371\342\274\355\352\327\272\341\035\035\275\016\031X<\017\331\267:\255c\227<\315\254\346=!\255\\\275\311r\225\275\001\256z\275\373_\216\274\227\310\266\275\236)\014\276\243\013\346\274i\346\t<gc~=Q8^<\027\337J=\003b\304=\320\306\254\275\372\216o\275\312\360\244<\253S\200\2745\205\016\275\377I\021\276\265\266n<\252[u;7\335[\273 +\n\275@\022\245<L\250M\275\010\004T\274\314O\217\275\211\314\010\276\300\274T;\362\324\371\275\271\020\377\2751#\246\274vX>\274\033\203f\275\376\217\220;e+\225\275+\331\360;\277c\005=\347nG\275\330\000\242\275A;\261<]\215\354=\326\266\351\275OB&=z\236y\273\242D\310\275\035\'\236\275\364\343\275\274\342\240\240\275\244F\000\276\341\311\263\274\211\264\223\275\220.\274=XG\206\274\207o\310\274N\316\331\275b4\364\274%\266Q\27532\013\276NNk\275\246\332\205\274\230\217\221\275\330\323\021\276\267_\242\274n\224\304=\013H\331\275wI\211\275#m\243\275\207\366\257<\210\211\222\275\0067\366\275P\t\000\276\231\312T\275\231T\020<\372[\334\274s\027\004\275t\210\337\275*\376\000\276\273\353\376\275\024\346\332\273tq\021\276\273\270\001\276\350\322\314\2751\237\266<\266\266\246=\266S1\275\273\200[>\2415\246\275gm\205\275\207\226\t\276\210\026\226\275z)l\275\035\212\363\275\204\001\n\276:v\221\275\344Y\303\275AD\277=V\004T\274\314\317\n\275C\226\246\275x\242L=\377\326\301\275\376\371\250\275\346\343K\275H\014\306\275N%\316<\005`\242<\371I.=\376\003\301<\344\320\342\274/\333\312\274F\321\316\275A\212\021<\347\345\343\275\225\'\375\274\344\375\211\275\032\300t\274\216\373\271\275\324\255G\275\216\020\314\275\355\250\325\275H\312\331\275c\024\003\276\004\233\233<\323\013\004\276>\261\213\275\323\217\231;\327\337\n\276\035\035\252\273\360\311\335\275\364\303\350\274{-\002\276I\2220\276\227\274\312;\376\301\366:\205\306\247\275\352h\004\276\214M\365\275G6\364\275\341\221\'\277W\016\344\275\371\005S\275G\005\351;\312\371\243\275i\201\275\275\343py\274\256r\243\274/*F<\221\236\215\275\306\342\233\275\256\'7>P5\234<e\035\252\275\276tQ\275h\322\212\275V\'\241\275\032\225\204\274\017\252\236\275e\227\231\274\235\330\004\276\322^\214\275\336;\335\275j<\353\275\034\345,\275q\363\334<\030\320\267\274\367\207\205\275H\252\216\275{u\357\275\330\363\367\275\275\326\371\275\304E\206\275\003T:\274\016\023\275\275\325\377\310\275oa\016<\330..<\201$\363\275\263\034o\274+\r\320\275\302\224\227=\022\315\202\275\333b\001\276 \000\004\276\357\\\356\275\374\027\300\2758\223\223\275\337*\277\275\3265\254<\270w\336\275V2\350\275f\220\206\275\t\366\001<\001T\004<\304\353\345\275h\270\251\273\355\002\220\277\335\276\002\276\245\030r\275\322\341\356\2756u\357\274\t\265\243\274\'\331\227\275eM\356\275a\256\264<\224\372\335\275\214\262\007\276\346)\001\276\034\002\004\276\200\362\310\275\323\244\000\276\211\020?\274\261\t\223\273\013Y\025\275\373-N\274&\361\337\275\301\270x\275\212\002\307\275\034\355\316\275\311Y\310\275\225\305Q\275\260v\n\276J\271\235\275\266\022\020\275\004\216\347\2731*\327\275\221\021\013;M\214\247\274.\321\'\275\024\003\361\275\316\210\215\275\373\367\314\275E\022\346\275q\271\351\276\302\344\274\275Zy\311=\274B\177\275\345\316\034\275\200p\261\2756\364\210\275U\317\014\276o\365v;\233\245\022\276\255fX\275(\313V=\027\234u\275Q.;\276\"1\270<\233\362\242\273\246(\227\275+\221>\274\230]\213\275\354\024@\275\3300\370\275\036\177\010\274\037\272\244\275R\362\261=;\325\317\275P\276\313:l\260\246\275\n~|=jE\230<\022\356\203\275\020\317\216\274b%w\275\202x\025=\371\206\324\275D\260E;_\363\345\2748\346\260\274xD\003\276\033\010\200\275V&\270\274<\206\256;\267=_\271v\376\r\276\r\"\253<x\237b\275\250\207\271>/H\365\275?w\'\275\331z\025\274\252g\264;\273\023\275\275\246\301\244\274Q\362\277\275\344\002\007\275\213R\337\275\177\352\025=\2415\026\275\025\357\262;\301\010,\274^\332\222\275\022\332\\\275\374\353\006\276\275=O\275\236\'\217\275\3541\370;\2547\313\275\351\035\247\276\204\372\357\274\327a\321\275\343\025\367\275\032\373B\274\207\242\022\276\230\272M\275\267\242\027\275\020|\006\275\257\356r=s\270B\275E\310\243\275\244\264\014\276\375\022q<\201\232\362\272\356\037J\272\373B\'\275\323\"\262\275\216\212\371\275\037\370\264\275\316\223\014\276\034\315\010\275!E\211\275\323\203a\275\004\265\t\276|\177\266\275\020\304\010\276\3532<<\243\";\274\300i\016\274\343\223\220\275\261\373\365\275\362\251\222\274\230yY\274\241\213\034\274\352\034%\2746\212,\275Y\025\000\274\341m\260\275g\277{\273\177\235\211;l\261\242\275v\002\261\275q=j\275\307\253\227\275\n\226\307\2753\005\317\275\273\352\215<M\366\013\276\310\242|<\037\310\320\275;\342\222\275\006|\330\275\037\032\255\275s\\\330\275\354\316\n\276\224\213 \275\212\354\026\274\266\363i\273\342g\202\275\026pv\274\347(\365\275\351\267Y\275\376hg\275\026\226:\276\304\014\253=\221\355Z<ugL\275I\266\344\275M\207\244<q\204\t:\232e1\275\215P\301\275\"\217\322=13\233\275o\033\036\276\0162\266\274\211I\266\275\034+G\275\376iH\275\020q)\273\010\333S\2755\250\034\273\177\303\014\275q\347C\275U\245\337\273s\037\020\276Cq\2049\202\250\250\275\025W\247\274\310\241\031\275P\237\332\274\272\307\225\275W=\013\274\014\262\277<\335\224\227:\005_\320\274\341\374\306<s_\221;w\205Y\275\254\376\374\275\274\241\253\273\225\347O<\016=o<\nq\373\275\350`\232<\311c\335\275\334\203\021\276:\320\376\275\216\253\273\275\243}\n\275\243\341\254\275\336E\363\275\250:\336\274TT\211\274\016lE;\207R\033\27530\354=\2034\247\274mn\210\273k\314h\274\220w\007\275\375\375\223\274o\350\003\275\230T\357\274\006\361\004\275\376\345\233\275\'(\272:\213\n\337:u\310\222\274\021\315\003\276\250\276\277\275/7+<\r\335\310\274\356\243\214\274\310!\354\275\317\261\232\275\366\257Q\275(\300\036<\341\230\200\275\352\232T\2751\271\344\275:\302V\274\362\341*\273/\377\274\275\003\233\216\275\367{\303\275P\266\274:O\304\212<\275D\227<#;\210\275cI\237\275\252\241\363\275\363m\214>\216\357F\276\356\346\225\275\251.,\275\233\363\t\276\017\035+=\213J\230\275\222\257\350;h\212\214\276S\330A\275\251\276\265\275\250\307\002\276X\331\346\274\260!\017\275\016\017\351;\247\354\257\275\201KM\276\321\332\275\272v\306\030\276\022\250\244\275FU\207\275G\215\252\274\240\352\020\276Q\346\300\275\265t\t\276\240\177=\276\351-\032\276\300\355D\275%\240d\277\245\007\300\275T\025\013\276\003<\002\276M\030\213\275\2501E\275\307\275\355\274\0328\334\274\217|\r\276:\224\005\275\274\036\014\275\340\272\202=h\360f=\'\326_\275\307\244o\275\323\000\222\275\007w\003\276\3301\300\275W\374\321\275\327\267\305\274W(\330<t1\010\276\232\317\035\276\243\322\205\275\242 \032\275\262\335\274\275xb\333\275\210v\223\275\363Q\212\275\306\310\332\275\230\251\257\275\032 \325\275\342\031\227\272\260\306\274\275\331\033\'\276vl#\275N\021\253\276Y\265\353\275=\342\334\274\210\333\277\274\250\\\014\276\311\274\324\275\313b\277\274\326:\372\274+\322C\275G\337b\2754 \214\275\240\242\020\2769\024\276\275\"\373\\\275A\221/\275\257\256\212\275\274\306\301\276\035S%\275y\265\315\276\241x\322\274FM\366\275\203\214\006\276\207\363\025\275e\226\r\276x\322e\275Mc\300\275f\252\200\275|\303\272\275\204\0276\276\275~\340;%\335\326\275\205,\317\275\261\3532?e\033\017\276\322<\356\273\035\273\227\275\275/R\275\266\301\210\276\365\225\026\275>PG<\334\324\204\276<\242T\275R\320r\275\357\n,\275~d\256\275\252\306\323\275\003\003\374\273K\030d;\027}\223<\230+\013\276\027\035\006>\335\nM<\210\312\270<<\026\252\274K\206\321\275\336\237\222;\234A\277\273\322\2730\275\323\341\014\276\331}\244\2726[\275\276\270\276#:\220+\360\275o\330\217\2748s\375\274\354\260\265\274\026\002\213\275\251{\303\275i\310\263\274\205\317j\275\3310@\275\263\366\337\274\327pu\274\232\212\001\274\010\341$\275\000\375\202\275\\\037\231\275\333\230\252\275\020\265\373\275c\2732\275\006F\211<WJ\263;\321\2179\275%0\272\274rw,\273x\320Z\272\330\271S\272@W\\\275\016z\013\276\202u\307;\242./\275\252\327\373\275Tg\274<L\240\377\275KM8\273lp\001\2751\334\226\276\230=\034\276 P\264\275\206o\030\276\341\357\376\2752s\023\274E\016\307\275\024\337\365>\327x\t\276\360B\376\275\203\270\021\276\035X\234\274\230\207\r\276o\326\014\276\005f\035\276\267\353\262\275\001\022K=2\320\r\274\035\004\203>\337,~\275\n\256\257\275\\\005Q\275\313\3049\275\366\362\332:\025\220\333\275=f>\276\307\350\256\275\2566\027\275\316\022\323\275t\035\220\275:\027\214\274\330\276\262<\3478+\275\"\355^<\313Vc\275\276\217\"\275\305\222Y\274w\230\217\2755\250\n\276>\215\301\274\233\r\034\275\352\013\251<\347I\302\274P\0217<\266\260\336\275P\327\277\275sb\336\275.Fl<\237i\231\274&@\352\275\245\014\223\275\027S\220\275\252\005\270\275/\204\363\275\201B\354\275\314*\r\276\007^\\\275Ta\'\273\300\260\024\274\366\242`\275\255\n\342:\200\250\270\275\335Q\253\275\336\023*\2751\201\233<*3\222\275\3070\343\275\016\313\253<\202)w;\307,\203=\264\201Z\275\313\246\264=+\325\355<\260Z\210\274\233b;<\372G\r\274\226\270\264\275\033\315\202\275\313s\257;\037Uv\273\034\334\222<\374]5\275I\2647\275\310\324\t\276\252\312\345\275\240\260\301\275\035\213`\274\321j\367\275\344\360K\275\323r\303\275\224\334E\274\302.\241;\310_\272<\373\332\260\274T\342\226\275_\353\032\275\303\353|\274\002e\201\2751\375\263\275\001)s\275A\326\263\274\020\001Y\275#\214\001\276\023Z\002=\r\031m<\337\371\235\275\360\230\251<\022\224\357\275\227\032\003\276\225\273\264\275\275\037\017\275Fq\247\275\251Q\376<\302C\006\2749\323\261\275y\207\205\275q\302\303\275\344Z\230\275\235\254_<FZ\250<E,W<\300\034\177<Qf:\274\014O\256\274\214\323\304=\221\320\315\275\352\376\306\275J\247\351\275c\346\200\275\251\213\351\275\332\367\r\276~\273\002\273p\324W\275\023!\207\275\206\342\205\275\2718\275\276:\023\036\274/<\014\275q\004\006\275\316\230\253<\311\377\213<\034\034\212\274\332\204{\275KT\305\275\261\032W\274:A\260\275u\017\t\276\344\320Y\275E3\001\276=j\033\273\202\331\013\276u\3742\275\207i\226\275_w\266\274P\373\261\275\033\217\000\276\244\r!=J\354\370\275\353\250\223\275\313i\204\273\256\246t\275\r\311\300<\376e\017\276\301\010\002\276U\241\241\275\205Qs\275\r\332\202\275\262\\\230\275\342\304\325\275\373\216<\275\305\204\006\276.\211\252:\355\350\261\275\265\227f\275\022\344\272\275Y\005^\275\210$\202\275>\252H\275\004\t9\276\260\260\223\275@z <2\336\272\275J\207\006\276\257R\000\276\244\034\362\275\354\204\236<\037{!<\025\227\334\275R\342\"\275\"\202\005\276\207>\353\275\267\304O\275;\'\024\274\263i\257\275\305\333\313\274\373\342\320\274\250\257\003\275L\311\307<z\261L\275\020TS=\325\216\022\275B\320\320\275 j\202\273G\200\205\275\0047\200\274\327\235\350\275>N\271\275\"\003E\275\307G\240\274\212\262\001\275J\232\205\275X\377\355\275\272tL\275\003\357\337\275\237)\002\276\207\312\237\275\336\223\201\274\351U\003\275>G\350\275\001\313\014\276\314Y\245=\355\270c:u\373\n\276Y\332\010\276\320\201\266\275\224\020\002=\302\022\342\2757N\344\275\237\006\035\275\375ZU\276\201\376\014\275\307\007\014\276]\357\317<\020\234k\275#\326\253\274\310\036\244\275I\346\277\275,\345\013\276\347A\217\275\036g\025<\347\253\000\275\300\335f\275\205\242\020\276\240|\251<%\276\260<iv\222\275\t\376L\275\214\2174<\222\246\255\275;\334\261<^\332\234\275q\036g\275\353\321\206=\206%K\2752\340&<\357\301\244\275W\017$?\243\227Z\275\326p\272<u\033\373\275\315\266\343;%a\327\275\371\265\001\275U\331\010>\320\364N\275\362IX<\263\201\303\275\322\236\001\276\035\177\006\276\202\037T<,\2025;J\235\320\274\340\021\222=\217\221\234<Er\017;\256\244\2759AH\3759\207\2527\275\360e/\275\372\225\316\275\217\207\370\274\213\230\261<b\356\324\275\326\235\004<\213{\260=\326-\037\275c\246\225\275\331\032*\275J\303==Gm\277<\232I\307\275Pp\264<\216\233\305\275\306\020f=\314\033\310\275\275\243\222=M\360R\275\240}\005\276FM\306\274N*\371\274\"\014\212\275\254\177\253\2759\203P\275a\0219\275\304q#=g\260\203<\022\354\022\276r\261\207\275-Z\n\276c\023\224\273\013\032\375\274\310\022\350\272H\341\360\275V\367\301\275\336\300T\275\0207\004\272\260p\037\275J\373\361\274|\261\004\276\245;\200\274\305\367\337\274\341\200\322\275\271\035\n\276\325\336\214\275=f\215\275\376\300\223\275w=J<\313\373\253\276\007\031}\274r\312\021\276\342\242\222\273\272+\357\275\342\206\022\276\260P\212\275\347\000\315;\305\200\256\273\025\263\207=\340\035\213\275\214F\256\276\235c\t\275\244\'\227\275r\034\003\276\326f\206\275^\346\207\274O\313\364\275e\333\343\275\271X\016\274\001l\214\274\002\374\267=\260\375\345:\342`x\275\367-\005\275\022\224\037\275\0049\007\2755\272\022\276+\267\277\275\004\214s\275\3027\214\275\365)\265\275\016\326\000\275\273\237\240\274fv\354\275_\220\201\274\211&\016\276\253\372\305\275\245\264\261<#V\257\274\'b@\2751(\205\274\002xD\274\366O\027\274p)\263<\026\354\017\276\375\t\n\276\000U\354\274\243\006\246<L\373\374\275p\377\032<\031&\352\274\230\002&\274a\336\331=Qy\355\274\322Y\023<w\317\022\276\027\272\372=\226Z\232\275,\225\247\275\317:\020\276\307y\256\275\350\217D=\325\331\322\275\245\316\261\275\264\225k=\343\353\250\275\244\327j\274\305\313i<A7\233\275\246\014v\275\231[\373\275m\277q\2753\374\022\276%\331\n\276\360\236X=*.\321\274\302K\000\276\207\244\010\275\362\252\002\276\260\304\245\275\312\026\004\276\363\332\354\275\226\n\000\276Z\363\225\275\242\221\244\275}a\016\276$\000\244\275\030\266e\2758\350,\276\341\372\374\275\224\355\234<\035R\317\273L\273\031\275y\345\237\276\010\276\221\275\326\357h>|\005\273;\020\320U\275\001\237\310\275\235\322\236\275\027\257\005\276\224\366\224;&\203#\275A\342}\275\366\314,