node {
  name: "b3"
  op: "Const"
  attr {
    key: "dtype"
    value {
      type: DT_FLOAT
    }
  }
  attr {
    key: "value"
    value {
      tensor {
        dtype: DT_FLOAT
        tensor_shape {
          dim {
            size: 16
          }
        }
        tensor_content: "\346f\265<8\247\227<\357&\245<\211\036\336<\030\253\211<\250\373D<\256\351`<\037\252\245<*\364\200<\236n?<\223sN<\202\177\234<~\272\306<\225\245\252<x\277\266<\342\352\345<"
      }
    }
  }
}
node {
  name: "b2"
  op: "Const"
  attr {
    key: "dtype"
    value {
      type: DT_FLOAT
    }
  }
  attr {
    key: "value"
    value {
      tensor {
        dtype: DT_FLOAT
        tensor_shape {
          dim {
            size: 32
          }
        }
        tensor_content: "2\241#=\263\240#=}\254\244\276\025\236#=\207\004\036=\212.\n=\261\177&=^u;=4,\\>\233\361r=\344@\336\276\354y_\277\236`#=\"1!\273b\001$=\006\236#=\274\357\001=?\237#=,_\"=\024\334#=N\236n=\221s\"\275b\244#=;\270q=\246\016\020>`\243#=\213\237#=\006\236#=\342i\\>\302\235#=\301\320\237=\326\235#="
      }
    }
  }
}
node {
  name: "b1"
  op: "Const"
  attr {
    key: "dtype"
    value {
      type: DT_FLOAT
    }
  }
  attr {
    key: "value"
    value {
      tensor {
        dtype: DT_FLOAT
        tensor_shape {
          dim {
            size: 64
          }
        }
        tensor_content: "\205\274<\276\367`\344\274`\233\201\274W\204\252\276[\0015\276!\201\030\276\237,c\274\234\341\256\276\020As\272\226S\277\2749]\257\274<9\354\276:\367\353\276\356\271s\276\314\3069\276\305R\332\273\362#Y\274\343\004@>]C\313>\304\362w\276x\243\177\2749\032i\2740\222\2719\245\323^\275\004?]=\316l8\274\255`\334\273\320\265\255\273S\311\333\276\341\034?\276\253jx>S\210\t\274ii\205\276\r\234\034\276`v\332>\020\207\256\276\203\314+;\254\364\316\274 \253\216\274&V\'\275\270\210\353\276\226\230F\276S\311\016\275\204%K=)\266\254\276\306\345,\276\350{\n\276\361\255\322\273\205:\316\274\210s\217\274\274\243B=<m\360:\007?\242\275#\025\'\274\342\203\016\275\3420L\274OK\202\277\306b*\276\352\003\261=a\214\213\274\241\3761\274\354\3646:X\024\353:Qt\346\272"
      }
    }
  }
}
node {
  name: "f3"
  op: "Const"
  attr {
    key: "dtype"
    value {
      type: DT_FLOAT
    }
  }
  attr {
    key: "value"
    value {
      tensor {
        dtype: DT_FLOAT
        tensor_shape {
          dim {
            size: 3
          }
          dim {
            size: 3
          }
          dim {
            size: 32
          }
          dim {
            size: 16
          }
        }
        tensor_content: "\234w1\276\017\375~:\217\352\025\2763\307l\275>\246\377=\377\305 =\340\304\003\275P\206\010\276u\361\246=7\241\017=\311Y,\276\022Z\232<\025\303\320\2753\303v=\"\263\314\274\317_\232\275$,\232<f\355\255=\252\020d=\3078\017=\020)\030\275\221\371:=\022Ka=\220\235.>\256\017\n=\311\n1\275\276O!>\344c\326=\242%\037\274\311\246k\275\244f\031>:\025 >\337v\203>/\203C>=\215\357<s\256M\2754H@>\233:\004>\235\262\020\274k\021O\275\364\367\216=\215\243\251<\2110\200\2755\352\214\275\260\332\2679\333i\257\274\242\272l\275!\036m\275a\323\226\274H \360\274\375\346\323=\256\031)\275b\301d=Nw*\273\220\032\363<\201\206\206=\252\323#=\2736\201;b\263(\275\020Z\307=\3202\250\274J#(=\355\022\323=%\016\342:\201P\354=S\313 >z4\014>.\361\275=\224\373\307<\320-\204<h\r:=^\375\257=\243\204\335=O\317\"=*\177\325=\026\265\334\274\311\1773>9\342$=\353\304\022>/\026t\273I\201\033>\274\325\347<\263\022\376=\372-\031>\2757\206<\273\217\004<\365s4=\350#\330\274!n\202=\274q\266;\225\037\t>\307\026\316=D\t~=\002\315\302=\356\235y<\335\302\211\275\372\251(>d2\322=\345\346\260=8\237]\275\342;\343=\034?\014\275|\377\214=\207\323\300=\236\022\337<\013[,>\300\205#>\303\323\363=\2120]=\342\005\002>.\342(>\312\307\025>\023ua=\300,\242=\337K\337<\216\356\t\275\277\326\017\276\022\360\356\275_\027X\275D|$=\341\"\326\275\037\373\306\275ED\016<\357\317\221\275B\r\247<\027\254`=%\"\264<\200\304\351\274BI\376=QP\177=\243\362\022=\342\300*=\031\243m=\202\032\365<\352*U<\273\273\216<ty\334;\250\311\355:\232\037\240\273*\314\\;\034\275\264\270\006\267\306\272\374\'\342\273\246a\031;\037\212\224=U\235\374<\315\353\224\275p\374==wH\374=;\244\267\274\304\342\252\275\241\034\316=\353\005\301;k\036\326=\"\016\315\274K\232\367\275\370\343B=\213\262\314\274[\215\316\275\036r\007\276\031\315%\276s\3559\275\2535\017=v!\237=\010\333\030\276~\220\016\275\350`/=\201-\231=r\313\000\276[\336\277\274\177\270H=\310\356\226=\271\032\263\275m\255\016\274\r\035\201=x\242\246=\376\313\r\274\227\245p\275)\327\'\275\010?\2729Y\371\272\274\242_\013\275\245\301\226\274\033\233\337<\332\242\342\274\3172\267\273M\376\277;\362v3=\266\211F\274\336\310\206<e\353\334<\030\210S=\023\300\031=c\326z\271\222\370\273=-]R=\r\024\000=\304\224\247<F\303!=/\303\237=\206)\256:Yp\005>\324\004\006>\237\t\020\275\263\231\375\274h\2514>/\363\223=\227\014\217\274s\021\022>^W\201=\325\325=<<\321\3028W\316\330=j\032<=\343\'V;\376\320\374\273\n=v=C)|<\224\327\226\274\341\304\264\274\030\305\335<s\254\257\273`\003\357\274&\267\273\274`\216\330=\3341\277\2746#l\275mlX=*W\004>\2404\022\275\203\252\336=5\207S\275\240\330\327\274\226\230\265=N\372\311=\020=*=N\201\247\274\260?)>l\367\'>\243\230\230=\227;\007>\317\372\035>\250\342\240=q\320\016>\275\217T;\272\333=\275\373e\023>\006\037U\275\335\031\013=J\263\235=\022b\201=\353\016r=\314\300\205\274\333\212\257\274Ft0\275\214\020\\\275\006]\240>\014\251\315=P\277p\275X\"\260\275\233\022[>\274\1777=\210!\320\274m\374/\275\316\006\333=\345\002\024<\262E\244<\\\237\3609\240[\263<\312\030\201\274*\265\037=\3046\264<\202\t\361\2740\351\310\2727t\211=\036d\343\274{b$>\334(2>4[\365=I\301\362=\340_/\275Pr<\275\'p\004\273\352\002\321\274\370\001\274\273\311\250\014\274\371s\211=\222\266\343<\224\037F<\230\214@=\"Q\272\267\2621\003>\237s\273=\"\236\300=\004\265\333=7\ro=\367f\266<|\003A\273\350\276\344<\265s+=\367)\373\274s\000\362=\025\356\032>\333Vv\274:I\237=\237d\314<}\267B\275,S\375=\256\3208=\241\2151\275\246\027I\275\022o\327=\323\255\260=`N\221\274\327\340\021>QL\252=\240J|=&\225\020\275\030\tU\275I\324\035\275/\017\332\273\301\rK=\345\021y\275F\332\n=n\363\274=\245\334\214\275\240\2055=\356v\030\274\244P\304<\244\335\r=\350\320\247\275\211vr\275\312\302\033\276\'\267\216\275W#\345\275\370\371s\275\267\270\300\274\334y\245=\355\316\324=\373)\277=\365\340)>\334\356q=+\302\342=\003\222\025<\230\321+\275\212B\002\275s\333E\273\244\000\343=\326>\335=\025\007\226=x\270\006>\255@c=\261\334\311;\206\326\016>Ay\267=^\030\014>\203\346\001>\005\010\260=)k\205=x\245\332=!tL=\360\333\232\274@\261\305\274\207\213#;sQ+<EB\254=\'\027\376=\035\026\002=\221\310\025;\354\257\241\275\207\377\336\275;\334\356=\232\006\220\275v}(=\253Q\345=m\te;MZV=Df\202=\005\2574<\236\275~\275\237J*=\372\327\313=v].\272\025t\244=8\2178\276\034\332\355\275\255\335k\275\330\201Z\275y!\352\275\274\355}\275\341\211/\274\366\205q\274\203G\024\275}^\342\273\332\314\330<\242@\367;\260n\326\273?\212\013<\206\361\356<\214\232\306;{\267+<X\375p\274/\351#=\303\335T=>\341\365=A\253\300\274t\'\021>\272h\004=\337\262\305=\377a\276<\263\2700=\231\242+>\265\302\037>\345\177\030>)\230:\275\246my=\252<#>@rD=k,\355=\271\006+>\354\337t=\3331\252\273\\\377\245\274w=V\275;\262\355\273\337\307P=#7#\275\037\370\031>\201\003|=\3167\345;\374\255\005>\342\372\343=LF\375=\373\230\331=\007`\226=\177\302;=\\\024\t=\260\254\321=\237 D\273\321:\214=a:\025\275n\336\261\274l\324B\274=8\207<\304<\372<\177i\t>\\\377\">\257\300<=\262y7\275dt\027\274p\357a\274\2462\261\274\330<\033\275\206\177x\274y2\211\274\266-\255\274I\010\346\274\344fY\274z\330g\274\302E\177\2743\360\003\275\246(\263\274\314\354\260\274=\265\220\274\007\347\006=\374\301\030>\326\312}\274\225g\006\275t\357\230\273\226\344o\273\276\261\304<\222@\307=x2 >\014[\344=>\340\262=e\341\033>f\004\210\274b\210-\274@\230\017>t\362\325\274\323\204\274=\211FN=\354\217\252\275\"0j=K\266#<p\002\177\275K6\326=\026\034i=\3043\320\275\341U\276\275\207\333\010>\216o\246\2748B\206\274\200\246\251\275\030Y\322\275G\324\313<\204}\334\272\235R\241=a3\340=\005I;\275w\253)=\214\2515=\267j\377:\210\\\332\2721\365\345=\257\007g;\275\260\332=\250\330\265\274 x\326=\266\364\000>pH\316<\274\201\245\274\251\345\025=\306|\013>5v\214=\375<\345<\'\362(>\032\317\222=&{\362=X\246\030>y\367h=\007@P\275NA)=\367\307\034>\260\003(\274\242\206\312\274\274\017\004>\272\301\032>\316+\302<\000\212\300=D4\'\275\275\214\345<\202F\"<\207\177D=\026\233$\275\030/\252=I\315\230;[\351.=\306<B=\255B\271\273\235m\031>m\262\227=\001\321#>\206\314\357\274\221\346\233>4(\034>\345\023\000>\005\240\201>\202<L>v\254\262=\277q\276=*\3158>\2771\257=\215;\032\274\367u\351\273\3744~=jn\300<\t\370$\275\367IS\275\014{\314\2738=\311=\337\031\331\274\233\275d\275\0363\n=F\303\\\275G\317\t>\206G\r\274\247\275r=\004\245\005>\376\236\005\2753\275\201\273\304*\003>v\275\027\275A5\014>r\0058\275\003f;\275\244\031\215\274\206\205\241=rj0>\201\260Q=\303t\">\341&\310=\030\032\037\275Ji\247=\232q)\275\013\3251\275\374\305&>n\013\332<\315\351C=\213\220\373;\014X\237\274;\034\r>#\rN\275Q\323\312\2746\252)>\272~\244=\026k\002=dNL\275|\376\266=\254\320\231=\260\246\344\275\377.l=^k\320=T\217\356<\316*\375\274\375\005J\275\221\033\266=\211\216\224\275\261\355\365=%R\031>\373u\n\275\267\r\226=\253c)\2752\351/\273\335\027,=J\006\257<-\231\272=ok\367=\232\034W\275\315\027>\274\243\351\312=\n[\323\274;O\021\275\263\330\344=\034\370\005>@\342\037=!\261\266\275s\205/=\215k\001=\244\376\032\276\366/\222;6/\020\276\'\034\024\276\310\030q=\262;j\274P\270\357<\354\311\311\275\177uj\275\210\334\032\276\277\341h=lE\037>}\261T>,M[>\207l2>\352\261t=>\243\211=k\205\236=\255\327\240=\033\207\007\274\370\301\356\274\343\225\224\274\"\237\365;p\230k\274\025\260\006\275\261\323\256\274\326ls:\201`\326\273\320\217\353;\206\017g\272\374\250)\273\264\226\215=\031\343\345\275\2703\025\274\334\013%\275J4S\275\373\017\315<!\024\230=\021\320|<\353a\201\275\342\243\270\274\276|\200=pIT\275\313\242\n>\322\271\255=\326\242?\275x\312C\276X\215\324=\213\246k=\214\025J\275\305\222-\276\337\353\246=\335\230+=,q@\275\253b\023\276W\254\231=\021\256+=\237}\033\275\341\n\344\275}\013\255\274\313f_>#h[>\352\347\204=\210\251\327\275\013\'A=\000AP=\224e\033\275\231\335\347\275.|\236\274\276\020\360\273\264eu\275D\310\274\275A\3448\275\223m\001\275s\3512\275\346\210\351=8\007B=\ru?=7\206\037=@\232\203\274\201z\010>\241(\033\275\373\310;=\311\323\016>\020Y\">p#\022>\226\000\312=\210\277z=9\256\340\273!\223\022>\323V\234\274\222\022\271\275\217Cz\275\263\327\204=_4M>\361:=\275)\315\006\275\020{\006=\263:\022>\263\314\340\274\236b\204\274\350\342\242;3\311\242=\277~\211\2741\025\246\273\032Q\373\273\222\201\032=A\216\355=1h,>\316\222Y\275\217-\007<\244/\024\275\350\003I\275\323\242\320<\365&\360=\023\332\021>\003\t\014\275\030\003\245=94\026\275}H\333=\027\342\363=k9\037>\262`\201<I\217\211=3\2012\275\314\311\351=S\217\026=\22493>&\3121\275\273dC=\345Q\000\275\255.\034>\376\235\234=\203K\242\274\243\202O\2742\307\226=\301\377\341=\035U\n\275\263\301\025=\306m_\275$\306\227\274\315i\355=\377\250\226>\036\364\221\275\243\n3\275O\233\222=\246\375`>\264v\250\275T\263\201\275\215\374\345<H7\n>\335j\226\275\r\277\201\275\371>\234;O\335\201=\236\006l=\273\023\323\274Se\362=<\274\307=\3277\332=\272\211\376=\261\211.=A\t\345=\013^#>\221}\276<W\310\032=\213\313\'>\312iA=>\347\n<\360 %>{\014\037>3\r\024>\032\005\010>\r\272\010>T|\302<\321\007\247\274s\312\027\272\231\364\n\2754\343\007=\021\364\315\274[\"2>\335h\201=\221\305+\275\240C\024>\217\347\276<\355\023\351\2748\254\211<7\n\344\274S\304\376=\247\250\345\274\361F>\275\300\254\'>\232\352\034>\235\002\001>\235\211\326<\361\334A\275\230\371\207\275\354,\014>\35451=i\2133>{8%>O\267\025<\216$\021>\274\313\366\273\254=\265\274\222!r\275\277\316\316=\022\317T\275vgb=\233\303\205=\307\001\273=%\332~=\t\014(\272\232\300^=\343_\316\275~\331\317\275\235{\365\275\275sC\273\350\307\n=\020\254c<P\337q\274\000\037l\275\351G(\275\366\3150>S\266\301\274\256=\322;\340\352\033>3\217\300<W.\235\273B\255\214<i\016\306\274-J\324\274\207\326U=`|\247=\274\316B\275\013_ \274\320\032\032>\343X\244\274mB&\272\365\355\314\273{\256\314=\022\376\035>f,\032>P\036U=\271,\033;c\370\025>\245\344\314=\242P\000=\312\277:\275N\021W\275\244d)>\336\361\005>\032K\024>9\274\366\274;\r\255;\302\232\317<\362t\330=U\207\314=\246\2442\275t\017\005=`\036R\274r\222w=\013\317\262=\027\341\347=_#\371=>\217\360\274\367\003\253\2755\335\032\275z\227\207\275\301\265\001\276s\272!\276\227\241)\273d\370\206\274\261\232\226\275p\026\321\275\256\210D=\232\204q=Iz\032<\036\020\333\274\'\372\036=\0219b=V\363\220<\206\343\030\274\231\241\010>J\335\322=\262\304\t=\257\036\020>\200\220\214=\003\221\231=\313?\365<\371\332\341\272\320\237\375=\020\340\370\273\252\002#\274_\254\016=+k\'\275&T\224<\240\244 >\r&\263\274)\316\267<\n\036\326=\203\243\">oU\301\274\203\036\266\274\245\337\031=\234<\255:\262\003\244=\243jF\274\020\n\241<K\034t;\357\301\241\274?\233\344=\312\240\035=\225\270\334=\376W5=\032\221\013>q\2754>\353\323\357=B\024\325;\312S\010=1/;\275\341U[\273\016\305\304;9m\375=\226\2712>>\342\021\274\35112>\220\273w<\265\345)>?\017S=\277T\362=U\032\310=g\035\016\274v\211\201\275\301\027\221\275\273J\240=nX\000;\'\'\374\274L\327/\275\311J}=\267\004\r<\273f\001\274\356\327\205\274\035\315==\360>\275:&\323b\273\202[\266\273&\355\205=`\251o\273\367\'\330=\001\311\222\274\005\327z\274\022\227\017=\361[\252=\241\n\340=\214\344\225=k\r}=\3315\232=\376\377\022>D\021\305\274\357\343\251=\230\202\276==;j=\316\244\327<\010\271,<\032d\346\274\032-c\275.\343\210\275?D\352\275\247\253\235\274\377\204\023>\352q\002\275`q\006=\253[\311\273c\232\370\275\273\013\242=+R\255\275\016\"\355\273\225\232\234=N\263\026\274ChZ\273\214\030\206=\250\256\327\274J\260\353\274c\026x=\256\343K\275;5\002=\240q\307=\242\235l\274u\326\337= \313\014\275\372x\246=\026\212\371=;L\307;\220\013Q\273P\212\270\275\024\332\352=l\275\'\275\360\234\236=A\3024<\373\367\243\274\264\312\352\273\2622\323=\007\010\034>P\276\007\276\\[l\275\177MY\275\351\013\204\274`\265\201;\377J\024>\206\035\030=!\341!>\030m\005=\253\317\253=\023\373)=\2760};k\350\005>\205\374.<\254\260\270;\217\334\367=k\343\354=<q\267=g\235\034>J\345\223=\212\231\330=x\371\373=W\341\207=\021}H\2758\030\027\275\\\323#>\350\370\237>\326I6\275%\3615\275\251-\267=o\246Z>\246J0\275A{q\275!\340\222<P>\335=\216\275\030\275c\nc\275\022\332\356\273\033I8=\220\311\000\274\272\362\275=j\371\351=$\222\267=Cg\277=)\021v\274AR\344=Ps\214<Yj\227<\\\263\203\274\002\007\367=\341Z\020\274\310N0=OKX=\323F\231<\031\212\000=\004\273(>\2160\271;;\234-=\333\024\367\274D\237\010>7\342\203=\001#\341=\330\003\225<\332\235\365<\213\305\003>\360\r\031<\206\220\224=S\2744>\"\033\261\274\327\013\220\274vY\331\273=,\205\275\"\255\033\275\350r\210\274l%\265<K\237,\275\340N\006< 1\260=X\306\330=\225 \006=\266\204]\275\247m#=\3100\203=\002!\242\275og\235=A\016\353\275#^\241\275!\017\035>\312\355\262\274\"l\255=\262q\332<\360\037\014>\302\030\222=?_7=\271\206\005\275\323R.\273=\340\036\272?/\265\274\002A8\275\360\004d\275\316\001\"=s\324->u\354\360:%\322\033>6\351;\275_{\210=5\216)=%\271\033\276N\335;\275\235a\260\274\014\331\357\2755z%\276\312\267\036\274j~!;\210G\320\275\310\355\261<\177\301\351\275\025\240\252\275\265 \313\274a\332W<|t\\<\037\327\007=\210l\233=\330\032\037<G\261l<9\322\242<\252x\344<\366\331\177;\326\006\"<\262C\201;/\000E\274\213\372)\272\352\211x;\302\305<\273\362\255\230\274E\270#>\223R\033>\342*\007=I\243\370\274\307a\277\275F\367\035=:\247\265\275\nS\022\275}\026Z\274\265]\377\273\006w\240=\017\337\342<\252\307\020=z\013u=\271\361\362<\371\362r\275\033l\177\274\307t\t\273\3213\022=T\245\315=$\345\275\274.\374\'\274#q\363<\032@\243=\316\002\000\275\225\234\206\274P\234\255<pwy=\212s\255\274\240\310\230\273\242>\276<+\350^=9\177\307\273\314\374s\274\035\254\245\275\240\354\375\275\233i4<`\262<\271\256ZY\275\231\300\373\275\273\026\020=X\206\340<B% \274\232\272\261\275\343\217o=6bj=\204\260\365<|l4\275\333\224\261=q\370\r>\000\337\361\274\023\n\363=q\260\345=\334\340\027=U\005\303=\316K<\275\3210+\273\250$#>\033\345\000=\034E<={s\025\275#\330\177\274j\252\371\273K\227!\275\010$+=\324\032\'<N\316\350\274\306\350\220\275uZO=\253i\274<B\364:\274\264B$\275\267\246.=\251\230\316<(\030^\273}k\000\2758\357\034=-+\364<\316\307);\2372\371\274\251\3450>\027h\362=\013\262\333=5\323L=\200r!\275\267\315\320<\356\367\025>\2031\033>\366A\256=\206\231C\275^z\016\274\373\003H=\364\265\273\273\313\267\253=\324\270\037>\223\352!>\211\2448\272u\352\322<\006\227\352=\340\340\241<5\027)>\027\017&>bUe=\2672\256\274\223j\031<\250^\351\274\026\355!>\213h\340=\n\225\006=w\277\347=\200\\\203=\255G\271=\013\001J<j\235\222<\023\274\363;\r_H\274\351\r*<$r\206<\030\314\365\271hI\360\274T\2402<\002\2478<\305\325\203\274\034,>\275\032F\020<\002\n/9\254G\374\274\203\207\\\275p\215\231:\024\215\216=\263\002\354\274\215\304(\275\335\\.\274\303\237{\275)\203<<\247w,>\010\3402>\300o\332<8*\301=\261:\261=-\033\235=\020\243\365=\202\317\034=M^A=s\n\363=\271?\333=q\006\337=\351\002\010\275\263\345\'>\231&\303\274\311\345\024>\303h\200=j\225\276\273\205\013\357=\226\261\001=\021\001D\273\345\032\001\275\300+:<\t&\241\273M\'\234=\3322\336=\224\317A<\017\2639=[\326d\275>\210\240\271k\202O\275y\017\247;\222\223\372=\366\351\006>\004G\301\275\256\325\001>\265\034S\275l_\355=\256\005%>%\302\022>+\361\026>P\275\001>)\324\331\274E\353\245\271\001\"\227\275R G=\030^\'\276\311\002\240=@?\016=\032&\327\275\361W\236=\271\314\207\274\022\342\r\275\230MG=\375\346\356<\266\035\027\276\000j\303\275\013\202\260=\226>\001>\035\310\224<M\356/>\'\320\367=\375\t\203\274\242\303\250=\255\206#\2758w\014>\331es\274I\225.>\035.\005\275%\n\252<t\361\216=\2246\317=\2729$\275\342\025\353;\017\3353<w9\002>7-\237<\214\002;\275\264\362:=^\346->\353\'\221=?{F=\031q3\276\345H\277=\227\374\205=\271\327\302<\230\303\376=\301s\321<#)\025>\221\225j\275\263\023\256=\225\351\230\275p\203\025>\324\307\261<\310\307\314=\0134\220\273FUt\275TV\310\275~7.;.o!>\227\002\224=\252\261\253=b\230\000=X\333\205=\362L\265\275\243\256\000\275d.\032\275\325x\013\275\313\364\032\275\234C{\274W\032\217\274\276\021\320\273\364?\275\273,\037\022\273\307C\004;\r\013\271<\265\032\027=>\252\360\271\316\340\307;\254Q\320<\326\003\025=\004\360\210=\316*\030\274\245U\213=\350P\216=R\010\034=8%\253=^\200\037>\230\210,\275\0252\002=m\255\212=p\032X;\360H0>\335\232*=\214\357\245=\334\rV\275(\373\301<\346\332\031\275W=%\275t\227\036>5\211\331=\000\370,>\013\003\331=\220\313\216=\235\024\326=\223\357\251<\216m\360\274\222\322\'>\366n>=E\362\022>\221/\234=\335y\024>\004+%\275\262\301-<A\013\253<\361Q\201=\303\037\033>\326\357\000\275\362\344R\2751\243\334\2744\250C=G\206\027>\262\354\236\274\242\0076>\201\364M=\034d\233=\007\363\367=E.\215\274\004\326o=\311\333W\275\352\223K<\271\200\217=,l\267=L\251i\275G\226\205\273q\213\001=\201\222I=\217^r\275\ta\212\274@zL8\315vP<\017\200E\275\224\006j\274\262\331\364\273\241u\006\274\024\014\236=\232r\016=\000\010\037\274;\222\035\2759H\324\274\305\265&\275\017fF\274:\212\003>\211<E\275\255\r\360=JD\032>\233E5\273A\237\331\273\265>-=M\310u=\370\207\311=\240W\354=\247\224\246<B\270\233=\370$B=)\344\367=\026\301G=\2142\024=\312\031\251\275\003\357\'\275\0065\251\275\215\351H=&\266\234\275\032\215\366<y\304\235\275\000s\356< \250\347<\241\372\034=>\312\003\275\230K\244=\275\323\273=L\264\245<<(G=\025\215\276=\274\202J\274u\227\027>\216T\037>\225w\366\273.\346\252=a\372\360<\207\373\253=\252.\235<\031E\231\274\355}\362\274\003;\314=\325\377\343\275\031\273e\275\242!+>IB\022\275\361\304\254=K\220/=\335\372%>\"p\265\275cp\375=]\030\260=\242 \333=\357\327>\275\362\230\240<F\220\\\275\277\307\237=\376.\024<\002\277P=<+z:\206x,>\021.\266\274g\312\352:W\357\347<\026\244\365=Ln\334=fY&>aFK=\3044\r\275.1\302=\322w3>\247\rX\275G\0249=\\\317\022\273\235\331\203\275\345\024\215\275A\017\376=*Y\206=\037\006\344\274\344\225\210\275S\2170>\220\346\001>_b\261<n\354P\275\327\032\212>(8a>\336\377\323=l\304\271;#\302\276=\210\336K\275c\266\025>}\031\035<XO\022\275a6\335=\267,\033>\232\210X=\n\311C\275\'$\026>\277\355o=\273 \354=\'\017\n>\312,l=\036\361\225=\0256W=\273\365o<l\224\230=R\226\366=\010\266\003>?F\341=\367\231\007=uO\270=\035\244\333\274P\262\016>%24\275\331X\211<w)\203=XI2=\373\021\006>\263\347\034=\214\342\032>\034e\022\275W*\031>\315/\371=\227\202\002\275\373\007\272\275\342yi=\275\205u\275\224\334\327=0KJ\275\225\343\273<\332cq=\243\r\236\274\020]\373=\344\266^\275\031\235\320=\212\232h\274\255\315\335=\205b\">A\177\036=\370\026\025=`\265\205\274#\336\037=\304\313(>Q\004\377<\207\272\005>\251K(\275O\\s=\007\032\">n\323#>\272a\352=\"\3325>q\242\035>\240\001*\275\341\025\306=\335\366\020\276<\256\033\275\234}\250\275\000\340\312\274,\3263;D\177P=\027W\005<\0035\020\275\354H\037\276\234\203\206\275]\360\317\275\326:\365\275\340\207\252:(F\031\276<\327\214=?\362\337;Z\202o\274\326Q\374\273\343L\373=\270;\272<\244\376j\274\254}3\273=j1>M4h=8\232\031<\317,\210<\017\3142>\267\301\242=g\365$=W04=\026\002\001=N\316X<\355\255\374\275\002|\212\275\034\230\237;\227\221m\275\020\000\250\275\346{.=\365\310\022<\33547\275i\3022\274\250\026(\276ae\323\275\276\364\275<ao\200=\265\273U\275\226\257k\275j\344 \275\361!\013=(\352B=\362=\235\275\312\231\032\275\264\'\027=L\235k=w\326\325\275\217\2745\275u^\316<\305\326P=\335\323\371\275\344\241O\275CrO<22C=\374\036\332=\234MD=\361g\021=\300&\254\274Q,\224=\000\220\337;(\230$<\364\237\021\275L\370Y=\304\007*\275\246\2070\275 `o\275C\2106=\324\033\212\275\034\353\256\275\t%\221\275\245\371e\275r\262\356;-\303\035>\243\022`\272\350\304\352=\244\344\246=\243 \262=\316\334J\275\321\n\035>\014\375\200=\006\013\005>|\033g=\210\243\r>\215\3114\275O\226I=}\265\273<$\022\002>\217s\212=\210\031h<\'\221\202\274v\252\367=\361\034D=\277\342L\273\210\243\305\274\353\364\001>\364tA=\256z\033\272 \245\222\274\2150\016>\013S\207=\350Q\252<\376\264\237;\351<N<\r\214\256=:\254\300=\335J\352=\256;\004>\323\344\006>x\007T;\n\357\004\275{.\206\274\010\211\014>\202\355\002>\262<g\274\177A\025;\034\035\024>PR\027>\201\227\274=\274f\240\273\372oG\275\317\212\324=\203\203\232\274@\207*\273\245\346\330<\271\233\037\275`\233%>X\341-:\034-\025>\261\220&>\230I\216=\325\262\362=\230B\322<\013S\333;\326\\\330=\343F$>n+\313=\353\277\023\275\302\022\243\275\244\016g>#^\006>gr\227\275\021\013\372\275\023\336\223>\252X\032>\001\243\305\275\205D\024\276(m\253>9X#>\244\337\237\275gT\000\276\034T\213=\264\363\031>\205\314\202<\325+K\275\261\221\263\274E\324\366=~\261\332=c\240\024=M\256\252\274V\336\211<\375\226[\274K\325\"\275)F\250= V\350\273\014\202\270<\016-#\274\257\236\257<\001\245\373=\360\363(\274\000\374\000>\251$\253=>\235\256=\243\362\252=\332g\234=[\371g=&|\314=\217\303\013</&39\321\304\002>\353V\343=|o\000>\245\322j=\206\2070>w\360\307<\370a\035\275\023\253\032=\241\240(>\355:o\274T2\020>\325\2527\275\202\251->\226\025\231\275A\324H=\311\276\362=Q4\033\275\014\375g<M\227\323;\324\366n=\224a|\274\376\252\364=\360\345\004\2762~\244\275\3047\245\2758\312\261\275\"2\024\274*\334\266<DZ\241=JJF=\023R\207=\276\365\004=\320ge<\330\033\267\275\275\345\271\273vrP<0\005\360;\367!><\270\376\234\274a\246\004>-\374h\274>\323->]\260M\275\300IO\275>\231\336=]\'\016>f*\240=\222\324\314<\237\357\325=#\223\212=D/\005>\n\355*>#\000\342=\313I\327\274j\334\026;\232\237\022>\272\226\311\274Z\305/>EG\331<\345\360\273\273\010\246\230\274|o\016\276y\'h<J\353,>\031\033\034>\013*k\275\0034\251\274\323\311\362=\215\274\016\275\004b\003\275\337\2463\275\016#J\274&\301\345\275\217\363\326<q\265\256<\365f7=\016/\204<\270$\342=,Z\304=\333\t2\275\017z\237\275\370\350\037\275\226\256*:\360w/\273[\3616=\n\3074=\024/ =\242\244\347<#\250b<1\030\311<\242\271\314<\tAZ<\025\360\264\275c}O\275 \207\327\274\010\347\346\274X\300:\276Y\264\002\276*\361\256\275\2442\227\275\342\222\217=\306_\253\274\201;+=r\215A=\177w\203=fRw;~4\">\235\252z=\032\242+=\013\375\025=\016\032\336=\365\2555\275\217\r.\275\002\302X\274xl\201<\324\234\250=u\031(>iS\035>b\264\342=.\343\000=\206\243\t=o\225\035\2756O\374\274\032\212\210\274\342\340(>\333v\205\275\310\201\250=I(\\=3\357\227<6b\n<H\216\007\273\004\234\232<\202\346Z\275\305N\033>1\340X<\005b\366\27412\333=\226nU\275q6\342=\226\336\377=\022\200x\274\330o\3559dG\217=PCY\275\224\352\354<\327\372 >\211\363\237\273#\362\036>\312>F=\206\305\255=\274r\245=\226Us=s\250\031;h -=\357\007#=\345\301\334<\002Q\036\275\006~%:\002j\t;\366\032k:\362:V\275\374\264\212\274\315\334[\274R\242\003\274\021S\256;\356\365b\275\216R%>\3429\247\274X\356\372\274\322\324e<\210\231]\275\301h\013>\317\316\337=\034a\223=B\345\343< \2260=\315>\201=X\325A=\224t\036\275\307\303\244=0\013\205\274\204\316\021>\274\341p\274\023\262\243=\341\r\314;2}\267<\2775\314\275\227|\334=\312\364\355=\205%\356<\250Q(=x+\337<\222M\034<\310\353W=\260M\231\274\216\317\320\272a/\320=/t?=\377\0013>\225U\302=,\205Q=\037a&>{:\317\274\023\212\007\275v\221\021\275\325>\301=!\177\016>\031\314\032>\372\277)>\251\366W=\271\2205;\326a\016>E.\360=\216\244.>\340\032\236=\365\\\215=\336\226N\274*J3>\272XD=!\314\334=i\371\346\274\3257q\2754\243\217=\270Q{\274rj\340\274\273#\007>\333r\214=\225Q\234=\266L+>X\021\332\274nau=[z\221=\212+\"\275\346\255\310=/7\032>\037\306\n>Xt=\275\317\201L<\336E\336=\334e\321=oC$=L)\356=tb\\<Y`\010\275\005^\037=F\r\336\273\324\270\374:\332S;=\300\021)>v5\324=\324M\270=\260a\022>\273q\220>2jI>\257\202%>\274\232U>\362;\333>b\241\306>o\253\261>\000/\261>\361\242w=\343WU;\342RG\2757\006e\2753\223\204=\212k\">\224\003\351\273 o\035>Sc\">\324\327\303=\365p\014=$w\202\274\200q\324=d\266\242=\340H\330<\376\244\372=\354\025\2359\276\001\373=\200\366\177;\317\303t\274X\177\360=H\340\021>e\026\025\275\270\235I\275\333\216\214=v\373\342=\256p\300\273\223\323\336<\260@\333=TW#>\371\245\273=<4\246<\036\314(>\310*\317<^\\\013>\323\367\031=\357\365z\275\007X\276;\335\204\235=\306\\#=\247\251W=\030\004\270<y\005\034>\220X\016>\277\310\204\273G\204L\275P\231\037=m\262\201\275\265\247#\274\214_\332=\227(l<;vf=B\274=\274\n\214A<\270i\306=\310{L\273|\355\263=\245\355\336=\"\313\203=#_\262=\236\365\033>\250\210\224\274\217\036:\275\377=\376<\377/\324=\265\377\275<\0348\035\276\272\356\323\275FK?\273\\\334\032\276\374\005\251\274B\334\240\274iG\352\275\2638\234\274\303\301\027\276\336\341\025\276\016\033\331\275\2075\206\275<Q\006=rt\312\2753\260\003>\345\323M>\356\235T>\016\032\">\216\255h>\244o\261>\345\323\263>\201r\201>\222\232\217>\221-\331>:3\334>\222j\237>\312\216x>\344#\270>E\372\272>\230\347\213>\357\226=>\352\023\300<\313\240\273\275N\265\005\275\t{\216\275\231\334\303\274\203\344A\275\347\267\377<C{\204\274\n\333\'\275\273\243\023>\304@\263\274\013\335\352\275g\'Z=P]\301\275=\224u<\236\257=>YZ\353=\352\032\223\275\204\001\247\275\014\376\031>6\000\332=\2620\256\275\323m\372\275\r\320\005>&\375\271=\034j\271\275:\366\035\276\211x\010>9\231\233=\377\273\255\275k\031-\276\370\233\317>\256\277M?\003!X?\241\013\004?>\262\355>q\267\202?Bi\205?\226\360\021?\032=\316>\325\263\201?w\215\207?\364\267\007?\342\362g>\244\017,?i\265/?l\234\255>Q\347\r>R\256\310=\3565\\\275\235\266N\275\007\215 >$\335$>6\337\374=\213\013\027=b\260+<-y\026\275\217*\216=ot\225=\371\020+=a\305A=g{\005\275z\263\256=\\_#\276\353T\223\275\353\n\367=\257\305O>\345\3165\276\000\256\305\275de\007>\370\260b>\3214+\276\362Z\327\275\253\205\373=[\344l>G&\003\276\362#\254\275T\036\330=l\365g>\206X\262=\223\261K=\367\215\033=]#x=+\331B\275 \260(>{A\355=\334r\221=^\304P=E\311$>\235\023\324<N\240\033=-\252\t>`\336\213<\372\213\372=\346\2330;`}\026>\321.(>k\277\035;\327,W\275\347\322Y\275\212\006\305=\364^\331=\2447\340=.\025\\=h\374\023>\304\036T=\265_X\275\327\304\273=q6\276\272\252\265f\275\037\372\032>\221\370\257\275\014\344\206\275\262\224f=(W;>}\312\272\275\030\311\225\275B5\221=\244nm>\2125\203\275u\344\010\275\3229\336=\314\331\214>\231\322&\274\323\325\014=}\376$>\353\231\237>\300\216\n<\"*\026> \352\025>\352l\253\274\2579\331=r\342X=\217\2043>i\022/<\276\231/\275\206\255\266;\373\217\277\274x\210\256<p\242\220\2740\216\214=\373\256\362=n\360\322=\360 \214;\353\302\017>\013\026P\275\3377\005>\250\324\307=\364\317U\275\365\023\016<\201\363\265\274/\nt=;\311*>\244RN=t\235\332<]n\352=\275\365\347<\307\324>\275U\312i\275\214.\344=\256l\343=\243v\017>\265&\215<\335\257\353=\351n\322;\305\"\307=\357\202L<!\3623>\032*\265\275\375\006\356\273\257\341\321\273\214\366\r9V\217\342=\311\335I\2740\251\255=\266\240\224=\305\r4\275\\\320\343;\"St\275J\306\315\275\333Qx=\206?t<r\210\316\275\305@\300<\300A,\274k\201\235=\022\207\020\276\366}J=\360\252\027\276G\030\005\275\177\034\362\275\003\3000>u\205\355=\\\267\326=$\024\331\274UR\355=\030\371\272=c\342!=\301\3373=\273\3703>\265\334#\275R\200\230=\200\023\320=z\211\313=DV\351=L\2041=\035>2>\342\004\023>\314f\332=\226\"\336<F\260m=6\023\355<\177\\\313=\0375\356=p\312T=\nq.=;\223\250\275q\242\004>\264\\\355=)\206\330\274C\341\027>\212O\035>\223\313\336;\247\250\022>\223\272\025=\241*\275=58h\275\2650\337\275\352\275\264\275(m\252=\3237\207\275rj\177\273bt\335<m\256\001\275s\337\236\275\301\016\342=t\322\325;^\3170=7\373\257; \374U>l4\224>\267W\201>\262\362\330=\260\365O>dZ\216>\312^q>\266I\263=\021\007\315=\310o\001>\215q\236=&L\351\274\230\356\317\273\201Z\351\274\030\305\244\275\213e\022\2764x[<\334e\230=D\223+>\243\273e\274\"\356\354=\201\2610>\007;\306=\234}O=\'\316\"=\317W2>\315\031\233\274_\270l\275\353\257.>S\264\242\274\261\313#>?\000\313\274\224\237\322<\335\363k\275_\341\333\274\246\246\351<\234\222\356<U\021\037>04\273<i\010\264=\343A\031>\315\260D\275:Z\265\27352\263=&A\">a\254\326\274-\205\n>\004\346\243=]\355\225=\223\2635>\254\216\006>\252\025\240;\326\037:\275U\233\003\275QM\323=@\\\2659\316V\n>6&\014>\312\345\310=\373\2603\274\242\320\272=\027#\177\274 \364y\274\372\373\314\274\241\373\251>\362%n>aT\000>3V\310=\201\023\205>\375\275\023>\014\313\302<Cr\224<\030\302@>s\032\207=\024UE\275\020X(\275\206Z\016>\260&\346<i\305\204\2759\346j\275\210#\374\274\271M)>\221\310.>\255\353->\024\027\356=\367\367\t>\003n\325<\2510\336=\215\352\n>\036r0\273\357yG=\360V\030=x%\322=6:\347=6*\024>\360%\234;\033E\377=K\200R=.q\240=\376\301\021=\214x\345\274\254\370\344\274\030\002$=\3742x=T\337E\275\272\364j\275\377\3535\275\364\206\237\273\205i\244\275\372W\271=\205\200\221<\342\302\240\275\336\n\257=/y\272;\346<#<\036\332\342=\025\377\353<[\363w=\350O\345=\270\022\">\240\266\324=\021\227\'=\027\0133\2751\277\016>\233\242\036\275bc\016>m\340A=\313@W\275\304#\341=\320\3040>E]\260\274-\250C\2736+\025>\007#\247\274\302\314l\275k\270\003=\024\302\373<\177a\361\274}\276\177<\261\000\302=\"\352&=t\231\"\274`U\217=\027\3701>\3033\255=&\217\022>V_l=<F(>\214\350\023=\331\231\220=9\243\272=\010\345<=\344Mr;\315\211I=\205\364\231<\207\240\032>\357;2<)\243\300=\200Ah\275\260\377\232=\215\363\266\275D\001\205\275e\352\t\274\210\255\373;K\330\302\275/\203W\275\004@V=Q\250\301==|\244\275\004m\321\274\350M\352=\330`=>\3209\004\275\231\203\260<\366\211A>\251\377\226>\323\271\345:\314)3>\014\376\206\273l\372\3279\3121)=Y\217\037=b\252$=\344\321\311=h\344\314=\372\007\031>\303\243\203\274q\250\000>\330 S\275\205\354\000=\370\033\367<,\375\272<\034\201\264=\001\334\017>\352\030\336=\311\257*\275\224L%\275u0\240=a/\370\274\\Y\361<\024\021\030>nc\233=i\213-=\305\203\374=avT\275dO\023>\374r\221<\223\211\025>\354\243\023\274\377\027\">\306(\031>\023\330\265=\311\362\224\274/\313.={t\267\274%\362\262=q\266\261=\240\376\224=\364]\324;\3548\354<&\320\270=\001\017N=\004+\371=5~\223\275\331\252\270<fTT\275\367\264\302\274@9\333\274\274\364\317\274I\343\013<6\261d=t\273\214=\275\273\'\275\313\236\036>\\\351Z=\360b4\275o\314\342<uW\227=B\032\002<\002\226\372<\313\'\233=\034\341\017\275|,\t\2748t\024\276\326\264\213=\322k\030\275\205%O=:\206\000\276\275\261\302\274\305\013\002\276\357\003\221\275=\306\337<\346\200\002\276\030M%\276\224m\362<\263K\n=\207\335\306\273[/\213\274K\3356\273G\333\020=K\317>\274\244\r\317\274\255\311\004<\351\222\254=\370\346d:\301\311D\274aS\370<\315\276\376=\365\332\247<\351rW<\305\245A=n\265\365=\226\315!\275\324\007\345=\027y3\275\025\346\216\275\354\267\357=\251\243\003<\373\017-\274\314D\226\275\313be=9\246\314=\216\214\001\274\026\342\226\275/\025\304\275\241]\004\276\206\337\305\275\021\226\031=\304\331\003<oG\211<\351\2160=z\277\331=.\274\264\271\006\362\237\273\353C\277<\305Z\231=\264\235\367:T\202\356\273.V\247<9k\213=\370T\320;\341\356\010<\006\")=\324\251\271=*\371\023\274\373U\034<\212F\"\274\037\"\033=*\265c<aF\002=\343\'\203\274\200\303\354<\230w~\274\330l\0079J\267z\275\244\261\236\274\215\273J\275k\273<\275\354N\334\275\237v\235\275\037}&>\035\317\034>\313\325\023>\307y >~\263\260\273\322(\374=\363V\321=\214\333\277=\221&\241=\271\222?=\235cM=\377\266\303\273I\252J=\372c1>\t\352m=T\2308;2\204\207<h\353\301<\303Y\007\275o\347\001\276z\307\351<\000(\335<\341\226\033\275\302\360\000\276\276\000\353<C\3704<\014\3101\275\210R\351\275\234\275\320<\310!\215\273<\375/\275\331\371\264\275\315Gj=4\216\344\274\356r\032>\021e\347<weB\275o\212\\;Yna\274\233c\007=+\221\014>\312\303\n>\335\346\222\274\343=\373\274B\321\307\274\317\304?\275SD/=\344?$=\212\033\361=\364\n\310\274\241\263\r=#N4>\021\316\r>\300\335:=\231\004\035=\204*\013>\361\244\260=,\002\336\274\303\312\355;\324\327\021>\273eO=\"\212\327=\260\274\256=\324Q>\275n\331\307\2732\232\205\274\226h1\275XJ\223\275p\252\207\274\246\376\254\274\t\257\034\275\345c\202\275\340}\213\274L<X\274\311\364h\274/\004\370\274 \247\226;v.\203<\322\000\316<&\257c<\212\376\002;\013\021W=\033i\210<\250F2\275\372\341\302<k\3111=e\021\t>\375\023\014\275v\2145>\371\252z\274w\036\030\275\263\325N=\250\343\226\274\022\265\017>F. >\032y\000\275}G\023>\257\231\270\273x\035z=\356\307\023>p\300\014\273\036\037\002>\327\373\357<B/\202=\023\3252><A5>?\301\216<\226a\000=\307>\236=\307P\277=J^!=I\022`\275I0\322=\rE\353<US\351=\340\343\032>\005\004V\274_\007\315=-\322\021=_\260\005\274\257\344,>\311\300W=\374\204\370<\373:\270=\273\230j\275r$\007>\345\336S=\215{0\275\226\277\275<\304\310y\274\217\302F\275\003\\\311\273\031cw\275\322\215\314\275\204%\027\276\225\010\337\275\217,\354<\357XX=\355\375\363\275@$\216=\256\337G=n\245\217\275?\3151\275\243\032\010=K\306 \275\010\031@\275e\377L=LS\371;\240\261\004;S\374J\275\362 8=l\036]=\326m:=h\026\327=\013\350v=E$\333=\001Q\227\274$\021\021>\350\206\313;\300+Z\275\264\2060\275\030\003\316=\366\200\200=x\"\017=\342\350!>\357\224\020\275\261\007\024>\014\0214\275\\>->\250W\312\273\3254\343=\322\224\237\274Hw\262=\300\244\022>e\016\036=\017K/\275;\267\211\274M\037\210=$\2211=\032{\242\274\206Z\250\273\033\'\r\275\206\216a\275\3561\274\274\013/\235\275V\340J\275\350\232\003=\331\000&\275^n\023=\304\316\343=|`D\274\367\316@\274N\241D\274\355\347\257\274\001\203L<v|\337=\030\262\275\274Z\001\352\274\314k\320:~\344\277=\230H\'\275\351\213<\275p/\377\274\240F\300<\030\017q\275\300\263~\275IIp\275\033\357\026\275\336\267\214\274\005_\230=\222\272\260<9\262\311<\177\314\024>/\362\276=\232\256\241\274&\036\206\274]z\303:\\\316\231=(\027\222=\177\027_\271\332C7=\0240K\274x[\212;\000\336P\274 \3276\275\323\366\037\275x\356\023>\006\000@=\222Ga=@\264\344=\246\201+>P\220\331=\204\251\010>\235\216l=\251B\">=\300\n>~\200$>\037\374\307=!\005\306\274\231mD=\203\353\030>\237\0060=4\226\326<-i\231=\236\235\354\272\340\017,>\340\227\024=\250\227\321<%G\223=\010\241\200=(3\371<`\315\216=_H\204<\276\356k\275\343\324\252\274\243,\r;=\233\013=\310\327\272=\242\304E>\364&\201>b#\244\274S%&=p\206\033>\030BA>\335,\200\275P+\'\273\021\307\307=:\243\347=i\240\202\275\262\025\235\273\340\252\235=\033q\240=)-\214=sZ\006\2753\201\370\272\t\263,>\304)\214=\\\325\301=\010\370\021>P\327\213<\220\261;\275\275\243\256=\321\031\246=\244\373\304=\356\r-\275\321W\304=q\034%>\372\202\177=\016e\344<>\345\325=E\"\232\275\355.\270=\243d}=\200\362p=C\3059=\004\322=\275\252;\313<W8\317=\271\370\377=\017\203\002\275\tv\277=~\243\261\275\372k\361\274:\031q\274o\255\214=\335b(>\337\364U\2759j\266=/\356%>\276\323\257\274\031\207A=\206\337\206\274\215l\222=\222~\227=\366\006:\274\034\206\272=\262\271\251\273\"\205k=G\331?=\262 .>\246#.>[\376\242;\211\205Z\274\234\326\211=\021\240\245\273\350\024\247=\260\275&>\211\004m=\276\315=\275\217B\206\275\356/\226\274k:~\274N\323\375\274\335\337\267=O\220\'=\317+\004>s\014\341\274\322^\257\274\027\243>\275\340\'\261=\025\204\234=\301:^=npk=\356\205\252\274\330\362\353\273\240\340\010\275K\337\211=Kv\212<f\266\232<g]f=\202\347\021\275\325N\305=\320\037\323<k\007\262<\346\037\267<h\215\252<8\025\2508Ek\006\273\224+\260\272\210Hb;3?\004\274\037\022\213\274\3309\360\274\224\325\227\274~\274\304<\354c\231\273\255\217W\275n\360.\275\330\203v=\331\220\004;9\327\334=\213\220\250\274\234\302\256;\254M!\274[\355\275=w\001\032>\242\2761>\277cr=T9\354<\360-\014>\006\007\036>o;\364<\201\021\005>\0105+>\203C\255;\224F\374=f\313\337=8\3611>\363\024#=\224\351\022>Ub\r>\255\200\267=\312\177\246<\220\0340>\370z\325=\177\204V\275j\362\311<\216\341\014=\215Lr<\013N&>5\301\223=\212MB<\007\326\233=\334\201~=\025z\374\274\335W\335=\212\033\240\275R\367\247\275\254S\342=>\334\273\275jp\025=\314\361\345=\321S >L:\216<\235}\333=X\037Q=\031\365\235=\313\000\013>\346\313\022;u<\026>#\000k\275\241&\354\274\370\265\303<[\323\246=?$R=\362\260\347=\312\355\003>\327\375\030\275\227W\022=V6\277<w\272\242=%D!=#\033U=\374\276\031>Q:\375\274\302\255\025\276\003\256\235\275^\325\324<\'(\232\275\235\307l\275tM\006\276\n\031#\276\320\257\024\276\275X\363\275\3019\n=$t\034\276\350\036G\275\321\031V<\302\244E<p\330l<J{{:\372\303\310\273Q\t\232<m \245<\263p\250;\247R\262\273\025\216\221<\376@$<\2463\226\273\363\324D\274\270\337\332<S\033Q\273SU\251\274\302\274\240\274\014\0326>+\3536>\304\231\022\276\346L\005\276N\347\353\274\243G[=\262\312\276\274\305\353y;\177e\2509]\357\325<lo\335=H~c=\337\256\014\276\257\016*\274\304\025\305\274y\266P\274\036.\364\274\377\360r\2749\235H<9\217b<\3238\032\275ux\263\274\312{\214<[;\311<c$J\275\345V\372\274I\313\371<\366\016\017=\376\035\217\275{K)\2759\023\032=N\013K=3\366\334\275\356\036>\275\346\211J\275\312y\213\274\256\207|\275\037\021l\274x?\310\274\014\221\344\273H\206\205\273\t\331k<\366\025\344:\030\222X:p\264_<Xx\366<Z\222\267<\320\005\252\273\006\334\030>\301\255\265<\031\361\314=\306\304!\275\342\r\317<\004\346$=\202\311\004>\362\217\306</\025T<\265\365\234=nn\030>c\t\261=\247\324\200<K\007D=\352\341/>\300\026$>\004\246\333<=\320D<\257\270\233\274W\232\341\274Y%_=\354\243\322<\267\346\206\274\250\202\334\274\341\362\274=\260UH=M\026\020\273\340\310\250\274\271\263\366=\315\223j=D\206\233\272\324\333\260\274\255,\246=\211<\\=p\027\243=GtR=f\014Z\275{\2556=HK\337=\036%\252=\373v\204=Ah\312=\273m\005>q\320\367\274\376pf<mC\t=\216)\305=T\301\001>m\345q=$$+=\3143\361<\242w\233\274\333\'\356=\323\227H=\237\3638\275#\034\023>\362\264->\350-%>\247=s=\000\233\364<\315\325[=;\336\025<&\017>\275\024\363\001>S\213\271\273\265s\361\274\334H\026\273\355:\214\273\372\306C<J\337\306\274\014\271\020;\363F\327\273\333~s=*N\005;%\341}\272\n[\213\274\277\204\361=}\325!=]\223\274\274\232CF\275\342 \266\274\370U\247<s\374p=\312:B<\364\311\253=K2\346=\234\224\215<\005\365\033>\327\231\203=\033\220\035>\275o\014>\312\315\t>K\225\026=\303\244\035\275C=\340=\224\205\032>\233\370\005>Sz\336=}\3576=\316\214+>\347\277\336=\332\366c=oB$>\357\370\037<\031\200\320=\r+a=`j5>\034e\032>$\262[<\201\346\206\274;I\270=\360\010\253=I\033r\275(\272\006\275\025\006\304=\265\337~<\0014\246\274^\032T\274\375\241A\275\342\322\\<\274\311->A\344\273\275\224V\r\275,\2551>P\243\003>\332\030\260=R\217\326=]B\313=\342\212\210=\310\261\">\251\334%\274G\024\211=\216\251\224=`\335K\275\324f\277<\37798\275_\276\247\275\363m\221=~\211S\275Z\013\177\275/\026\331\275\251\222\252\275{\231\331\275\263J\262\274\334\200\r=C6@=\335\347\266\274\343\351\373=\'\310\252;\177\020\361=\267\261->\325\004\266=\227S\031=\365\'\356\2735\\};\037\007\326=o28<\2656\341=\254\367_\275\232\303\002>\014\356\246=\363\344\330<IK5>\202\342\252=\',B<\262u\367=\264\333d=q\305\353\274Fo\002=v\212\361<u\370\355=lF\244=1d\031=/h\304=\007\352\331=\243\357\314=-\257\332<\315\210\341=:\026\367;Z3\303=\357\301\240=\220\030\351<\340\333\014>\370\203\336=\366\233\200\275Z{\005\275\337\302\373\274\rG\224;\2370\014>\206\346\013>\324qG<\265a\205\275n\231 \275\"\344%\274m\033\211<\034m\250<:\013k\2758\204\251\274\324\254 <\207\374\216<\\\250\t\275\271y\275\273R\277\252<X\010\374<\317\030y<::\367<D\2507=\032=B=\2270x:Ut.>\216\023G=\332\221\023>\366\020\016>\333\030\224\273\2450r=\236A`=\271\033\351=GL\214\275\210\316T\274=%G\275f\242\205=\222\263O\275\254\026k\275L\345 >\277\205K<c,\356=\212D\035\274\326\010\004=#\235\t=v\233\345\273+\306\273;\364\030\025=`#\373=\363!\270<\031WG\275\230\310\374\274x\372$>\010\223\303\274\347W\246=\275/\000>\346\314\"\273\302y\207\274\352>\244=\324\335W=/\230\007>\205\010\323=\355^\376=`\t\245=\266TN=H\314\274;a\201\005\275^\r\023>\302\326\'>\321\237\377=M\274\360\274\323\376\376=z\014\006\275m\310F\275\333\360B\275\352\314\r\275B\375\243;d\210\314\273)\231\247\273\226\036\276\273\266\001\002=?Y\351<\215\200\346<\304\305W<\345/7=&\004K=\337BA=\233\327\321<\005%\3339\311\316\021>gg\'>`\223\336=_\3275<m\311\213\274\255\360\377<\020TF\275r\021\033>\207\327\332=\321U\244\274)\000K=\272Y\247<\213 \263\274\206o\031\273\317\330\207\274\233QB<W\344:\275\374\025\037\274j3\370\274\234\350\247\2757\213\274=\303\377\215<1\317)\274\246v\007>>6\221=y,\266=\257d\205=\344\027\201\275.;\337<J\231e=\325\272\016\276\024O\254=RJ\240=}\260\326=\233\366\260\272{_\270\274\001\314\017\274$q\306=o\332\316=gc\347=\277\241\265=\311\237\017>\201\230%>tI\214\274\3206\n>V3}=\353\347\026>YD\350=\344(\204=\343\315\260=\332q\333=\311\222\270;\314\360\323=$\025\000\274@\353o=tL\332\274\244\316\006\276\336\370U\275\252d\031<i9\014>\2718\371=\177\204\010=M\264\337=\202\346\025>\244\230\262=s\004\005>l\375\355=Q\2070>\252^Y\275\341\374\t>\333\322c\275:\032\036=\271r\217=\022\300\347=\013\215\231\274\2667)\275\005\342m\274b\\:\275\241\003\243<\256f\003=\002U\"=\024M\033=\323\372\002=\236\307S<\251*\245<\302`C<a\340\244;\013\234Z\274\0353\004\274\356\207\014\274gI\t\274\202\244\257;8\244^<h\317\273<RB\341<\230o5>.\344\301=\255\004\240=_>@=\263\002\030>\224\302\037>\261\214\022<\277-\353<-\333\245=+q >j>\037>V\214\312=\200\356\352=()\215\274\306\006\371=\024\222\036>*x\020>6\205-\275=\250\355=\312\245\010>\2047V=0\237\316<Q#9=~\303~=\260;V<\320\346%\274\325\344\324\274\240?\360=:\345\265<EvT<\2210\247\274\2119O\275\327\024\276=\315tX\275B\251\357<\2702\362=cv\265\275\010\215\247\275\2069\213=Uw\313<\331Po=%\317\305<9\216\363=\210K\004>\221;\316=\310\325\255=\0348\236\274y\020\300<\316\361\020>H\345\203<\256O\014\275T\243U\275\341_\312=V\201?=\276\311\010\275i@\003>\201a\\\275\313l\345\273\356\"%\274\275\305&>\210\327,\275\267\273;\275\342D\002<\374n5\272ub7>-\337\376\274\275#\307\275)-\307<M\343\362\275|\032g\275\255iO\275\355\247f=\321Xz==`\207=L\261\244\275\250\264\217=\221~f=V\316b\273\374\337\200=R\353\234<\326\313\332\271\330\3215\273\354^1<\037:\300<\366\236\204\273\304\322\353\273FO8<G\"\370<*\343n<\261u\230<\304q\014=+l<=\331\016r=8\376\263=\314\251\311=\317\245\255=n`9=\352\262\362=\236\025d\274\017\320\223\275\324Er<\020|\224\275\301\321\214\275\206\307\033=B\213\222\275\006\356\250<\240\352\006=\252d$\276^#X=KQ;\275\365\r\313\275\264_A\275\020\214\'>\371\370\277;\356C\003\274,<\001\273\357\335[>m\352\007=|\301\240\274\005\206\016\274\310\250}>\3302\205=t \005\275\263i\311\274\346\361\210>~W\312=\315HR\275\317\344c\275I\325\270\275~\236\365\275\205\357\364\275\354\266\027\276\223\016y\275\304\307\207\275\237\006B\275\tK\251\275s\006T=W\212\270=\243{\345=\247iV=\017\307\024>Ayt>H\022\203>,\335\036>\235\025\005=!\306\251\274=\337\334=a\271\025\275\233\037\321=7F\026>t\342\354\27418@=\247E\246=\004\020\002>b\2312=\260F\373=\026\356\220=,\002w\274\252\355\351<\030R\016\275\220\272K\275\317\215\231\274\217\365\231;=\257\023=Wm\250\275\312f\354\274T.\257<\207A~=\344\332\346\275\224\271\"\275\3759O=\317\217\320=\027\224!\276\001n\200\275\227\373\244=\351\"\024>6Ls=.@\227\274\244\307\317<\241B\340\2748\233D=b\2455>Y-O\275\240y\017>1D\333=z\235\212;n\326?=\353\007>=\032_\022>\235\361+>\027b]\275t\274(>\225;c=\264\273\340=W\261\215=\365\001.>\337\245\031>\323\320{\2734\225\262=\304\331\360=\357\346#>\2654+>\323D\005>\321\r\231=\211?\000>B\237h\275\217\030\007>\001\226\267\272\352\312\235\274\014\022\022\274)\204\004<G\200\342<;j\014\275\363>\202\274\034\321\212<u;?=9\177W\275\020A\334\274e \374<\270\036\257=\364\364\253\275\310\353x\275\002\342\324<\266\005\371=\365/\376=\266\375\306=[\036\354=q\0303=\253\356H\275&\261\375=N\323\005>\347 \002\2753x\006=\307! >\026GJ\275\253\246\321=\311M\004\275\322\023\016> 7\223=\344\331\t>\307\0270\275+\326\217=e\206.\275G2\223=8\224\322=\254\':\275\341\013\255=R\357`\274\374\001\343=\300\340\363=\320\024%>\273o0\275\027\025\275=\n/W<\246$\322\273[\310\254\274\'s)>\037\220N\274\021=\206=$\375\347<\263\220\022=\337|\305\274\363\314\214=!+\007>\232\016\345=$\246\026\276\365^>=\325\336I=\007\372\t\274P}5\275:4\347<\316T\304=bI\310=\365\331\t=\261Y\252\275\220w\203<\n?\243=\247d\230<\310O\356\274\277\005\344<\035b\002\276\017\311$=q\003\252\275\223qU\274\030\035D\274\306\2219\273\246\273W=\2242\246\275\321O\250\2742\246\245=\372\251\341=\352F\007=\216\214 >\0260\025>:S\354=\300\203\323=\243~+>\211\037\264\274i\312\253<\241\375\221=\311\213<=E\350^\275\301F;<_\2624\275;\225\261=\212)\221=\314P\262=\034\265\035>\341\260\366\274[\200\346=}\321j\275a\242\020>\030\2512\275\364\320\255=\316\307Y\273xw\213=R\224\345=9o\337\274\300\271\005>\024\253\237\274\2037~\275\034\027\273=\232\322\210=\315_\365=\3502\356=2\236\266=\365\220\261\274&\246@\272\253`(=}\013\003>doe=ki\317\275\342lH\275\222%,\275\264-<=f\364R\275\311\206\022\273\306z}\2741KA\275\220\032\230\2757\352\037<\310eK\2738}=\275:\327\270\275\364\255H=@w|=\214\362\224<\340\210^\275*\330\365=\210\323+>*\026\004>(\340\242<0\332\022>T,\237\274\n\020\236=\r\240G\275H2\344\274\000{\002>=\246\030>P*\013>\013e\307\274K\303n=qF|<\rCp=R\373\302=\302G^<\364\242\310=R\371.>w,\213\273\220H\306=u\301\302=\301)\n>\010\241\006>\020\262\014==Xe\275a=\n>\345\212\324=\235\036!>\320\257\002=\177\374\001=\224\014\215;3\256\300=\277\265\325=\r8\313\274h\305\020>3\350F=`\014\035>\023\333\002>\323w\005<u\322\177=\350\203\354=\021\330\365\274\220\006d\273qFW\274\246c\3219\342\303I\2751\206\001>\002e\006\274\2320\305\273\312\277\270=&\332\310=(|\022\275A\207\242\275!\274U\275F\370C>\302\003\325<aO\"\275\034t\234\274\325\013\220>C*\246=\031\003\360\273\355\357\213;\317\260\255>\225\277\366=\307\206\224<\273?\365<|\367\037>\304\n\344<P\tA=cA\314=\255\226\353<\350\333\002=EW\017>T\037\336=\216\272\020=\347Q\253<\273U\026=s/\376=\243W\034\275\3245\363\274\250\254\035\275\232\270\t\275\312\361\364\274\320\320\n\275\227j\360\275\330\264\326\275\204\242\t\275\333\372\203=\310<\355=\352\237\002\275\010\372\225=\360\225z\274\375\366\010=;X\302\275|\377\350\273\255\273\315=l7\364\273g\320\005=\016\030g<\357\217\251\274c-\374=y\360\351=\233\024\236\273\375\256\217;;L\334=\301\242\231=\253,\376=\363\344\213=\037\035\270=EJ\213=\242\323\215\274\177\017\304=\366\215%\275]\274\210=\267\317\374<f\337l=\213\2760\274\223\316\340\274i7c\2759\344\277=\354\331\242=\334#\031=\312\014\030>\261\320\033=\365\356!=\017D\020>\257\3328=\225h\243\274l\250\216=8\024\024>\025q\362=\246y\032><C\304=n\026\366\274\301\236\227<\332\224\n>x]j\273\334\353\212\274\217\271\331<\326|\334=\334\206\250=\343L\211=\2675^=B\337z=;\016\377=4u\005><\2014\274\0366x\273G\214\036<\275}\200<\271\"\002\274\350!\001\273\210\2166<\344\036\302;1\354\027\275)\342\003\275\215\245E\274\325\377\237\274d\345\214\275l\254}\275\304\205\242\274\224\'.\274gv\031>\321V\021=\306\255\243=\211\204\035>-\225\315;s \331=\017\257\245\274E^\010>\271\314t=\370\376\t=(\022\004>Q\006\216\274\213\002\030\275\3148\n>\026\270*>\342\304\317=\203\334)>\264\357v=l\321\263\2747x\232;\024/\203\274\307u\337=\225\256<=\013g\376=6\343\004>I\010\004>B\342\310\2749\331\371=,\306\t>0\036.=\212G\036\274\027\275;<l\333@\275\202\367\021;\307\272\232\274X\273\344=\362\316A\275\016\256==\021\200\237=\221\025%\275\223\002\003\274\355\327w=R\026\206\274\234:\315=\215\347\022\275\266O\313=\270\032\241<(\313[=\010\266\026=\206\2218<\344z\354;~\031\000>\300z\017\275\242R\300=\037G\264=\230\3054>$\035\266;\006J\340=be4>_\324\216=J\372j=\212P\030>7$\265=\233\272\270=\010\336\232\273\317\034:=\230N\352\275\256\364\204=\311\330\343<\221\303\010\276\177\221I=\016y\030\276\374\341\024\276\213,\360\275\270\363\014\275\014\"\330\275\330x\003\276\005\306\357\275Bjh=\330\"\214=\300\333\312\273\222A>\2729\375\353\272\277\003\024\274\345\213\276\273\200\031\2477\205\240o\273^\223a\274\346R \274\264\307N\273X\247T\273\177I)\274\363\251\235\274\233/\215\274\002\226\021\274\312\231S;\351\372\331\274\021T\360\274\024%\025=\271\320\301\273\341\003\271\275lV\233\275\312\352\013=\343\020\331\273\210\245\025\275\334\233\262\273\350\243V=\320B\304\275\016\205\267\275\342.\025=du\365<\356\277\253\274\367X\356\273\003~\031\272\345-\222=\365\r\">\376\245\233\274\276\025\242\274\357\260a=\360o1>\235D\216\274\316\343v\274\264\317o=\303\025;>\004\215\205\273\331:j:[I\221=M\214I>\247\307\036<{50\274w\310\233\274\343\\ \275\244\267\t\274\362\306\273\274>U\321\274\331\234@\275B4\247;7o6\273\262}K\273P\366\273\273\206\217\272;\336\275\236;?6\010;\317-l<\254V!>\036D\013>\004\352\253\274^4\034\275\370\026\206=\026?\021>9\243\314;\313k\013>\303\321A\273\301\353\274<\346\261\034>\242@\026>\342\245\254=g\300\027\274\002\274\027=\301\251\262=\237s8\274$Yl;x\355X\271l\347&\275Au2\274w\241+;\347j=\274e\021\212\275\243\2359;\'\013[<\341\035s\274!\256\275\275\006v\005<\250\tb<\244\002\366\274W]\001\276\313.\317=w>?=\006W\315<\273\252\256=\322\367\362\274\3528\330<\341\377\t=\230\204\210\274\233\243\024\275\371\352\014\275\323Q\030>j\3615>\031u7=H)\370=|\021.>0\217\246=\353#\304=j\344$<\352IW\274\351\332\003\273\320\216\334\274]\031\016=v\366\000>\274D\323=G\336\035\275\010>\252<K\325\243;-.\357=\006\017\205;\274\352s<\333\266\222=\254\315Y\275\236\363,<[^\r;\034\352\271\273j\235U\274\213\3328<\264lm8=\323\201\274u\003\342\274_\034=<p\245\201\270\272\250\334\274^&6\275\367\236\004;0\355p\274\313v>\275\366N\215\275\022\352\234<\031\272\271=\310;\036>\271\232G=J\267\232=\222wP\275y\262\333<\245\200\227=[\224\373\274\016\320\353=\2022O=)\203\016>\033\322\003>\t\322\315;\022s$=p\200$>?p4>Z%3\275D\204\210;\342C~<A\000i=y\0022>\214F\022<\325\240\255=\345\243\213\274\321\314\270=\356\301\305= \004\204\274\257\332\325=I\013\'>\022>?\275.7\374=\332\335*>\353\206\215<7\250.>6\3300>\032\3047=\035S\276:E\345\006>\2572\005<c\307\310=w\370$\276q<\365=A\207\347<\336\234\325\274 2/\275\263\306\r>\237\346\250=l\273j9\017y\005=\377(\r\276\325\265\254=X\014\337\273,c\034=\275tI\275\224^\332=\017\'\347\274\316\272\300\275\247\224\271\274\252\241\224\275\027\214\216\275\215\336Y\275g\253\370\2743b\375\2751\035\035>\037t3\274\232B\022>\330\304\t>\322\222-\274\330\213\330=\366(\'\275\211\275\270<8ly\273\333\307\212=\273\302.>\364\262%>eI\002>\301V\230=\0258\357=/\\\207\274oK\036\275\r\364\274\274\017\216\n>\357\243^\275c{C\275\255d\337=\242\217\310=\361r\010>\246\2327\275\021\241\016\276\210\326\266=,\343\361;\264=0=\200\377\035=\360?\177\274\301:\036>.7\336\273\350\213\331\2747\223\262\275\212Y6\272\226*S\275U\366\306\275\013\362L\275\312B4=\305\322\205\275\277\220\222=&\241\252=v7\t\276\340\"\207\275v\351\204\273\374\340\301\273\022\375\334\275=4\342\272\202\352+\274\033\360\327\273+\217\356;\000h\221:\277\344h\274\277a\010\274\262\327\210<~\r2;\023\204\264\274O\207:\274\360:\024=K\217\216;N\\\255\274\030\374\220\271J\262\226=;\260\202=\277\255\313=\177*-\274\340\331k=\327\026\000\275\364\020\212\274\351\374\205\274\375y.\275\023\223\254=3\216$>\320\334\216=r{\353=\304\341\277=\010\314\247=&t/>\013e\n=\314t\010=h:\'\275p\354\026>*\353\247=c\034e\275^P\250\274e\255\247=&)\036>dC\314<\236;<\275\013\'\334=\035o\014>\245\202\037>\241\365\315\274\204(\001>\0354&\275\261D%>\260\250\302=\354\231\251=\003\205\200<\003<e\274\271\231q=\345\021\362\272\237C_=\022\313d<\212\271\024=\211\221\341=\205\235\025=\3150\255<F\032v=9>\224=\366A >*Q\300=\366%\030<\214\236\n\276\371\364\307\273m\227\014>V\030\320<%\356\271\275f_\267=\351\r\031>\310\022\255<\317\240\036\275mTO>s\315\353=\330\026\260\272\320\263\032<\222\211\240>\034d\220\2743\362\013=\014\271P=\275L#\275\\J\200;\307o\356=\002\352\237<\311Z\377==\225\322\273\030\024\324\274s\037\276=\021\354j=M\006\335=\037\301\\\274\230#\013>\243\251\223=E\372\201=\3076\242<\270\257$<9:\'\275\\BC=\214LT\2759\214\230\274\324\327\316=\364\201\033=\304<\351=\372*\236;,\007\376<\356\224\t=sEa\275|\020~\275\340\345\274\275\025r\031\275\314_\241<\006\223\214\274X\035\250\274\227,\025\275\365\256y<\"V,\275\333\230\212=\343\261\330;!?\352=\003\206\037>4\247*>\026\013\224=\255\346\361\274\217\262\265<\3124\357="
      }
    }
  }
}
node {
  name: "f2"
  op: "Const"
  attr {
    key: "dtype"
    value {
      type: DT_FLOAT
    }
  }
  attr {
    key: "value"
    value {
      tensor {
        dtype: DT_FLOAT
        tensor_shape {
          dim {
            size: 3
          }
          dim {
            size: 3
          }
          dim {
            size: 64
          }
          dim {
            size: 32
          }
        }
        tensor_content: "d\247\274\274\0020/\275\021\246\217>o\277;\275\010\227\236\275\224\337\233\274\336\207\253<\225\365\333\274\206:z=\220A\205\275Y\346\370\275\206\223\243\275w$\014\276\306\003\365>4S\010\276{\'\200\275I\257g<H;\220\275\230 \226\275Xj\344\274$\030\260\273\325\216\303\275\025\225-\275C\271\005<I\264\024\275b\033\315\275\257\356\241:\005\201\325\275\374\203\366\276\034\310\301\275\350O\032<\340\t\\\275Y(\226<\2438\312\275@p\205=.vo\275\314\342=\275\231v\260=Td\353\275\364\251\223\275\363\210\270\274\2301\221\275 \374\350<,|\252\275\322/a\275\010[\262<k{\331:m\177\016\276R\022\376\274\022R\262\274\200\244\027\275\214\244\314\275!^\206\275\024-\203\275},\213<&\346\272=t3\230\2757j\273\275\253b4\275\246\252\017\276jSK\275p9\235<\203t\335=\001\361\354\274\347\n\210\275\211K\334\2733\277\'\275\355\352\225<\365\316\t\275\301\346\033<\351\237\352\275\312h\345\275\335\354\337\274\214\232\001\275\006\327%\274B\355&\276\021\030\241\275p\332\254=\356\200m\275\345\241\004\275\020\'\255=\203^\274\275i\220\016\274H5\227<Z\0002=\237.1<\242j\300\275\010\236\222=N\356\030=\2158\230\275\304\212\232\274\300\357\345\274\014\233\263<\232\250\017<I\201\237=y@\370\274\002\240\326;\271U\202\275\032}6\277\206\035\317\275\365au\274\207\325\230=G_\377\275\005%\310\275\0337\352\276\226\230\210=\0241\225\276\007\035`\276\032\035\255\274\364\020\221=\n\202\006\276\000\3206\275yZ\037<\314\261I\2755H\330\275X\024%<ePk\275hA\214\274\335\017\210\275KP==v\264\306>9\033O\275\343X\313\275\234\010\247\2752\320\234\277\207\301W\274O\203:\270)\212\010\276\346\313\303\275jG\330\275\322\201\307\272\341\237\350\273\301\210\232<\326\0161\275^?\320\275C\246\002\276\357\304N\275\027\316^<\245\312+>Z\007m;\0272e<\224y\201\276\204\227F:l\200\305\274\226\030@\275\341F\345\275d\231\001\276\243\016\024\272\204\336\004\2734\357\010\276\221/\327\275\227\r\270\275\266\013\\\276Y*\333\275`\006:\275\336d\320\275\025\035\300\275\221\333\354\275\306\326}\275c\260(\274\224\354\001\276\313\337\214<\"(o=\242\263H\273*\253\253\274/\001_=\224F\355:\026\004\327\274O$E\275\217\323\352\273\004\263\373\276aW\313</%\t;\302\326\234\277\032V\021\275\257\020\250\275\365\361%\275\027\300b\275R\365\200<2\256\007\2760\256\363:\351C\016\276Z.\323\275\346Mp\275\2405\232>\364]\277\274\227\312\035\275\336<\344\275\031h\221\276[v\201\275\257{\210=;\263K\274\360\365\336\274\340O.\2750o\216\274\010\250l\275k\302\267\275a6\210=p\'\263\275\334\337z\275U\177\230\274ru\344<>U\375<7X\342\275\336\213X\273\\\3237=t@\003<jx\365\274h\245\363\274m\312\203\275\031\n\215\275|L\267\275\033\177\351\273\\\037\033\274r\237\200\275\233j\254=\355\365\306\275\200\271\245\275/\003>\275fCX\275\372nb\275\316\024\020\276\262\247f=\230\032\016\276\216\231R\275\370\206\013\276!\202\021\275{\306;<\343\332\017\276\326.K;\224X\037\275\264\210\302\275p.\276;\343\320\002<\362\342\351\276(\363\255==\253\324\275?\322\300<\323\220\311\273T\241\255\275:\016\231=\016\221]<X\253[\275\356M\310\275\362\023[;\350:\275\274\024\030a\275\267\352\027=\222(\267=\262)\233\275c\223~\275c\\\n\276\357\345C\277\375\247\317\275A\310\337\274\207T\001\276\357\220\002\275\222\304\001\276\277\231\010\276\202>\301\275O\027\376\275\322\017\031\275q\273T\275NB\246\275)\031y\274B\274F\275\261\240\353<3\256\311\275\274E\236\273\215\300j=\r\3422\2750\2758\274[\3257\275\353\034\014\276\350w\327\275\270\204\352\275\373\022u\275\277t\001>P\"\373\275v\332\265\274\321v\241=]\347\024\275-\303Y\275\211Sz\275XQ\006\276q\007\352\275\353\332\031\275X\207\336\275\306\210\r\276\301\205W\274\037\326\013=u\253\025\275\025tG\275&\375\215<:\352\227\274\346\374\005\276\262Ws\275T\3725=\232\245Z\274\205,n\275\267z\177\275\341\000(\275D\037\206\273\335f\236\275\247\205\264=\376\360\364\275\343\353\261\273\031Vt\275-hT\275z\t\021\276\300\315\005<,\315\272=\240\2225=\315\004\216\2737\335\024\275_\0210\274\277\003\363\275`\037i\274:\332\252=)\270[\275\356(&<2\273\240<V\242\314\274l\216\263\275\247\303;\275L1k=\003\321\247<\334\335\323\274Wrj=\335\231s\274\215\226j;\200s\261\274!\3730\275bn\211\273\0332\227\275g\247\217\274\034\310\353=Q\250\212\275SG\022\276\0059\203\2748d\317\274\t\244\274\275\003\223\245\274<\275\010\274\270\'\351\275\313=\020\276\333\022\324\275\351\314=\275H\216\203\275\363\3509\275\244I\200=(\221\357\275T\305J\2750CO<L\372Y\275]\272\267\275\366\352\313\275I\233\220\275\267\264-\275\262\276\247\2753\220\257=\203\314\002\275\002C!\276\344\375\031\276\244\217\001\276\214\025\350\275=\237\310\275s\360\314\275\230\004\331\275\310\240\365\275;R\306\275K\276,\275\\\'\236\275\357~\006\275\021\210\373\275\242E\350\274\367G\330\2759\002\376;\030\0375\275-\020\373\275\237ro\276Z\341\237\275\244S1\275\377\026\240\275QX\262\273\\%z<FQ\211=\026!\360\275\314\333\216\274\217m\t\275\024\001\233\274\'\342\325\275*\250Y=\333\2752<\216!\207\275)z\262\275\335X\217\275\326\337\277>\305E\007\275\"\010\217<c\260\363\275\037\331[\275\017\350\006\276\211\357\314\275c&\353\273\\\004~\273\\\355\254\275\265\275U=n\251@<\276\035\343\274\246\3108<\247\375\353\275\200F\373\276\264\205\304\274\215+8\275\232\213o\275l\373(<\223\206\203\275\333w\200\275B)\323\2754q\224\275j\231X\274@P:\275\367=<\274~\222\231\276y\313,=\203Y\306\275\177\023L\274~\262<\275u\260\322>\310M\345\274\003PF\274\367\0371\275\317\327\205\275\036K\312;\252\n*\274\312\036}=\374m\213\274\037Z~<B\244T=\006\372\202\2746\344\267\275\330\004\313\275V\327\204\275@-\317\274\355\244\204\274\345\005u<\003\354\241\274\200\263`\275\243\333\371\275\314:\026\277\222\323\010\276b\322\325\275U\rF\275\023\263\017\275\207@\010\276\243\364\255\275G\236\267;\356c\351\275\266@t\275\222 h\275 Q\007?&)\032\275}\346\004\276\313\222M\277\010\324\036\275j_\266\275\023\370 \275x\347\004\276(\205\221\275\275D\217\274\376l\361;j\017\212\276\232\237\330\275fQd\275\347\006\201\275\201 :\275\360\231\317\275\033\255\317<_S\300\275\224\200\004\276b\322\211\275\321\365#\275\'\301E\275\265\361\177\275\221\251\316\274\231{\002\276W\322\313\274N\246\343=\226\340\004=\003\3179={\270S:\250\302\004\276\375\375\203=M\307\014\276\203\227\256\274\362\211T\274\211\020\t\276^\363\222\274\376\355\337\275\347\262\3169P9\033\275\262\240\367\274\310\267\014\273zS\272\275\3546\360\275\003\307\353\275t\341\n\275\"\341\021\2764\264\352\273\315\313\221<UT\206\275y\370b\274{ \014\275Wh:<\352`!\275\236\320M<\243\242\277=\315\263\271\275\216\307\004\276\323\026\250<f\375\202=\006Wn\275\202\225\354\270\020#\326\275\327\244\374\274l\345\205\274-\254\230\274\261\227\233=\000?\036<P\201\341\275_\223\177\275\352\\\026\275\005\014\003=]\232\231\275\020@\354=>\350c\275\242\014\001\275CA\345\274\262r\231\273\335\317\207\2756|\306\275\313\231\301=\372nr\274\236Aw<\226\367\007\275\360\304\014\276\354f\244<\316\275\363\272c\2046\275t\320\004\275\330\224\300\2752\\\006\276\304\243D<O\026\355\275\314y\321\275\3246J\275\325\276G\276\246\3752\275\324\n\365\275\355\260L\276\260\235~\275$`\236<pQ\365\274keD=\200\205\006=\324\256\364\274\366\224\204\274\031(\224\276\260\364\322\2751\340\222\275V:\332\275~\020V=oL\002\276\234\236\307=F\207\234\275D%\030\272\352I-\275\263\247\360\275k\253\351\275\251\001\213\275\315$\245\274q\223\320\275\235a\221\273MU\036\275\305\243\033;n\264\334\276\3031,\275r\'*\275\020\036\210\275\00014\2757\371\233;\231\0017\276H\313\306\275O8\352\274\271\020#\274\223\006\205\274@\275/\275\356\216\312\274\215^\372\274F\205\210\276\351\221\325\275\212\217\000\276\036}\213<\277\245\004=\324!\317\275\224\332]\273\262\264\250\275\345\025C\274^\271\204\275\263\266\373\274\256b\240\275j \324\275:i\301\274\317\300]\275 \177m\275\276\2114>1\3267<>\242\323\274\016=\017=\002\353j\274\201\023b\276,\305\207\275\006\243\257\275\343\270\367\273\177O\311\275w(\254\275|\311\206\275\320\303w\275\027\276\272<\303\220\007\276|\035\037\275\n\347k\275\031\001+\275\351k\205\275pW\374:c\274\374\276\306]\305\275\263\221h=%t\317\275\243\253M\275_\236\335\275\177\204\356\274v\251\022\276\244mA\274K\351\304=\001U.\275cj\311\275\375\302\343\273\232!\217\273\256\244\337: \377\372\273\205\315\355\275\304lH=8.\263\274\nD\334\274\230\323\327=\263\273\271;7h[\275\273S\264\275\276\302\272<\203\312\211\273\235\200:\275\013\327x=R\213\036=\017\312\305\275\210\256\261\275\362_\004\274-\006\351\275\211\260i:B\373&=#\313\360\275=/\315\275z}@\275\333=\225={\034\020\276*s\232\275\350l\341=\352\027\363\274y\240\033\273\2012\250<\276\352\264=HAj=\004\253\274\273\224O\263\275\202-t=\2108*\275\203\022J\275\354L\263=\3026\257\2758\235\275\274Z\022\320\275\305,\370<\371\270\221=ot{\274\210\231\250=IK\314;c\034\350\275\242\236\261\275\0223\372\275\342\"r\275\310G{\275\207\210\227=\267\272\210\275\255\337\263\275\220>\263\275LXq>]X\014\276\373\276\305\275\255\023\200\275\300,\244\275\306\265\372\275QK\225<s\201\021=\363R\007>\366q\203\272\213\245\322\275~f\310\275\226X\343:\344B\267<\376\005\354\272\353\270\303\275;\247\345\275\277Z\322\275\344\026\346\275\231\223\003\276\211?J\275`\277\243\275e\263\263\275AO\210\275\260\004\014\276\316O\244\273\362\367\204\277\214\022\377\275\3632\306\274\217\316\275\275\206k\312\275\345\006\014\276n{\305\275\3171u\275a\'\213\274\352\005-\275\021v\310\274L\212\213<\006U\321\274\030\221\374<\303~\354>8\246J\277\365a(<\"J\002?0\2000\275\202\256\301\275\013=\022\276|\253\307\273\347\364T\275\346o\314\2754@S\275\213\203\223=\343\312\233\275\322$|=2\324\340\275\000\252\234\275>\364\321\275`\337\377\275\331\3666\277C$\313\275\017\326B\275\276\374\226\275F\253\242\275\216\336f\2757\315\037=(\017\276\275\243\367t\275\3528\266<\367\267\346\275\373\376\231<b]\273\275g\306\375\272\'\026\306=\220*\030\276Np\235<\221\\\205=\365\000\311\275\017\336\021\276<\342\341<!\367\323\273d\334\257\275\207p\227\275\236U\001\275\374n\317\275s\220n\275\247\252\271=\221yh<N{\\<\346\225-<\035-=\275\365|w\273Q\177\224\275\313\255\007\275\370Q\245\275<\350\353\275\275Xz<\326\022\204\274\357\007l\275OKC\275\341\352?\275J\002\352\273Jm\375<\273\005\233=k\036\312\274\244&\027\275*a\317\275\207\373\035\275\234\203\354\274\215\261\261\274X\256\367\275\273\247\240=|\326\025<\302\331\231\275r\037\330\275C\017I\275c\037\214\275R\312\204\275heS\275a\367\246\275\303B\354\275]/\326\274\315.\002\276L0\004\276\224\000\342\275:4+\275\371\037\323\275\361*\253\275O\364\346\275\222\312\214\275\254k\331\275\356\001\263\275\355\237i\274\347\252\250:\320\177\375\275\337k\320\275\357w\347\273W\324@\275tin\275\366\001\224\275\243\347_\275\027?\274\2746\357\271\275\'_\003=\373{\205\275K\351*\275\341$\030\274\327\207M=\230\256\377=\000\302\016\276I^\241\274\222y\021\275\250\357\367\275\217\361\360\275\243:\304\275\006\244\330\273\037\231\211\275^\242\256\274i\024\311\275\242\034s<\303\021\216\275\340\027Q\2767\3734\275\340\221\010\276J\000T<.#\010\275(\355\306;I\371\225<2v\301<~\205\226>Z\271u\275\025X\203\275\323D\315>\376e\307\275\301B\320\2750HU=\233Q/\275OE\350\273h\225\245\275U\376\277\274\314\271\240\275\277\252O\275\370u\301;\001\217\035>,\242\257;\2074\013\276\352\375\016\276\223{\021\277;\352\367\2753}d<\200\307\t\276\261O\277\275N\226\301\275Lc(=&\377\t\274\013O\247\275\365@8\274\263K\253\275\361!\270\275\256j\020\275K\337\221\273\367\351\035\277\307\215\034\277N\344N\275\024\374\331\275\262\370\375\275\365\265\317\271\333w\254>Q@\235\275\3573t<\335\217\300\274\354\363V=\267\n\245:\225F\345\2755ZC\275L\t\255<\253\035\224<\207\2429\273\364m\214<{f\313\277\t\r\225\275`\216\241;\215\237\001\276\345\005\365\275\346\373\330\2753\r\366>\276\366\312\273\'=\335\275\353\246?=\315\374\003\276\244&\347\274IO\r\275*\355\342\275\310f\331\274\204g\354>\034\265\275\275y\025\245\276\306\223\301\275\334\224\347\275\366\357\025\275\272\006\317\275\326\243\261\275\326\021\r\276&Q\001\275~Q\007\275\3442\257\275b5K\275\243\025\224\275\266\355e\275;\022\363\275~$\356\275)e\236=,\2745\275\313u!=\366\220\344\275\246O\206<\302K <\320\\\373\274\2549\343\274?\302\r\276\016\024R\276\370\217\247\275\256\t\260\275\254l?\275\234\3449\275\261\021@>@\306e\276\243\257\274\275\326;\353=\210\326\r\276\032u\002\276Pr\017\274_\245=\274\352y\207\275\336\204\001\276\001\222\267\274\240G\234\274\371\304\237\275\220\036+\276\213\254\324=\261\331\035\274\024H\376\275]\366l\274\025Z\363\276\342b%\275\300t\237\275\n\270\376\272\223A\010\275\350\026\013\275a\373\337=\034D\217\275_\234\034\275\356\332\245\273=>\262\275\266p\232\275${J;\026\200`\275\016\002\262=?\202\375\274\323v\317\275\364\233\r;\3357\t\276\221\242V\275\"\3105=`(\n\275tbv\275\211qd<\213\334\255\275\205\\|\274\230\324V\275\365\033\026\2747h$\275\244\374\235\275\370\362\031\2751\223\375\275e\327\242<\365\010\262\275\220~P=;4\241\275\0207\232<\275\024K\275\367\204\017=\035=\241\275\225\001\236\275\353\332\217\275\\\342\361\275\025D\240<}\220\310\275\233\323\253\275~\212\024\277W\327\307\275\250\314\272\272\357\364\256>}P\022\276\230\260\204\275\n\330\024=O\270H\274j\302\334\275\315\340Q\275\357\202\t\275\370\301\034\275\336\311\323\275t\324q<`\357\314=yS\376\275\220\310\320\275^)\233\275p\226S\277\274\356I<[\262#=N\234\255\275{\334\374\275\177p\032\274\257Z\217\276-\331\214\275\220\267\257\275\3419\"<\2318\016\2766\260X\275A\310 =>5\210\274\0320\312\276\254\300\245\275\204\373\340\275\342!\233>\017:\250\275\007?;\274\336\343\304>]\245\251<wY\245\274\267!\034\275S\274\366\275\'\201\316\274\313-\021<1\237C\275\026ee\274r\226\311\275\307\264\313\275\276M\263\275\017d\225>\037p\013\276\243\351H=w\275X\274K4\300\275\t{\356\275K+B\277\333\211\010\275\023+\014<QA~\276\302\355\007\276\020\253\210\275\035t\244=\302n3\275\202a\023>Z\361\025\276\237\035\231;\323Q\206>U\341:;\244\271I\274\204\207\024=B\303\373\275\211=\232\275|i\323\274B\350\377\275\300\206\236\275\006\272\300\275#\242Y\276D|\315\275\362\367\344\275\326\3075<xS\276\275\377\375\216\276\227\327\246\275J\206H\274\"S\260\275Aw\021\275\301z\217\275\201K5\276\237=\207\2750\311\306\275\\:Z<\240A9\274d\014\336\274{\325\007\274-N\202\275=\"\367\275\037\2338\276\372v\341\275\336Ek>\003\027\237<g\225\004\276\t/\266\275Y0a\275\310J\n\276\263\227\315;J6\375:\371s\362\275\264+\200\275\374\n\252\274\313\342\263\276\034;\336\275E}\003<G\216v<?U\237><\255\264\275\021W\310\275^U\022\276\0249\227\275C\344\010;\216\257\027\275\334\004V\275\372\330\"\275\270\222\234<n\355\376\275{\333\013\276\257SV=\247\3152\275Xx\032\277\272n\231=\3118\332\274\307##>\277\340W\274\215\000\352;\002f>>/\\\355\275?\177+\275\253\236\243:P\007\252\275\022\340\247<\005\177\266\274tC:\275l\352\226\275\022\353\026\275\213\205\200\275\021\261\326\275\331\342\204\277\217\245\360\275\202\240\331\274\236W\320\275Hy\234\275\243\240\310\275\010\273\031\275,\367}\275\230\334\225\275_Z}=\026\024W\275\312)\273\275\364L\201:1M\225\274O\250\217<\026C\307:\352\005\233\275\327-\031=\370\274>\275\3104G;\r\313\266=\274\310\221\274\341\010\340\275$\254\207<\260\224X;F\314\014=BW\266\275\"U8\275\314\251#\275\361;\002\275\025}\220\274\356\365\365\274\313\266\032\274}\313\021\276\237\340\267=nN\016\276\244\323\333\275\010\274_\2752\210\211=\267\231g\275\004\370~\275\350T\031\275\271t\252<\'B\351\275qo\312<s\234\305=r\257\005\273\354}\237<\270!\316\275\357\"\362\273\027\277\234\274W\n\010\275\324O\017\2741\300\240\275\356s\370\275\321\342\232\274ei`\275!\340\246\275\351\317\020\276r\267\210<\244\032\263\275 \346t\275\320\225\300\275\020\204\002\276\246\235\t\2742\312a\275\035\364q<ec\303\275\0104\270\275M\021\343:\311\201B\275\263\243\2316\264\003\247\273\305>|=G]\333\275\r\001>\275\226}\035\274\222KR9\316\326V\276\347\224\300=\346\370o\275c\223\t\277k\234\232\275{\344\004\275\316\177P\275\000~\227\275\014\035\214\275Uz\002\275\300#\262\273FL\332\275\346A\377\275Ou\221\275\031~\215\273`T\210\275\032\261\330\275\202\355\r\276\212\315\301>\036\301\326;\002\235\222\275\030\376\003\276\331\0373\275\017T\265\275K\370\014\275\315\332I\275\346!\317\275u\311\303\275\3734\261\275\231Na\274\360\254\025\276\214\371\025\274M!\350\275\350S&\276;\240A\275\022\377]\276\332\004\325\273\310\223\354\274\264)\252\275P\024\314\275\254O\223;\337\013\r\274\242:\033\275\034\207\324\275^\225\016\276/\266\253\275\232\"n<\306r\337\275\013\306\355\275\335(\021\274W\327J>y\314\315\271f\304/\275\250\364\000\276\253\371\367\275\364\324F\274\322\220\030\275A\003\373\275i\325\244\275\000\316\344\275\t\274\273\275\254\252$\275\265\027\016\276\275\212n\275\340\275 =\234\0075=\354.\316\275\036~\241=\0067\235\275@\263\\<\030\257q<\322\232\244\275\024\323\321\275\321x\334\275\360\211\243\2751\250\331\275\212\361D\275v\356\313<\010\376\023>1\t\265\275\323\031\016\275<D2\275WA\365\276\344\r\331;RA\237\275\245\356v\275\267F\377\275,D8\273D\366><\243\013k\274h\340\352\275\205+\336=\232\036\223\274\3761/\275\007\332\221=Sc\216=#\337P\2753\344\222\275\023/&\275\222\002\001>K*\270\274\272q\321\275\223J\257=@\004\375\274\251lg;J\324\350\275\024f\033=Ekv\275\356&\t\276\345\0374=\212.5=\305\336\016\276A\\\t\275\363\321\376\275\232\217:\275\330\252\202\273\204\353\001\275\266B\036\275S\215\260\275\225\'\246\2734RS>b9\005\276D,B\275\372\302\373\274\3601\364\275Z\001\335\275[\014\203=\003\030\251\275\365\255R\2750\033}=\346;*\275\322\234\306\276\346\361\007\2768U\200\275\302\020\\=S\366\007\274q+\013\276c\242\333\275`$\020\274]TK\275\004\265m\274A\356\033\276\235\022\354\275\310\024\200\275rO\331\275\022\344\030<\371M\377\276C&\375\274\274\242\214\274\311\313\326\275\253\234\221<\330\214\330\275\206\212&\273\335\260\205<\247\307\376\275\325\313\367\275\203\033\354\273Q\365\335\275\316\004\260\275\223#z\274\340\007\207\277\2335(\275\274\317\330\275[h\322\276\237O\213\272\331c\312\274\322\311y\276\363\265\343\275\216a\231\275(\277\\\275\037\365\205=\370\263[<\362E\273;|\374\270\275;\334\201=br\200\274\243\035\366\274\214p\324\272\233\341\001\2775\353;\275\352H\207\275\250\032v\275\n\231\030\275 b\014\276,\221\250=\017\315\236\275,\255d<\252\236\242\274\343\244\206\274-\2548\275\321]A\275\256J\364\274\034&\264\275\002\0305\275\201\347\363\274\335\274\223<W(\304\275O{\016\276\227\327\343\275\213\317\006\2762\274\013\276\215+\020\275\216\340\361\275\256\300\017\276\026!\t\276\016Y\250\275wq\230=\332d\231\275@&:9\336UX\275T\035\235=\223\334\240\275\033|,\275A\331\367\275\025\230y<\212i\252\275w\253\326\276\tv\205\273\353B\244\275\020#(\272-\332W\275?\201\204<\201\307\354;\203\332\300\272\3609\247\277\006\223f\275_?h\274N\023\345>n\247\361\275\345R\370\275\'Y1\276OEc\275\017i\276\274\227\271\013;o\271\007=q\n>\276\226\340\025<?S3\275!~I\276\275\3777\274#B\362\274Q.\033\275\342\335\236>k\"\016\276\204\007\177\275\246\273\213\273\337\323\235\275\250\354\355\275\376\010\267\274\347Q\202<\222(\013\276\376\255\354=@2\335\274\356k\212<ttS<\235LS\275\301\365\266=+*2\2757\n\275\275[\321\022=\3038\023<\356\345\253\275\323\243\026=`\320\365\2754Z\250\275\342K\007\276\274y\255\274T\310\027\275\224\323\240\275\'\355\232;\241\244\337\274U\370\331\273\032\222\227<\214\255w\275\004\303|\275Y\227\377\275\032-\273<\307\0261<\346I\221\2744\376\344\275\313\375R>\370\323\307\275\021\211\205\275\324\314!\276\354\331(\275d\020\273\275\324\264r=h\262\r<Kt_\275\231\3505>rY\300\275\267$\327< \260\334\274\330\337\023\275\270!<\276\234~\376\275Y\214\204\275l\276\222\275+\276\250<\210\354\204\276\314\303-\274,T\"\276 \025\245\275\347\243\3018,\262\225\275\344\021\365\275\346\177\254\277\365\\\233\274\310:\305\275\301\353E\275\253b\232\275>\267\367\275\214\245:\275\341\373\001\276}\250\274\275\0059\205\274\337d\"\275\001\344:\274\245%\223\274\307\347G\275#H\231\274\307<\357\275@\021\303\275\252\254\216=\273\360\313\275d*\024\275\305\246\335\274\372\316\366\275\307\023e\275\017P\037\275\363\267\235<\'^\253<\206D\006\273\327(]=/\213\205<n\337\225\275\243}\373\274\303r\240\275pV>\2750K7\275\313\333\355\274\223z\344\275#\316\252\274\003\377g\275\035\201\354<\224\320\251\275\275\024\271\274\335\367\322=\340\325p<pSZ\2753f\037\274\277\243\243=\364\362;<\356\215\373\27550\262<:j\267\273\203%\264<\272\347\213\275\236\236\221\274\200Z\010\276>\020\301\275\037\216\311;\325\333\240\274\201_\036\275\177\001\336\274\342\017\321\274\222jf>Hy\014\276\2562\336\275\033\004\177\275\201\255\300\275\371`D\275\027N\235=J(\314;A%.\274T\313\265\275\250,\322=\031\277\022\271\002\014\261<z\225\237\273\260:\374\273o\202\231\275\305\304\230=\231\213\344<\341~\247\274hZ.\275\315\350o\274TKT=\020\201L<\267\013\364\275\2578\001<4\266e\275Ka\247;Cx\345\275\332\007\346\272\253N6<\375D\020\276\252\n\315<\316\312\036\276\025?\006;\367\251\231\275\227\326}<\"\361\374\275\307\310\r<\201\225n\274o\211\002\276\355\345\310\273\201\362\267\274\\\372\243=j\237F<^\t\355\275u\244\025\275\374\346\274\2752\260\034\275\200!\234\272\026Z~\274\036\370f=\345\307\n\276\202\314\013\276\373-\367=+\251\t\276\230;\273\275\300_\022>\024\025\376\275\2437\250\275,m\334\275%5X9U\272h<f\206\275\275\216\206\200<\377\353\370\276c\002~\275c\334\241\273L\232\243\275\"\234\271\275SP\013\276K1\006\275\301A,\275R\006x<\333\247\225\275\030\026&\275\2105\257\274mB\220\272\201\226\365<?\240\270\274<\210\235\275\364>\223=\305\\\301=\362\322\345=[Y#\275=\300\224\275o\375\023<J7^\274\261\313\274\274a\345\237=t\203\355\274\265\273>\275\272\200\314\275\r\242\016=O\017\363\275\022\303Q<r\014\232\274G\'\272\275T\030\335\274ES\017\276\r\226\233\275\370\030\347\275H\331\342\273\260BW\2741W\347:I\020\347\275\312\375\374\275\222\237\235<!`\253\274x.\374\275!\244\023\275i\254\330\275\373\277\374\275\352W\261<IUu\275\003\210\350\274!{\205\275:a\375\274\241\017s\273Uj\244\275\206\t\275\275\215\204\306\274\037\375\341\2735\231\365\275\363J\304\275\rS\267\2757$\252\275p\354\004\276<\261\352=/\325\251\275\321&\305\275]*\370\275bz\321:\010j\216\273\320\272 ;\rL\367\274q/\022\275x\222\356\274\300\200\021\276\020I)=x\202,\274O\241\256\275\335\352\214\274S#\244\274g\001\022\275B\376\343=\374\357\374<i\371\207\274\0160\362\273\212\036\351;\241\256\277\274\324\222r\275Q\364\201\275\335\257s=~R\242\274\245H\244\275\337\371\002\275\027\334C\275\317x\345\275\246kh\275\365\304\216<{\216\016\276{\267\304\275k\255\310\275\265\233\010\275\263\305\300\275\266O\217\275I\303{=\224-U\275\306A\330\274VJ\251<Q\302\206>\344\363\272\275\025\026\322\275\021\320k\274\212\363\203\275_\030P\275\235\nM=\323\331\236<n\311\034\275\254\016\n\275s]1\274\3555\377;\036\273Z\275\376\254]\274\332\225m\273\013\310\211\275\200\313\364\274M\372\237\275\305\364\025\276\212/\003\276^d\247:\256\253f\275ga7\275OI1<\315e\335\275\360\334N\275H\004\215\277\223\317\213\274\252J6\275\231I\006\275\265\nf\273\023\003\016\276\361P#\275\211\214\250\275\361\302c\275\032\253N=\271\263\214\275\"\370\357\275\007A\345>\250\215\257=\304\024\303\275*\275\203\276\211\257\256\275\354U\373<\005fQ<q2\257\275]\177\235:\026\305\207\275\244\250\201\275\220x\263\275\345\326\274\274\352Jk\274\320\007\313\275\204!\244=\277\203\325=\216\313\007\273\226\264y\275qd{\275c\247\340\275\273\233\013\275\234`\342\271zr\001<\3161\003\276\263\240\321\275\267\212\355<\225l\270\274`\360G\275\203J\245=g8\300\275\337\236\222\275\230\347\257\275\363\327A=h\223j\274\025\001\360\275\313\353\n\276i\2411=\210\363\252\275\223\033\272\275%\363\245=n\266\020\275\227\251Y\275=)\273\274\215\224\327\275\237\225\001\276\331\017\016\276\266<\027\274\236)\236\275\255\342\003\276\327\201\275\275\207C\331\275!\2439\276`l\260\275\211\245\324=\'\344\244\274-\354`\275\343\274\005\276\376\233X\274\n2\275\272\352\312\302\273\361M\376;,\353\217<\334\255\010=F\"\260=I\227\022\275;#\014\275\360V\231\275p\236`<P\265\030=\376\244\356\275]\335\013\276n\tg=2\243\177<\036\253;\275<\320\006\276p\373\274\275p\307\013\276\211?<\275\232\276\323=\373s3<\221\367\247\275\2626\240<`f\227\275\333 z\275\267\372L\273\377*r=\353\006\003\275\013\315\221\274\217-\177\275\366I\t\274(\224\237\275\367\035\261<Pc\024\275\347\252\214<\306r\305<u4\301<\315\000\260=6<^\275\233\250\371\275\371G)\275\262U\000=9\241\226\275\313\262\230\274\007>\031\275\305\346\370\275\333\302\022\276\364\365\007\276s\n\204\275\304+\334\275\274s\355\275\364\377\010\275\260;\204\275\251\351\230\275\026\325\351\275\315\031\243\274\354V\312\2754\210\363\27528B<\2532\270<O\207\242\274t\330\326\275\240\326\307=\256@\266\275\036Y\367\275\3406K\2758\260\272\275Bov\274\221SN\275\026w\257\275\200\317\233>\254\331\010\2764\234k\274\035\376\272\276\332\001f\275\302\236\014\275\232SN\275eS\037\275,N\271\275\253\344\331\275\221\301\330\275\370\363\255\275\363sg\274\2216\232\275$\270?\274\376p\344\274\260\306\007\276\024\222\232\275\215>\017\277\325<\246\274.9\344\275n\245\261\275\240\177\025;u\267[\275Y\201\303<1&\022<\210g\232\275R\005L=\013,u\275j\246\001=\177\255\241\274Gi_=\367e\342=2C\247\275\221p\216\275\027F@<\rSD\275\334.n\275\3030\314\274\"\211\211;\364{\017\275\010\030\001\276\306\005\302\273JBP\273E\356?\275\330\250*\274\237\311\210\275}\307\322\275\343\250:\274\023\373\271\275\346\324\322\2754\317\013\276\335\\!=1\300#\275\244T\234\275\'\000\253\275W\352\036\276\330\271\007\275\255\217\t\2768n\003\276\236`@<\374\"\214\275\t\023t\275<`5=\323W\006\276\325\027\300\275O\036\272\275,\304\266\274Cpr\275\330x=\275\251?\333<\201\021\031\274\031H\354\274\350\027\216\275\315\322\353<R\347\325=\207\023h\275Z\270\245=p\256\212\275\307\004\304\275\r@\271\275\273\206\231\275:\322\205\275\2413N\2756\331\214=#D\240\275\354\340\007\276`\"\006\276(,G\276\"\272\301\274`\263\301\275\n\006=\275\027\214z\272\235\004\314\275\270G\032=\251\243\322\2757\322;?\224\361\222=\257\374\266\275sa\316\276\002A>\275]0\310\275\006\345\301\276)\277n\274\343\"\250;\302\3467\275\306OY\275\250\010$\276\0320\t\276\223\374.=\341\347\302\275\262\204\013\2767C\025\275\373\237\352\275\205\207w\277\335\256f\275D\377\264\275\311*\276<\014W\320\275\370\331\030\275\253\234c=\010\332\257\275\241\244\266<%\313e\275\254\224\270\275)\367\236\2758\to=J\036\244\275\016\203\211=\372\304\033=\231}\013\276X\357\275=G\333\323\275\010ML\274\024:\346=`\351\010\276.\005D\275%=\310\275\256<\000\276\026\252\225\275i)\256\275\232\361\231\2747\035m\275\275+\272\275\310:\255\275M\341!;b[\360\275G\032\360\275\336\207^=/\222\247\274&S\001\275\001+\010\276\010j\004=\261\263\245\275\271G\212<\2751\303=h\257><\364\t\302<xD\201<\350\203\223\274g\201\016\275\005\027\036\276\357\023r\275\335\236\234=\216f\222;\365\320\271\275*2\251< [\241\2755\206F\275z\025\361\275\207\207\206\275\215\211\221\275\300\243E\2750I\241=\027>\270\275\356\340\347\275\201\237\260\275\217R\211\275\002\271}\273tt\340\275\237!\246=\215\271\030\275\243_4\274Ff*\275\277\036N>\016q\300\274\304\013\234\275B$\225\273o\003\367\275\\=/\275\017(\'\276K\353\033\275\377l\374<\337\3622>p\032\214;*\353\203\276\216\207\336\275\032\310\361\275b\r\003\274\365\002\002\275Y\031\242<\r\326<<j\246<=N\375[\275\326\261\363\275R\350\035\275)w\211>\274\023Q\275k\325\311\275\370\306`\275\3619Y\277o\270\262<\230\250\277<$X\321\275M\235\221\275M\003\277\275\303\004\023={\217D\275F\222\333\275\202\357\353\274\313\274\316\274w\335\263\273\335\240\323=}\302\243\275\335\243\232=*\016\231=\306Q\003\276N\016\341<a\003\360\275\271R\221\274|+\227\275\230,\326\275\002/\021\276\245\322\261\275\205\244\016=\375\374\363:w7\017\276\322_m=\006\031G>8c\202\275\322)\203\272\276\r\216\274{\207S\276\336\025\326\275\033\205A<`\214\250\275\270\204\234\275w=\026\275|P\212>\005\213Q\274\343Eu\275i\031\r=\313\205\367\275\301\255`\275ST\033>\203D\337\275\211\246\206\277\275\373\242\275\260l\006\276\254hm?`e\025\274\322\321\034\275\371\205\251>\257\n\217\275\242\r\333\275&\036G<\357\377\277<\205\311\345\273K\244\212\2756\215\221=\354\215\r>\354!\r\276\334U\000\276\260\257!\275\250*P\277\374K6\275\214\rg=\341!\014\276B1G\275I\372\244\275\346L\'=~\244\221<\0063\240\274\232\0177=\000r!:u\022\352;]\344\255\272o\216\263=\325\224\202=\031H\037\276\336&\020\276\255\037\377<\212`[\275\205d\231\274\371\014\351=d\303\237<\217\251\241\275<p\010\276\307\2520=\316E\313\274\230\370\270\275Qe\315=`\376\375<\304~J<\272\322]\275v\323\027\275\364\203\373\274<c\255\275i\364\221\274H\372\006\2769\220\032\275<\t\233\275e#\266>g\335G\275\220\312\367\275\226\325\216=\3705\322\275R\004-\275\377\3177\275j-\316\275\266&\313\275\006\253\272=\r\317\243\274\366\274:\276r\207\263<\306\326\242\275I\212A>\302A\311\273\001\026\376\275A\321=\275%\247\345<)\270\177\275v]\301\275\277\300&=\245\270N>j\206;<4\036\255\275\023=3\2752D\260>\210OT<\330\375\246<\253\331\363\275\205@\272\275\033\276\263\274\344\343\023\276\203C\255\275\261\r\301\275\312\014\261\275\352\266v\275\200\020|\275\375\023s<*D\177=\210xZ\275\355\207\342\275\020 \'\275\201\316\025=\213ZK<\023\355\232\275\311[\327<\342\251G<\215\303B\275\353\000\300;[\331\017\275n\241\004>\334xr\275\253\377\223=\367\035\261\275\343\224\004\275Lz)\275\305\251\030<Jq\235\275\243\023\233\275l\374`=C\204X\275\344\204\000\276(\013\255\274\3010\313\273\340,z\275\210\034\243;~~\252=\261\244\014\275Dw\202\274\367\210\372\274Z\313\250<R\252\204\275\261\336\377\275\212\243\221\275(\202\337=Z\264\317\275\014\305\202\274\333\3771=\001d\377\275:i\373\274\022\353\336\274\204a\261\275\361\272\246\275\030\233\344\274\313\"\307<G81\275G\245\250\275\013\362\230\275\325|B\275\274\326\036\275l\350\343\275:\243\206=/\342\354\275\225\246\270\275,?=\275^\224\303=\353\206\354\275b\033\320\274\3579\217<\237\\\365\274!0\330\275X\246\335\274\nB\203\275\331\302\305=1\017\031\276\346\335\333\2747,\226=f\010\r\2768\220\233\275|>\235<%_><\332\375%\275\325\221\226\275\372\\\353<\235\233\343\274:\003b<Z\215V;\376\237u<\320\237\333\274Q\231#\275d`\236\275\034\206\256<e\227\n\273v\2670=x\267\200\2752\301z\275\350R\177\275m\027\201\273]\266\306\275\021\240\346\275\330\242q\275@\202\236;\344G\247;\376\027\2609\022\321\371\275\253L\036\275\034^\n>\364\366\275\275M<a=Xv\313\275\236\373\357\274.\025D\276nb3<\304\177\317\275wV:<c\326^<U\213\361\275/m&\2759\303T<\030\235\234\275\3779\014\273\255L\347\275\226:n\275\214)\026=}\353\254\275\251o\340<\245]X\275\360\251$\274\221@\014\276\014\021\325>g5\003\275!\204\330\275\"\200<<kq\016\276\200\206\227\275`#\313<\3572\340:\264\343\023?\"\037\210;/&\331\275\241\315C\276BB\362\275\'\201\321\275\000\316\224<\212!\372\275\217\'!\274\333\204\252:\357\261\232\275M\243\221\275OT\237<\361T0\275\035V\332=\276\266g\275\024o7\275&\2130\275\n\222\020\277\205\276p\275\234Q\267\275\200\002\312\275\304\361\221<\016d\005\276\303\000\274>Y\257\213\274,\006C\274\313\210\231\275\204L/\275\344\303\326<\303\337\217=\217\2039=\230\230\244\276\033\236_\276\224\206\000\275\365)\235>\243\241\256<\207\221t\275\302\364\026\277r\253\307\275\200\215\210\275\3316\223\275{-\313\275\017D\003\275%\027\256\274\220\023\305=\267K\203\276\177\377\276\275\342\225\243\275,\223\272\275|\3561\277ui\035\273\354B\005=eR\023\275\222\335\206\274/\200\274\275\204\235\227>0KW<@T\245\275f\231p\275\315\002\205\275\023\207\275\274\2763\365=UN\201\275\261jG>\254\213\375\273T\243\316\275\245\375{>\322\354q\275[\276x\274\317V\234>\245\345\206\275]\0301\275w\352\207\275-\350|\275tk\017\274\316\341u\275\350\337\315\275\3057\325\275S\366\201<\374M\306\275\247\266#\275i\273\306=\037\nu<:\023\003\275O\340\254<\367\276x9\244+V\275\325\203\304=+\344\363\275\344\177\203\274\307-\032=#X\247\275\ra\222\275\231\026\204=\374\"\375<|Z\217=y\313\236\275\n\373\345\275\3304%=\357\003\005\276|\307\314\274\312\177\373\274/j\013\275\214\020\275\275y\236\006\276X?\346\275\347d\366\275C.\233\275\375\375\300=\'\006\202:=K%\275x\227\306\274\227i\227;\ri\364\275\331\363\244\275z\013\332;\243\357\346\275%\223\355\275\320\275\217\275]\350\231;HBZ\275(}\377\275\347b\266\274\241L\016<\263\321\035<\354sF=q\246\327\273\217\207K\275\2524U\275\356Y\267<\317V\345=h\355\201\275\241\035\356\2755\335\345=\355\331\360\274\204\203\200\275~\265\007\276\242`\334<fcz<V|}\275\317e\304=\241\335\236=\004\265M\275n^\317\275n\030\237\275d\017\021\276`\037,\274\244\366A=O\034\335\275]\344z9\361\344\340\275\'\371\353\275\345\027\326\275\330\035\237<\255\257\223<w\215\203\275\374\230\244\275{\371\246\276\\\343\372< B\270<n\273\026\276\224\207\231<\3473\221\276l2\236\2742\256[\274[\r\343\276\223R\357\275\302b\007;\226\000.\275\307\003\203=9\177\200=\212\320\024\274sc\337\271\211\331\226\275M\316D\275\276\'\214;\304\276\\\275\005_\t\277\316\373E\275Ut\235<\351P\261<\217\333R\2752\244A\275!\024\332\275\"\300\332\274\331:\220\275#\346M\275\373|\230\275b\033\241\275\3542\213\276C\354\222<\376z|\276pq\377\274!+\027\275u\010\246\276<I\235\275;\255\356\275X\303\350\274\253\351M\275\267\240\345\274\003\256T<,\343\002\276\003W@\276\365\033:\275\262b\001\2758#\005>\3363G\275\357\220\013\276w\\\355\274\301\254\222>G\334:\275\322\367\337\273\271cd<\000A\240\275\363\035\376\275\302\317\213\273y0S<b\361\n\275P\350{\274e\234\203\275}t@\275\310X\227>\330\266\216\274\377\244\271\275\"\301\343<\016\224\263\275\200\215\027>Y\'\273\275\225\333\003;kD\336=N\215\021\276g]N\275_\376\363\275\254\001I\275\344$\322\273$\210\223\274 g\006<\300\251c>\263\227\370\275q\254\013\276\304\370\276\274X9\266\276\213a\327\2752\"q\275;\224\021\276\353`\373\275\276\315\267\275\252C\374\2739\333\030\275\323\316\013\274\230\335\250=\007\241\333\274\347l.\275\002y\'=\316\2640\275\327\241\236<RW\232;\375\230\t\274,\342$=|\225\321\275\314\341\201\275h\264\251:\364\267\200\275\023\211\330\275\037\312\371\275B\360%\275L\242\313\275\374\233\235\273\306*\002\275\0363\206<\026H\035\275\372\\\207;hL\013\274\340\"\274\275|\030D\275\364\272b\274\255\363\n\276\021]S\275u\327\010\276gu\017<\274\032\321\274\303\\\205\275\321^z\273\336\005\275\274\377<\366\274\t\333\337=\220\026>\275\331\035-\275\375\305\357\274\307^\333\275\225\242\002\274h\276\257\275\240\002g\274\214\034\207<\373b\360;\311y\350\275\0031\244\274\3366u\275wU\226\274+2\317\275\307\316\300;\317]\027<\350H\n\275\177\202\033\274VO\307\275\2200A;qz\362\275AmM=\330\334d;\177s\354\275,\323\002\272\346`:>c\231\234\275\360\230\322;}\310\034=\304\365\236<\010\340)\27248\254\274\274\341\220<\341\261\313\276\257r\337\275Y\263\256\275\340\366u>\177\375\222\274\363\237\241\2730+\265=\205\353\024\275\355\213\r\275\306\343\252\275S \374\274\203\036\226\275\025\265\221:\022F==Q\326\244\275\371\202\305\2756\343\010\276\321\352S<\022;\312>;\270-\275\262\037\273\275\203\002\371\275\360\237\330\273k\225X\275=\251\267\276\237\010\352\274\360\311\223\275;\214\207\275T\215\300\275)}\037<\312\372^\274\340\374\354<a3\306\276D\316\024\277\017\037\'\275\022i\330\276\221\024\r\276\016!\204\275\022\347\307\276lq\303\275\267u\323\275\320\264\022\275\332\'\333\275\315\2213\275\277b\376\275W\265B\275\02210\276\rM\341\274\304g\361\275\336\250\342\275\025wR?0\345s\275\365]\301<l\221\211\275\332_\006\276$L\013\276\263<B\275\257\253\344\2752\353\001\275\215I\303=\374Na<\212\213;<\260\032\213\274\314\324O\275\261\243:=+\020+\276\360\276\310\275E)\243\274\017\356\004\276\336\226\215\275\353\355\346:\250{\202\273$r\244\275\nq-\275L\312\373<x\265\021\276\300\003\331\273t\361\304\274Z`\300=(\357\323\273@d#\275\"\231\242\275\344\241\242\275\\8\223\275\034\305\317=\337\260\236\275\376}\274\275\227\352\251<\201\033\306<\255bX\275On\020\276\370\243\201=\021\3770\275\214\260\351\275u\0040=\267\017p\275\002\277\372\274=\203\242\274K8\246<~IQ\275\207\014\314\275\312\260\203\275=\224\036\275GqI\274G\277\213\275\004\361\231\274\225\222#\275\360&w<b\257\327\274$Yu\275\264\347\246\275\036d\265<\353\332o\275^O\330\275a\177\004\275\252Wr\275J\263\203=\010\301\303\275\334\3166\275\255\344\n\276\230?\311\275q\263y\274\2355W<j2\260\275\3464\246\274p\217\000\276\032Ex\274\351\213E=\3651#<o\205 \276\357\251I<\031\245\235\275\224\261\201\275\247(3\275\323\241\200;\000&\307\275\215gV\274\224\225\372\275\323\222/=t\221}=\333 \006\276?~\210=l\261\251<\277\351)\275\365\343c\274\330\016\323\273\356\374\357\275A0\273\2752\235\217<!v\267;\274\307\231\275$\277\223\275\356\272\213\275\251t\306\273\021\332\006\275\335\'\231\275?\334\242\275\206\377\343\275\177\236\364\275:\220\237:\317\276\256=D1\330;\27728<V\234\211\276T\276\r\275?\333\261\275\370o\360=\314j\244\275\351\014\242\275\374\305\221\274\225\\\n=\004\304\231\275\3578x<\205\3571=j\244e<\215\021W\275&q\273<\334K\277\275\376_\004?M\r\240\275\221\024\020\272Mv\021<\336\367L\275\376c\211\275\227\227\023\276\314!\000\276F\340\240\275\262\330\353\274e\355\225;\322U\376\275\373n\232\274e+\030\274\2742\004\300\270\010p\276\217\\\251\274R(=>\266y\n<%81\275\014^\"\276\275S\r\276\3759\376\275\331\200\345\2744X\032\274\264\177\371=v\316\351\275\002n,\274X\274[\275\275%\226\275K\016}\275\021\374\346\2752\027<==\n\251\274j\262\013\275#X\006\276\002\205\036\275\023\013\322\274~$2\275\213\267\275\274\364m\376\275\322\332\3327\3065\253\275Gg\373\274?\025S<\006\235\240\275W\025\004\276\232\336\311=c\250\023\275\202>7=~g\375\275\276\225\014\276\240\314n\276\352\224q\275\200\324\353\275\005$\356\275g\216\316\275\356Y3\275b\036\215<B24=$\030\026\276\302\215\223\275O\022\007\276\030\321\231\274\354wD>Q\211\247\275\332V\237\275\3763>\275\217\215I\275\204,\322\275\377\r\024?d\341,\275\207\035\333\275\256\367\333\275\352\361\232\275\200\217\250\274\345\234\374=@F\032\275\310\250\"\276\320\246\250\276<o\361\275$\337\301\274tK\225\275X\263\336\2758\337\016\276\347\036\247\273\356\322\331\275\321\310\t\276vo\005\274(\236\227\274\354\232)\2753\320\345\275\342s\007=\\\377\357\275\263\212r\275\247\037\361\275\224g\224\275\320)\304\2759WR\275\317\024\244\275h%\023\275c\025\305\275\375\242\356<\207\361 <\2147\231\275\306 \026\274}\313\003<\232\025\336\275\336\310\326=#zC=\030\316\316=\253\310,\275.\3349<!2/<\374\365\217;k\347\013\276\300\016\335\274Ye\23099Z:\275P\235\353\275\213\223\323\275\267\034\356\275y\272\017\276\n\324\303\274\2114)\274\276\231\312\275?/\372\275~\270\321\275\363\030F\274\017\366f\275\016\203`=\335w\371\275\267\375\340\274M|\353\275\2400;<\001K\350\275\237lR<o\373\022\275x\243]<\341\273\337\275\214\3261\274\356\263\236\275\211\300\310\276\250\203\\\276\361\031\357\274[\357P=\024\374[\273\000\3441\275\200\224A>\307\350\346\274,B\t\275\n\371\352\2753\222\236\275\013\r(;\0147\333\275\021s\200=\237\035\222\275{\215\253\275\264I\023;\320%\323\275\354\000\200\276AO4;\303}\000\275\365\326\203\274\344\363\213\273\254\243\000\276{b\022>V\267\020\276\004L\211;S3\217\274\033=\345\274\034An\275\256~;\275\225:\234\2756U\274\276k\222\303\2740\237\355:O\256@\2773\033\032\273\005K\010\276\017\216\324>N\203\371\274x\356\321\275\315\315M;[f\342\275\331@L\274F\224q\275\323\014\244\2759\245\004>;\337]\275zm\233\275\030(\016\273\213\"\353>\225\267\200\275J\302Q\274\033%\032\275\013+}\275\3021\376<Nz\005?P\3758\273^\350\225\274\333d\033\276\210B\375\275\322\226\223\274\326u\013=\214$/\275\266\313C>\323\177\337\276\311\036\241\275\367C\244\276\237b\256\275\300o\305\275\202\035\331\275\241\203\203\275&|\274\274]\305z\274\231I\200;Wsj\275p\370m<\214\276\336\275\276\023\177\276\235\000L\275\022ZX\275\350\203\000\276\026\240\005\276b\206\022\276\235\273\346\275\200\266\356\275\274\233\253\275u\352\335\275<7\326=\344\234c<M\260\214\2754\270\272\274MW\017\274\223\362\006\276\212x\353=y\262\210\274\235\306\361=\273\213\t>#\325\263\275\334N\233;\370\240G\275\322z\221\275uf\325=ML\n\276I\035x\275[\222\n\276\334\340\030=)h\240\275\335\364\225\275)\001&\275i4b\276\200#\207\275Z>\340\275\010\'1\275\304\366\020?\371k|\275&\224@;\336`\351\275\264\303\344\275%\253\177\2751ju=\363\025\245<\327\037\\\274\222\204n\275\376\200\265\274\353P\277<T\030\330\276\302\335\020\275\006\201\330\276\245\224N\277\002\351\364\275s\r\016=`\256\n\276\254\024u\275\247\331*\277\034\022\327;\342\315\314\275\035\177\370\275J%\322\274,\031\024\275i\250\265\275M\034\211\272\2334\"\276u\017\'\275t\'|\275\220\245u\275\273\363E>\247\227W\275\210\337/\273\224Y\233\275\013\010g\275\013\360\372\275\271m\343;\032\022#\274%\253\243<\335Q\213\275\230\237\244\271}\014\350\274o\232\253\274I\273f\275\177\3045<\243\311\023\276\306\331\020\275f\256\255=\023\331s\275[ *\275\214\350\254\274\263\340\036;\220\236\307\274\220\353I\2757$\345\275:\227g=\271\243\311\275\361\215M\274\321\342\220=\236&W\275_\251\310\275y\343d<09\"\275\303\351\231\275\264\023\232<\336\231\237<\300\305\363\275 4\374\275k \307=\237l\254\275\261\377\372\273\373\334\316\274\321\240\237\275\370\253\321\274\023\212\326=\252\360\247=\003\1777=\226\355\366\275%\213\263<\0161\366\274\004\005\265\275\025#\240\274,\236\356\274\271B\327\275U\207\204\275\356\345\332\275\033\272L=XO$\275\245\010\206\275\263T\021\275\372\364\304\274\272q\274\275\270\375\006\276S\032\002\276\034\215\377\274O\200\014\276\272\254\n\275\334*K<\037\034\020\276\375\265\253\274]e\233=\032\216\265\275\016\321z\275{^\217=\025b\207<\277\334\004\275a\255\005>\334\213\214\275\220U\350\276\021d\335=8\261A\274\200\232\313>\300\001\332\275\203\340\311\275\370z\035\275\307\307\n\276\347Y\001\274\r\271\214\275s\\\326\271%\216\t\274\232l\364\273\271MG=\356\345\023\275;\027\302\274\216\365\005\276\263@\210:\206IE\276\326C\351\275\301\233\257\275:\231\203\274\003J\332\275\354!Y\275\030$\317;\007\220\333\275nY\257\274\271\n~\275\365G\010\276\263\350\302\275\270\252\221;\345\217\377\275s\232\371=\317\024[=\'S\324:o\210\366=\000\263\351\275\265\330\366\275\022s\235\275\014\347H\275\033\263\256\275pA\344\275\224W\'\274\"@\031\276CC#;\363\214@\275\n\001\000;\017\201\013\275\376\010]\275t\325\341\275o\324\213=\021\362\265:oj\r\275\311\353!\275\n\032\233\275L\277\r\276\344\314{\276)\330\207\275\214\231\366\275\337\203T\275\001.&\275\311\311\201\274\233\222\037<K[\330\275\250\200X?o5{\276]\024\003\276`\306\222\2762\372\230\275\303\252\316\275\333\031\307\276\t{\213\273`\200\234\275\370r\014\276\026\177g<\233\004g\275YM\220\275\260\3271\275\224\025\t\276\317=:\274\306\223p;\367b\311\275\016\205\342\275M\242\r\276d\244a\274\'\306\227\275\264.\310\2757,\217\274\237\347\'=\320bp<0\n\t\276\352YG\274\t\346*\271\025\321\343\275V\036\247:^,C=\254,:\275\215n\206\275Z\241\251<\360\375\233=\372\034\353\275\220\002\273<\223J\375<\350\362\272\275\252i3\275\263\252\022\275\247\370\233\275N\260j<|\n\004\275\201\242\013\275~\324\317<\032,\002\275@\331(\274\001\270\324\274\2555N\275\317n\002\276\353D@=\031\247\250\275j\tQ\275\026X\274\275*.\'\276\265\226\264\275\331\305\373\275AM\357\275\217g\001<\227\026\200\275\000\312\021\275\222\203f\275\332\324\005\277m\2736\276\302\217D<\336\026?\276\2040\210\275\342\231\331\275\252\\h\276!\360\345\275\233\311k\275\246(\022;\275\361\256\274\2439G\275\204\227\270\274\233p\332\275\270\260p\275\311f\016\276\t\\\241\275\327F\225<i\202>\276c\226\222\275\314\177w\275G\320\372\275\325\347\221<K\210\353\275\034\203\204>\202\202\335\274\267\010i<\321)\037\276\013\321\205\275\252R\342\274\n\033\366\275\207x\n\275\325\2775\277QV\332=\204]\246\274\017Z\324\276\372\214w\275\230K\307\2736\257\030\277\264\306\306\275I\212\345\274\264\252b\275+@x\275\217ow\274\356\370E\275\367\272\246\275\352\325\210=\343\246\017\276\205)z\274\240`\210\2755\244\212=eHB;+\273&=\335\277\317\275\013\030\247<\002\305\265\275Q\315\3309\205V\303\274.\217\016\276\367\254\024\275\2368\311\275\356\273?<\352\315\027\275\0340L<\241\205\376\275\234.|\274\314\242\371\275\225\025}\276(9\253\275\2521\357\275T\362s\274\216U\361\275%\367$<v\305$\275\242a\343\275,\336\024\275]>\233\275QiA\275\016qz\275E\230\325\275h\211\023\275\340\210\262\275u\226\214=\'^\020\276\215\202\345;\347\342\335\275a\322\007\275\003\354\332\273P\254g\276\007\322\301\275\333j\201\275\306=\233\275\212\n\206\275%\327\030\274z%\013>/v%9 u\240?\033ST\276!-\204\275 \207\263>\226\261Z\275d\367\346\275/\227\341\275\313O!\275E\347\217\275\202}\211<#\244=\275h\363\261\275U \020\276\371?O\274\221\030\206\275\322\204\273\275\267A\333;\334\240\r\276\2576v>D\262\337\275lo\324\275\007\337\n\276\375\024g:\267J\237\275)\014!\275U\337\002\276\002\353\215\275\334_\267<s5\\\275*A\227\275q\352\340\272\257\353\240=FN-=Cp\371\275r\335\242\274\357\257\272\274CZ\021\2763v\230\275\213]5=9bY\275\376,O\275\r\347@\274\016d\025=\265\025\025\275\233\002\273\275\310$8\273\347U\347\273\313>\275<F\326\307\275\214\351\010\276\354\337\253\275\007\277\236\274\352\373\323=\240\332\007<4Gq\274\375=Z<\257\'\\=\371sA\275^\301z\275\\/\341\274\354\357\030\272JF\232\274\263\242\031;J\335\313\275A\354d=d\231f\276\304\007\264<\010\265 \272\231\177\262\273\212d\250\275h\237\272<\215\255\205;\010\222\374\275`t\242\275\372\316m\274\014\032z\276\004\010\033\275?}\244\275\222S\224\275\266\336h\274\2406\373\275MoY\275>\253\223\275\317\304\003\276\255\325\351\275K\265\245\275\202!%\275\355\205\013\276\243=;=\224Z\340\275\364T\271\275l\270\202\275\207\326\363\275Q\256\321\275%R\321=\203r\201=\301\367\020<O\274\313\275\245Ms\274c\304\255=\336\227\271<\r\002P;\003M\340\274\365b\023\275H\257\350\274JJ\013\275\276\345\271\275\021\004\032\275\r2h\275\351\244\222=\220U,=\037*\000\276\216\306s\274\305\270\211\275ee\255\275\266l\202\275\315f\200=\031\215z\275\246d\330\275\177A\254<\327\213k\274&\237[<\354-\331\275nQ\340<\201\262\316\275\351\362m\275$3\361=W\303u=\021\354\247\2746\267\014\276\301\220\250\275\241z\265=\337\216\244\275\227P\257\275 \341\316;\370\027\221<\372\245\217<\343$\270\274\251Cd;\036\211\316\274\221Ty\274\337\313\255=\321`\014?\315\226\241\275\033\375\246\275U~V\275\3212\225\276\311P\334\275\035.-\274y\347\366\275\340>\351\275?\025\205\2759\311\213=\210M\t<.\245\020\276-q\025\2750\211V\275\33714\274!\205\226=\223\371\241\274\222\372\301=F\243\000<\300\370\224<\250l\336\273k~\\\275\007\302\237\274\317\263\022\274\235\254U9f\023\'\274\211\356\220\275\234H\351\275\263 \262<p\023\307;\007\333\274=\202_\324\275Y\214\361\275\344\255\023\274\251\360\017\274\023+\200\275t5\237\275\273\301t==\336\227\274\241g\005\276\226\r\227\275h\211\201>\266\374u<\\\363\226\275{N5=\207E)\275\037\312\350<s\003\226=\020N7\275\272  =\326tH\275\n\3539\274<\322\343;\"\233\227\275\347-\336\275\037\"\331\273\216%\276\275\3620G\275K\264\021\276\265\357_\274\017\340\006\276L\341\351\274H/{=\304)\022\276\262n\313\275ql\001\276\003@\235<\3409\313\275\300\003\000<\357l\223=\025:s\275E\251\r\275\273\375|\275\200\304{\274qE\255<B\037B\274\226.\303=\236\315\314\275\212\266\366\273\202\351\253=\371\254\272\274N\037\365=\231\356\273<\037\317M<\203\353\026<\333w\'<>$n\275(\307\007=\257\036x\274nKG\273\373\274\375\274\247rU\274\272\277L\275\365\353\301\2755Z\333=h\241d\275mf\372\273ELY;d/i\275\0262\267\275\234\367x<t\353\373=\271 \326\275\361\n\320;\225v\261\275)/\000=o\370\272\275|\001\234<:\030\233=A#\351\275\036I]< \026h\274\001\002\211;\331\356\316=\325DW;\017\245&\275\272g\032<1\341\350\274al\211\273\227\255\305=\222e\345\274?v\211<1!\371\275\237\r\351\275\271\266d\275\271\345\227\274\031\362\017\275\310W\346;#}\237\275\266\332\220\275!\206\201\275\004|\247<I\217\217<\221z\204\27474\322\274\212d\203;\311\221<\275\256\220F<\017~\313\275L.\224\275\351\233B\275\203\002\340\275\241\027\330\2758\\\'=\343\356\305\274\352\370\242\274\332\2360=~G\200<k\006p=9d\335\275\366\331e\275\236\257\341=\020\275\374\275x\340\373\275U\024\235<\266V\241\275\206\213N<G\326\227\275\256^M<\034/\354\274\237\251\n\276\007\327\256\274\233g\251<\307yh\275\234\371\231\273\376\265y=\307\317L<\251\030\020\276\0354\007\275\207\306\201>0q+\275Y@\300\275\314\312y\273#\355\345\275\327\006&\275=2\033\275\346>\032\275\314-Y>&{\357>\306\302\222\273\323,